#version: 0.2
ä ¸
ï ¼
ã Ģ
ç ļ
çļ Ħ
ï¼ Į
ãĢ Ĥ
è ¯
ä »
æ Ī
å ı
< |
e n
i m
| >
en d
æ ľ
ä º
ä ½
å ¤
ä¸ Ģ
è ¿
æ ĺ
æĪ ĳ
ãĢĤ <|
å ħ
å Ĳ
æĺ ¯
ä¸ ª
å ľ
ä ¹
ï¼ Ł
é Ĺ
ä½ ł
æ ĸ
å Ī
å ¥
ç Ķ
å ®
ç »
å Ĭ
å¥ ½
è¯ ·
é ¢
å ¸
åľ ¨
éĹ ®
æľ ī
è¿ Ļ
ä» ¥
æ °
å Ľ
å Ĵ
å¤ ©
æ Ĥ
å °
åĴ Į
å Ń
¦ ģ
è ¦ģ
æĤ ¨
ĥ ½
é¢ ĺ
ä¸ º
åı ¯
æ Ĺ
â Ģ
å ĵ
å ĳ
å Ĩ
ä¸Ģ ä¸ª
æ ı
è ĥ½
ä¹ Ī
ä ¼
è ®
ä¸ ĭ
ä¸ Ń
æ° Ķ
å ĩ
æ ł
è °
ãĢ ģ
ä¸ į
ç Ń
å ¾
æ ĥ
æĸ ĩ
åı ¥
åı¯ ä»¥
å ½
ç §
å º
æ ī
æ Ŀ
å į
é ľ
å ¹
ç ī
æ Ħ
æ ŀ
éľ Ģ
äº º
éĹ® é¢ĺ
æı Ĳ
è ¡
é ĩ
å¥½ çļĦ
è° ¢
äº Ĩ
æĪ Ĳ
¦ Ĥ
éľĢ è¦ģ
å¸ ®
å ¼
æ ķ
æ Ģ
Ģ ä¹Ī
ä» Ģä¹Ī
å ¯
çĶ Ł
å Į
è §
ç İ
ä ¾
é Ģ
ï¼ ļ
åĩ º
åŃ Ĳ
å ¦Ĥ
æľ Ģ
çĶ ¨
ä¼ ļ
é Ŀ
ä¸ Ĭ
çŃ Ķ
æ Ĭ
åĪ °
äº İ
åĲ Ĺ
ï¼ ģ
ç» Ļ
æ Ń
ç «
æ į
åĳ Ĭ
æ ³
åħ ³
é £
âĢ ľ
âĢ Ŀ
åĵ ª
å İ
é Ĥ
åľ °
å ¿
å ·
æ Ľ
å¤© æ°Ķ
å½ ĵ
æĿ ¥
æ µ
çļĦ ç
ï¼Ł <|
çī ©
æ ¯
å¾ Ī
ç Ħ
å¤ §
æĹ ¶
æŀ ľ
æ ¸
åĽ ŀ
æ İ
è¯ Ń
å¤ ļ
æ Ļ
è Ģ
ä ¿
è¯ į
ä» ĸ
è¿Ļ ä¸ª
æį ®
æ Ķ
åħ ¶
çĦ ¶
ç ±
æķ °
éĤ £
æĥ ³
æ ¬
æ ĭ
é ģ
è¯ ī
è¯ Ŀ
é ¦
åĽŀ çŃĶ
è ¾
åĪ Ĩ
è¯· éĹ®
æĦ Ł
çİ °
åĳĬ è¯ī
« ĺ
ç Ł
é «ĺ
äº Ľ
ç Ľ
ä» ¬
æĥ ħ
æıĲ ä¾
æıĲä¾ Ľ
è µ
åı¥ åŃĲ
è¡ Į
å¯ ¹
æ ²
æĸ °
åĳĬè¯ī æĪĳ
ç Ĳ
è ½
æľ ¬
ä½ ĵ
æĽ ´
ç º
æ Į
å ±
å® ļ
åĬ ©
è ĩ
åĬ ¨
è§ £
æ ģ
ç Ĥ
ä¸Ģ ä¸ĭ
æĸĩ ç«
æĸĩç« ł
æ ±
è ī
å Ł
é Ļ
Ġ å¥½çļĦ
æĺ İ
è¿ °
è¿ ĺ
å ĸ
åĨ Ļ
åº ¦
å¸® åĬ©
çĶŁ æĪĲ
ä¸ »
çİ° åľ¨
æĪ ĸ
åĬ Ľ
å° Ĩ
æł ¹
æī Ģ
è°¢ è°¢
æ³ ķ
¾ İ
é Ķ
å½ĵ çĦ¶
ç± »
æł¹ æį®
å® ĥ
å° ı
éģ ĵ
åĲ į
ä½ł å¥½
æ Ł
è ´
å¦Ĥ æŀľ
éĿ ¢
é¦ ĸ
é ļ
åħ ·
ç ľ
è Ĭ
çļĦ å¤©æ°Ķ
èī ²
¯ ĩ
ç ¯ĩ
Ġ è¯·
ä½ł çļĦ
å¸ ¸
åĽ ł
è¡ ¨
¨ Ģ
ç ®
è ¨Ģ
è¿ ĳ
æĸ ¹
ä»¥ ä¸ĭ
æĦ ı
ä¿ ¡
çĤ ¹
å ģ
ä» İ
ä½ ľ
åĵ ģ
ç§ į
åħ¶ ä»ĸ
è ¶
é ĺ
é Ľ
éĩ Į
éĹ ´
å¸ Ĥ
æģ ¯
å »
Ĭ å¤©
åı ĸ
åĽ ½
åŃ ¦
æĹ ł
æı ı
æł ·
å¹ ¶
æ¬ ¢
æ ¡
ç ¾İ
åı ĳ
è¿ Ľ
çŃ ī
ç ©
ç Ī
åħ ¬
æĸĩ æľ¬
é£ İ
çĲ ĥ
åĸ ľ
å» º
æıı è¿°
ç ¬
ç ĭ
İ å¸Ĥ
åĳ ¢
åį ķ
å¿ ĥ
çļĦ éĹ®é¢ĺ
è¯ Ĺ
ä¸Ģ åı¥
æ° ´
è® ®
æĬ ¥
éĤ£ ä¹Ī
çŁ ¥
åħ· ä½ĵ
å Ŀ
ä¹ ĭ
åĬ ł
åŁ İå¸Ĥ
ç Į
è ¢
æ ´
ç ´
åħ ´
çĶ µ
ç§ ĭ
éĿ ŀ
æµ ·
æ¯ Ķ
æ¸ ©
èĩ ª
ä¿¡ æģ¯
è ·
è į
æĪĳ ä¼ļ
å¹ ´
æŃ Į
ä½ į
è¯· ä½ł
å½ ±
èµ ·
ä» £
ä» Ĭå¤©
åĲ ¦
åĲ Į
æĹ ¥
å¼ Ģ
éĿŀ å¸¸
è Ĳ
ä» ¶
æĺ¯ ä»Ģä¹Ī
é¢ Ħ
å¸® æĪĳ
å¼ ı
éļ ı
ç ķ
é ķ
ä¸ ¤
åħ ¥
ç» ĵ
æıĲ åıĸ
ç»Ļ æĪĳ
åħ³ äºİ
å ī
è¯ ¥
è¿ ĩ
æ ®
Ġ ä½łå¥½
äº §
ä½ ķ
åĵª ä¸ª
æ² ¡
å± ±
æ »
ç ¤
ç Ŀ
ä½ ¿
å¤ ª
æĪĳ åı¯ä»¥
å® ¢
æĢ §
åĮ ħ
æ± Ĥ
ç© º
å»º è®®
è¢ «
éķ ¿
å Ģ
ç ¼
Ġ ä¸º
ä¸Ģ é¦ĸ
åĲ İ
å° ĳ
åĬ¨ çī©
è¿ĺ æľī
å½ĵçĦ¶ åı¯ä»¥
é »
åı £
æľ º
å® ¹
å° ½
åŃ Ĺ
ä¸Ń çļĦ
å¾ Ĺ
å¹ ³
åİ »
çĽ ¸
çĶŁæĪĲ ä¸Ģä¸ª
è¿Ľ è¡Į
åĸľ æ¬¢
æ ·
é ¸
é ĥ½
åĲ Ī
è¿Ļ ç¯ĩ
åĨ į
è® ¡
è® ©
æŃ £
æĮ ĩ
ä¸» é¢ĺ
çĪ ±
éļı æĹ¶
ç ½
è ģ
äº ĭ
ä¸º æĤ¨
æł ¼
åº Ķ
éĩ į
å· ¥
æŁ ¥
ç ³
ç ł
æĪĳ ä»¬
ä¹ ī
åĮ ĸ
éĢ ļ
èĢ ħ
æĺİ å¤©
æĹł æ³ķ
æ® µ
çĿ Ģ
¤ Ĳ
å ¢
ç ¡
ç ¨
è Ī
é ¤Ĳ
ä¸ ī
ä» »
çĶ ±
åĨ ħ
æī ¾
æī ĭ
ä¾ ĭ
æľĢ è¿ĳ
æĶ ¾
ä¸Ģåı¥ è¯Ŀ
è ı
æľ Ī
æľ Ľ
æĢ »
ç»Ļ å®ļ
æĭ ¬
æ²¡ æľī
çł ģ
ç¡ ®
å ŀ
Ġ æł¹æį®
äº Ķ
åĲ ¬
åº ı
æľĢ é«ĺ
æİ ¨
è½ ¦
çº ¢
é ¡
ä¸ ĸ
è¯ ´
è¯ ķ
åı ĺ
æĪĳ æĥ³
åľ º
åĪ Ľ
è¿Ļ æĺ¯
åı¯ èĥ½
çī ¹
æĻ ¯
çĲ Ĩ
åĽł ä¸º
åįķ è¯į
çķ Į
è¿Ļç¯ĩ æĸĩç«ł
ç ¿
æľ Ł
å¤ Ł
åĲ ĥ
åĪ «
å° ±
æł ĩ
éĢ ī
ç»Ļ åĩº
æ¯ ı
æ¸ ħ
æĻ º
è¯·éĹ® æĤ¨
çľ ĭ
è¶ £
çŁ¥ éģĵ
ä½¿ çĶ¨
ç ¦
è Ĥ
åı ¶
ä½ Ĩ
ä¹ Ĳ
ç» ı
åĬ ¡
éĩ ı
åĮ Ĺ
èĢ Į
é«ĺ åħ´
æ¡ Ī
ä¸ĸ çķĮ
å ķ
Į æľĽ
ãĢĤ âĢĿ
è¯ »
åı ª
æľ ª
ä¸Ģ äºĽ
æĪĳ çļĦ
åĪ Ĺ
ç» Ĩ
å¸ ĮæľĽ
æĢ Ŀ
æķ° æį®
çĽ ®
ä»£ çłģ
è¿ĺæľī åħ¶ä»ĸ
æ ¶
è Ļ
æĸ Ń
å® Į
æľī ä»Ģä¹Ī
æĤ¨ çļĦ
åĳ ³
èĥ½ å¤Ł
å¼ ķ
æĬ Ĭ
åİ Ĩ
è°¢è°¢ ä½łçļĦ
éĶ Ļ
èĬ ±
éĽ ¨
åħ·ä½ĵ çļĦ
ç³ »
ç¨ ĭ
è Ħ
ä½ł èĥ½
å® ¶
åĨ µ
åĮ º
åĪĨ ç±»
ç® Ĺ
å®¢ æ°Ķ
æ Ĳ
ç ĥ
è ±
é ĥ
ä¸ İ
ä¸ ļ
ä» ½
äº ¬
æĺ Ł
æĺ¯ åĵª
æĺ¯ åĲ¦
éĹ »
è¯· åĳĬè¯īæĪĳ
è¿Ļ äºĽ
åĨ ³
æĢ İ
å¯ ¼
å¾Ī é«ĺåħ´
æİ Ĵ
å¤ļ å°ĳ
è½ »
æĽ´ å¤ļ
åģ ļ
ç¬ ¬
çĶµ å½±
åī į
é¸ Ł
åŀ ĭ
æĻº èĥ½
å £
æ ¼
æ ļ
å¤ ı
æĸ Ļ
è¯· æıĲä¾Ľ
å¦Ĥ ä½ķ
å¿ «
çŁ Ń
çİ°åľ¨ è¯·ä½ł
å®ĥ ä»¬
ä¹ĭ éĹ´
èį Ĳ
é¢Ħ æĬ¥
æİ¨ èįĲ
åĮĹ äº¬
³ °
å ³°
æ £
è¯ ¢
å¤ į
åħ ¨
ä¸ª äºº
ç» Ŀ
è¦ģ æ±Ĥ
ä¸į åĲĮ
ç§ °
æĬ Ģ
åħ³ éĶ
ä¿ Ŀ
è¾ ¾
æĸ° éĹ»
èĩ ´
å¦Ĥæŀľ æĤ¨
èĬ Ĥ
çĭ Ĺ
è¯Ĺ æŃĮ
çĮ «
ç´ ¢
èĲ ½
éĥ ¨
æĢİ ä¹Ī
åħ³éĶ ®
ç ģ
ç Ĺ
ç Ļ
é ħ
åı ·
ä¸Ģ ç§į
åħ ĥ
åĲ «
åĩ ł
å½ ¢
ç§ ĳ
æŀ Ĳ
è§ ī
ï¼ģ <|
é£ ŀ
ç± ³
åĪĨ æŀĲ
æĥħ åĨµ
éĺ ³
æĪĳä¼ļ å°½
ç¤ º
æĲ ľ
1 0
å Ļ
æ ¦Ĥ
ç Ĭ
ç ĸ
ä¸Ģ ç¯ĩ
æĺ ¥
æĪĳ éľĢè¦ģ
ä¹ Ł
åĽ Ľ
æ°Ķ æ¸©
çİ ¯
éĢ Ĥ
æ³ ¨
è¾ ĵ
æĪĸ èĢħ
æīĢ æľī
è°¢è°¢ ä½ł
åĲį ç§°
ä¸¤ ä¸ª
ç»ĵ æŀľ
äº§ åĵģ
ä¹ī è¯į
äºĶ è¨Ģ
ç¦ »
» è¯
æ ¢
è ĭ
ħ §
çļĦ åı¥åŃĲ
åı ²
æľ ¯
äº ĳ
å¤© çļĦ
è® ¾
å¹ ¿
æĢ ģ
åİ ħ
æµ ģ
æ¬ ¡
æĭ ©
æīĢ åľ¨
çľ Ł
ç® Ģ
ç´ ł
èµ· æĿ¥
Ġä¸º ä»Ģä¹Ī
çĶ± äºİ
éĢī æĭ©
è± ¡
åĻ ¨
»è¯ ĳ
è º
æľ į
å¤ ľ
ä¹ ¦
åĪ ¤
é¢ Ĩ
æľī è¶£
åĽ Ń
ä¸į å®¢æ°Ķ
äºº å·¥
éĩ Ĭ
é£ ĺ
é£ Ł
åĵª äºĽ
å¾Ī å¥½
è¯Ń è¨Ģ
è¾ ¹
å± ķ
çĭ ¬
æıĲåıĸ åĩº
æ» ¡
åĢ ¼
èı ľ
å¯¼ èĩ´
æĢİä¹Ī æł·
æĲľ ç´¢
äººå·¥ æĻºèĥ½
å ¡
å §
å Ķ
ç ¥
çļĦ ä¿¡æģ¯
ãĢĤ "
æĪ ·
åı Ĺ
æĺ ĵ
åħ ±
åħ ī
æĺ¯ çļĦ
åĪ ©
å® ŀ
ç» Ħ
è¯· éļıæĹ¶
åĵ į
ï¼ļ âĢľ
çŃĶ æ¡Ī
åľ° çĲĥ
å· ²
æİ ¥
æĶ ¹
è¯·éĹ® ä½ł
ç¾İ åĽ½
åĿ ĩ
åĮħ æĭ¬
ç¼ ĸ
å¹³ åĿĩ
é¤Ĳ åİħ
åĨħ å®¹
æľĢé«ĺ çļĦ
å®Į æĪĲ
åİĨ åı²
æīĢåľ¨ çļĦ
º ä¹
å Ħ
æ ĳ
ç ı
ç ħ§
è İ
é Ĵ
ä¸ ĩ
åı ¸
åı Ĭ
åĪ ¶
åĬ Ł
ä¼ ł
è® º
ä¸į çĶ¨
æŀ ģ
äºĨ è§£
çĶ¨ ä¸Ģåı¥è¯Ŀ
æŃ ¥
ç« Ļ
æĻ ļ
è½ ¬
çº ¦
æĮ ģ
æĮ ī
è§£ çŃĶ
åŁ Ł
è¡¨ è¾¾
åħ¬ åı¸
é» Ħ
çĽ¸ åħ³
å¢ ĥ
ç¿ »è¯ĳ
åħ³éĶ® è¯į
çĻ ½
èº «
åĦ ¿
é Ł
Ġ éĿŀå¸¸
è¯ Ħ
åı į
åĲ ¸
è¿Ļ é¦ĸ
é¢ĺ çĽ®
èĥ½ åĲ¦
åı¥ è¯Ŀ
æī ĵ
åį ĩ
å¸® æĤ¨
å¼ ł
éĢ ł
åĪ° äºĨ
æŃ ¤
åİ Ł
åľ° åĮº
æµ ĭ
ä»ĸ ä»¬
æĶ ¯
é¦ Ļ
è¿ĺ æĺ¯
ä¸» è¦ģ
è´ Ń
æĸ¹ éĿ¢
åħ¬ åĽŃ
æ´ »
åĵªä¸ª åŁİå¸Ĥ
åĮħ åĲ«
æ· ±
ç½ ĳ
åºĶ è¯¥
é¡ ¹
èĻ ĳ
ç»Ŀ åı¥
æ¢ ¦
¥ ¿
å ²
è Į
è ĳ
è ¥¿
é ¥
Ġ ä»İ
åı ¤
å¤ ´
å¤ Ħ
åħ ĭ
å¥ ¹
ä¸º ä»Ģä¹Ī
åĵ ¦
åĳ ½
è® ²
ä¸Ń åĽ½
ä¸į èĥ½
ä¸į éĶĻ
ç§ ¯
æī į
æĿ ¡
åį İ
éĩ ĳ
æķ ħ
èĢ ĥ
æĦŁ è°¢
æĦŁ åĪ°
è§£ åĨ³
æĸĩç«ł ä¸Ń
éĻ į
çļĦå¤©æ°Ķ æĥħåĨµ
å½± åĵį
æŁ¥ è¯¢
éĢļ è¿ĩ
å¢ ŀ
ä»» åĬ¡
æĪĳä¼ļå°½ åĬĽ
äºĶè¨Ģ ç»Ŀåı¥
åĪ¤ æĸŃ
é¢Ĩ åŁŁ
å§ ĭ
± ¼
æ ¤
ç ¢
è ĥ
é ±¼
è¯ Ĩ
åı ĭ
äº ¤
ä¸Ģ æ®µ
åĪ ļ
å® ī
ç» ¿
ç» Ł
çī ĩ
åħ³ ç³»
éĤ ®
å· ´
æĽ ²
çļĦç ¾İ
æ¯ į
æĶ ¶
æĶ ¿
è¾ ĥ
å± ŀ
éĻ Ħ
è´ ¨
è¶ ³
éĺ Ł
èĩª çĦ¶
è· Ł
åĢ Ļ
ç½ ®
ä¸ī ä¸ª
ä»» ä½ķ
èĤ ī
æľª æĿ¥
æ¦Ĥ æĭ¬
çĬ ¶
å·² ç»ı
³ åĬ¨çī©
æ ¨
ç ²
é ¼
Ġ çĶŁæĪĲ
Ġ éĤ£ä¹Ī
Ġ ç»Ļå®ļ
ãĢ Ĭ
ãĢ ĭ
è¯ ¯
æĪ ¿
æľ Ĺ
å¤ ĸ
è¿ Ĳ
æĺ¯ å¤ļå°ĳ
éĹ ¨
ä½ł åı¯ä»¥
å¸ ¦
åĵ ºä¹
æĦ ī
æķ ´
ä¾ ¿
åĪ° çļĦ
çļĦç Ł
æ¸ ¸
æĻ ´
èĢ ģ
åħ¶ ä¸Ń
æĦŁ è§ī
èµ Ħ
å¯¹ è¯Ŀ
è§£ éĩĬ
åĨĻ ä¸Ģé¦ĸ
å¸®åĬ© æĤ¨
æŁ Ĳ
æĸ¹ å¼ı
èį ī
ç»ĻæĪĳ ä¸Ģä¸ª
å®¹ æĺĵ
è®¡ ç®Ĺ
çĪ± æĥħ
æĢ» ç»ĵ
åĪĽ ä½ľ
ä½Ĩ æĺ¯
ä¸ĸçķĮ ä¸Ĭ
çĥ Ń
å¾Īé«ĺåħ´ èĥ½å¤Ł
æļ ĸ
è¾ĵ åħ¥
å¹¿ åĳĬ
æľĢé«ĺçļĦ å±±
æīĢåľ¨çļĦ åŁİå¸Ĥ
éŁ ³
åĵºä¹ ³åĬ¨çī©
0 0
æ Ĵ
é ©
é ª
é ¹
Ġ æĪĳ
Ġ è¯·éĹ®
Ġ å¤ª
Ġ çĶŁæĪĲä¸Ģä¸ª
çļĦ æĸĩæľ¬
æĪ ĺ
ä¸Ģ ä»½
æĺ¯ ä¸Ģç§į
åĪ Ĵ
é¢ ľ
éĹ® æĪĳ
è¿Ļ æ®µ
æĤ¨ éľĢè¦ģ
âĢ Ķ
åĨ °
ä¸Ģä¸ª æĸ°
åĩ ı
ä¸į æĺ¯
ä¸į çŁ¥éģĵ
åº Ĺ
éĹ®é¢ĺ éľĢè¦ģ
åĮ »
è§ Ħ
æį ¢
å¿ µ
çī© åĵģ
æĹ¶ éĹ´
è¿Ļä¸ª åı¥åŃĲ
æķ° åŃ¦
æĥħ æĦŁ
èµ Ľ
æ² Ļ
æĽ´ åĬł
åĸ Ŀ
åĨĻ ä¸Ģä¸ª
éļ ¾
çļĦå¤©æ°Ķ é¢ĦæĬ¥
è¡¨ æł¼
åģ ¥
æĬ¥ åĳĬ
æ¯Ķ è¾ĥ
è· ¯
é¢Ħ æµĭ
ä¸ºæĤ¨ æıĲä¾Ľ
èĪ ŀ
çº¢ èī²
åĪĹ è¡¨
å£ «
æĬĢ æľ¯
è¯·éļıæĹ¶ åĳĬè¯īæĪĳ
éĤ® ä»¶
å±ŀ äºİ
éĻĦ è¿ĳ
2 0
A I
æ º
ç ¾
é Ĩ
Ġ éĤ£
Ġ åĽŀçŃĶ
Ġ å¦Ĥæŀľ
Ġ å¸®æĪĳ
ĭ åıĭ
Ŀ ç¦»
ä¸ ľ
çļĦ åĲį
ãĢĤ âĢľ
è¯ ¦
ä» ·
æľ ĭåıĭ
äº Į
ä½ İ
è¿ İ
è¿ ľ
æĪĳ å°Ĩ
åĲ §
åĲ ĳ
ä¹ °
ä¹ ł
ä½ł æľī
è¯· æĤ¨
æľī åħ³
è¿Ļ åı¥è¯Ŀ
ä»¥ ä¾¿
åĽ ¾
æĤ¨ å¥½
æĹ ©
æĹ ħ
åĳ ĺ
ä¼ ģ
ä¼ ĺ
ä¸ĭ æĸĩ
åĩ Ĩ
åĩ ī
è° ĥ
åį °
çī Į
éĢ ģ
éĢ Ł
ä¸Ĭ ä¸ĭæĸĩ
ç« ĭ
å· ±
å½ĵ åľ°
çļĦç ĭ
æĥ³ è¦ģ
éģ ĩ
çº ¿
éĻ ¢
åĨĻ ä¸Ģç¯ĩ
ç±» åŀĭ
å®ĥ çļĦ
çļĦå¤©æ°Ķ æĢİä¹Īæł·
æł· çļĦ
ç¬ ĳ
æĬ¥ éģĵ
ç§ĭ é£İ
æ¸© åº¦
èĩª å·±
è· Ŀç¦»
æĹ¥ æľŁ
é» İ
åı£ åı·
æľº åĻ¨
èģ Ĭå¤©
æī¾ åĪ°
Ġæł¹æį® ä»¥ä¸ĭ
è¿Ļç¯ĩæĸĩç«ł çļĦ
æłĩ é¢ĺ
è¯·éĹ®æĤ¨ éľĢè¦ģ
æĺ¯åĵª éĩĮ
æ£ Ĵ
å¦ĤæŀľæĤ¨ è¿ĺæľīåħ¶ä»ĸ
çĹ ħ
è®¾ è®¡
èĳ Ĺ
æīį èĥ½
å·´ é»İ
æ¨ ¡
æľĢé«ĺçļĦå±± å³°
é¢ľ èī²
" <|
´ åĪ«
æ ¥
ç ĵ
è ĵ
é ī
é ĵ
Ġ å¾Īå¥½
ħ è¯»
ĸ åķ
ï¼ Ī
ï¼ ī
çļĦ å¤§
çļĦ å¹³åĿĩ
äº «
ä¸Ģ ä½į
ä¸Ģ æ¬¡
åĲ ¹
æĺ¯ åľ¨
å¥ ³
å® ¤
è¯· æĬĬ
åľ¨ äºİ
åľ¨ åĵªä¸ªåŁİå¸Ĥ
åĴ ĸåķ
å° Ŀ
æĤ¨ åı¯ä»¥
ä¸º ä½ł
æĹ ¨
ä¼ ¼
è® °
æł ĳ
è° ģ
ä¸į ä¼ļ
å¾ ħ
æĿ ¯
åį ³
äºº ä»¬
å¼ º
æķ £
çĶŁ çļĦ
æľĢ å¤§
åĪ° å°ı
å¤©æ°Ķ é¢ĦæĬ¥
çļĦç ¬
æ¬ ¾
é¦ Ĩ
çĽ ´
æ² ³
å¸®åĬ© ä½ł
éĶ Ģ
éĿ¢ çļĦ
åĽł æŃ¤
ä½ľ ä¸º
éĺ ħè¯»
æ¬¢ è¿İ
åıĳ å±ķ
åĿ Ĳ
åħ´ è¶£
ç§ĭ å¤©çļĦ
ç¤ ¼
å¤ª éĺ³
éķ¿ åº¦
åŃĹ æ¯į
åĸľæ¬¢ åĲĥ
è®© æĪĳ
æŃ£ ç¡®
èģ Ķ
éĩį è¦ģ
æľĢè¿ĳ çļĦ
åĲ¬ èµ·æĿ¥
è¿Ļæĺ¯ ä¸Ģä¸ª
åı¯èĥ½ æĺ¯
ãĢĤâĢĿ <|
ç¨ĭ åºı
èĦ ĳ
å£ °
çŁŃ è¯Ń
æĸ°éĹ» æĬ¥éģĵ
çģ «
åĩł ä¸ª
çİ¯ ä¿Ŀ
å¡ «
æĳ Ħ
çı ł
èİ ·
éĴ Ł
æĮī çħ§
åĲ¸ å¼ķ
æķħ äºĭ
æ¤ į
çļĦçŁ Ń
éŁ³ ä¹Ĳ
è¯¦ ç»Ĩ
èĵ Ŀ
éī ´åĪ«
åĴĸåķ ¡
4 8
å ¦
å Ĺ
æ ħ
è Ľ
é ²
Ġ åı¯ä»¥
Ġ è°¢è°¢
çļ ĩ
çļĦ åĲĹ
çļĦ è¯Ŀ
çļĦ é¤Ĳåİħ
ä¸Ģ å®ļ
ä¸Ģ ç»Ħ
æĪĳ æľĢè¿ĳ
åħ Ī
åĲ ¯
å¥ ĩ
å¥ ĭ
ç» Ń
æ° ı
å° ģ
åŃ ©
åĳ ¨
å¾ ®
æĿ ¾
æĿ Ĳ
éľĢ æ±Ĥ
è§ Ĥ
çİ ĩ
çİ Ľ
æľĢ åĲİ
åľ° æĸ¹
å¿ Ļ
å½ĵ åīį
æĿ¥ çļĦ
æ¸ Ĳ
è¯Ń æĢģ
ä¿ ®
æĦŁ åıĹ
çŁ ³
åĬ¨ è¯ŃæĢģ
è§£ è¯»
ä¸» æĹ¨
æīĢ ä»¥
è´ ¹
è´ Ł
åĵģ çīĮ
è¶ Ĭ
çŃī çŃī
åħ¬ éĩĮ
ç§ĭ å¤©
æŃĮ æĽ²
ä½į ç½®
ä»Ĭå¤© å¤©æ°Ķ
åī ©
æ» ©
æĪĳåı¯ä»¥ ä¸ºæĤ¨
ç©º æ°Ķ
è¢« åĬ¨è¯ŃæĢģ
èģ Ĭ
ç¡® å®ļ
çī¹ çĤ¹
æ¶ Ī
æ¼ Ķ
åħ¨ çĲĥ
éħ į
ç§ĳ æĬĢ
ç®Ģ åįķ
åĬŁ èĥ½
æĦī å¿«
é© ¬
çļĦçĭ Ĺ
æľºåĻ¨ äºº
å°Ŀ è¯ķ
¦ èĻĳ
§ åħĭ
« åı¶
å ©
å ĥ
è ħ
Ġ å¯¹
Ġ å°Ĩ
Ġ ç»Ļåĩº
Ġ åĨĻä¸Ģé¦ĸ
Ĩ æľĹ
çļĦ æĺ¯
çļĦ åį
çļĦ å°ı
çļĦ ä¸»é¢ĺ
ä» ¤
åı ¦
åı °
æľ Ŀ
å¤ ±
å¤ ĩ
æĪĳ ä¸įçŁ¥éģĵ
æĺ¯ ä¸Ģä¸ª
æĸ ¯
æĸ ½
ç» ª
å¸ Ŀ
æ° §
åĽ ¢
æĤ ¦
åŃ £
åĵ Ī
èĥ½ åĳĬè¯īæĪĳ
èĥ½ å¸®æĪĳ
æ°Ķ åĢĻ
çŃ ¾
å¾ Ħ
åº ľ
æŀ «åı¶
æıĲ åĪ°çļĦ
éĩ ĩ
æĪĲ åĬŁ
éľĢè¦ģ æĪĳ
å¸® åĪ°
å¸® å¿Ļ
çĶŁ åĳ½
è§ Ĩ
çĶ¨ äºİ
æ³ ¢
âĢĿ ãĢĤ
å· §åħĭ
å¾Ī å¤ļ
çĦ ¦èĻĳ
æİ ī
æķ° åŃĹ
éģ į
è½ ¯
èĩ ³
çĤ İ
åŁ º
æŁ ĵ
è¿ĳ ä¹īè¯į
æ¡ ĥ
ç© ĨæľĹ
ç¬ ¦
çĮ İ
ä½į äºİ
ä»Ĭå¤© çļĦå¤©æ°Ķ
ä»Ĭå¤© åĮĹäº¬
å¼Ģ å§ĭ
èĲ ¥
ç¤ ¾
éĥ½ æĺ¯
è®¡ åĪĴ
åºĶ çĶ¨
æŁ¥ ä¸Ģä¸ĭ
éĢļ å¸¸
é¡ º
è¿Ļç¯ĩæĸĩç«ł ä¸Ń
ç»Ĩ èĬĤ
æĢĿ æĥ³
éĶĻ è¯¯
ä½łèĥ½ å¸®æĪĳ
æİĴ åºı
çĹ Ľ
åħĥ ç´ł
çĸ ĳ
çİ¯ å¢ĥ
éĢĤ åĲĪ
æ³¨ æĦı
è¾ĵ åĩº
æľį åĬ¡
ç¥ ŀ
ä¸įçĶ¨ è°¢
æŀģ çļĦ
ĠéĿŀå¸¸ å¥½
èĢĥ èĻĳ
æĦŁè°¢ ä½łçļĦ
å®ī åħ¨
çļĦç¾İ å¥½
è·Ł æĪĳ
é¹ ħ
ä¸ºæĤ¨æıĲä¾Ľ å¸®åĬ©
æº Ĳ
æĹ© ä¸Ĭ
ä¼ģ é¹ħ
èĳĹ åĲį
æ¨¡ åŀĭ
èİ· å¾Ĺ
æ¤į çī©
çļĩ å¸Ŀ
æ°ı åº¦
çİĽ å³°
åĥ ı
å·§åħĭ åĬĽ
ç©ĨæľĹ çİĽå³°
5 0
8 48
¡ æŁĵ
Â ·
å ¨
æ ½
æ ĵ
è £
Ġ å¥½
Ġ ç»ĻæĪĳ
Ġ èĥ½åĲ¦
çļĦ æ°´
çļĦ çĶµå½±
çļĦ çŃĶæ¡Ī
äº ī
äº Ĵ
ä½ ³
ä½ Ļ
æĪĳ å·²ç»ı
æĪĳ å¾Īé«ĺåħ´èĥ½å¤Ł
åĲ Ħ
ï¼Ł âĢĿ
ä½ł å¯¹
åĪ Ļ
å® £
å® ĩ
å® Ŀ
åľ¨ åħ¬åĽŃ
æľī æĦı
ä»¥ åıĬ
æĤ ²
å° ¼
åŃ ¤
æĤ¨ æĥ³è¦ģ
ä¸º æĪĳ
ä¸º ä¸»é¢ĺ
åĨ ·
åĨ ľ
ä¸Ģä¸ª éĹ®é¢ĺ
èĥ½ ä¸įèĥ½
ä¼ ´
è® ¢
è® ¸
ä¸Ń å¿ĥ
æĸĩ åŃ¦
ç§ Ģ
åº ·
åį ģ
æŀ Ĺ
æıĲ é«ĺ
è¡ £
éľĢè¦ģ å¸®åĬ©
éľĢè¦ģ æĽ´å¤ļ
å¼ Ĥ
æķ Ī
å¯ »
å¯ Ĵ
ä¾ Ŀ
æľĢ åĸľæ¬¢
éĿ Ļ
åĵª ç§į
åĵª éĩĮ
å¿ ħ
å· ®
å· ŀ
çļĦç Ľ
æİ ª
è¯Ń æ°Ķ
æĻ ¨
è¿Ļä¸ª éĹ®é¢ĺ
è¾ ĳ
æĦŁ åħ´è¶£
æıĲä¾Ľ ä¸Ģä¸ª
æģ ¶
æ± ĩ
æ± ¡æŁĵ
éĻ ¤
éĻ ħ
ç® ¡
ç® ±
ä»İ èĢĮ
ä½ľ çĶ¨
æł· ä¾ĭ
æ¡ £
é£İ æł¼
ç¬ Ķ
åĿ ļ
ä¹ĭ ä¸Ģ
çĮ ª
æ´ ģ
åħ´ å¥ĭ
æ¯Ķ å¦Ĥ
æ¯Ķ èµĽ
æŃĮ è¯į
æĪĳåı¯ä»¥ å¸®æĤ¨
ç¼ ĵ
ä¸Ģé¦ĸ äºĶè¨Ģç»Ŀåı¥
é» ĳ
åı£ åĳ³
äºĭ æĥħ
äºĭ ä»¶
æĪĳä»¬ çļĦ
æĹłæ³ķ åĽŀçŃĶ
ä¾ĭ åŃĲ
èı Į
åıĺ åĮĸ
åľº æĻ¯
åĪĽ éĢł
æłĩ è¯Ń
ç¦ ı
èĤ ¯
åķ Ĩ
å¼ķ è¿°
è°¢è°¢ä½łçļĦ å»ºè®®
å¾Īé«ĺåħ´ èĥ½
å¤ı æĹ¥
ä¹ĭéĹ´ çļĦ
æ£ Ģ
çģ ¯
éħ Ĵ
ç§ĳ åŃ¦
çľŁ çļĦ
çľŁ å¥½
é£Ł çī©
è¯Ńè¨Ģ æ¨¡åŀĭ
ç¼ĸ ç¨ĭ
åĪ¶ ä½ľ
ä¼ł æĴ
ä¸įçĶ¨ å®¢æ°Ķ
è½¬ æį¢
åıį ä¹īè¯į
åºĶè¯¥ æĺ¯
æ¢¦ æĥ³
ç¢ §
æĶ¿ åºľ
è´¨ éĩı
æĪ¿ éĹ´
ä¸ĸçķĮä¸Ĭ æľĢé«ĺçļĦå±±å³°
åģ¥ åº·
åĩĨ ç¡®
éĢŁ åº¦
æ¥ ¼
èģĶ ç³»
çıł ç©ĨæľĹçİĽå³°
ç¬¦ åĲĪ
é¡º åºı
ä¼łæĴ Ń
1 5
1 6
§ ç»Ń
® åŃĲ
¹ æŀľ
» è¾ĳ
¼ åĲ¸
½ åŃĲ
½ çĦ¶
å ł
æ ĩ
ç ĳ
è Ķ
ĥ çļĦ
ħ æ»¡
Ī è¿°
ĭ ç»
ĳ è¯Ŀ
ĳ æĪĺ
ĺ ç±³
ä¸ ½
ä¸ ĥ
çļĦ åħ·ä½ĵ
çļĦ å»ºè®®
çļĦ åĨħå®¹
ä» ĭç»
åı Ī
äº ®
ä¸Ģ å¹´
ä¸Ģ èµ·
ä¸Ģ æŃ¥
ä¸Ģ å¼ł
æĺ ¨
æĪĳ æľī
åħ į
æĺ¯ ä¸Ģ
æĺ¯ åħ³äºİ
æĺ¯ æĺŁ
ä¸ª æķ°
ä½ł ä¼ļ
åĪ »
å® Ļ
ç» ķ
ç» ľ
ç» §ç»Ń
åĬ ±
å¥½ äºĨ
éĹ® åı¥
æľī ä»»ä½ķ
è¿Ļ æľ¬
è¿Ļ éģĵ
è¿Ļ éĩĮ
è¿Ļ æł·
è¿Ļ ä¸¤ä¸ª
æĤ¨ çļĦéĹ®é¢ĺ
åĳ ¼åĲ¸
ä¸Ģä¸ª äºº
è® ¿
ä¸Ń æĸĩ
ä¸į éľĢè¦ģ
å¾ ·
ç§ ĺ
åº ķ
æĿ İ
åį ¡
åį «
åį Ĺ
å¹ ²
æĦ ¿
æŀ Ħ
äºº ç±»
æıĲ éĹ®
æıĲ åĩº
è¡ Ĺ
æĪĲ ä¸º
å¯ Ĩ
å¯ Į
çĶŁ æ´»
çİ ĭ
éĢ »è¾ĳ
åĩº çĶŁ
åĩº çİ°
ä¼ļ è®®
æĬ Ĺ
ç« ¯
âĢĿ ãĢĤ<|
åİ ĺç±³
åľ° çĤ¹
æµ ª
å¤ļ äºĳ
è¯į æ±ĩ
ç± į
éĤ£ è¯·ä½ł
æĭ ¥
æĭ ¿
æĭ Ĥ
æĭ ī
æĭ Ķ
åĽŀçŃĶ æĤ¨çļĦéĹ®é¢ĺ
åĪĨ åĪ«
èµ ŀ
è¡Į ä¸º
æ² ¹
åĳĬè¯īæĪĳ ä½ł
æĽ´ åħ·ä½ĵçļĦ
æĮ ĳæĪĺ
æ± ½
æ± ī
èī ¯
éĻ Īè¿°
åĸ Ħ
çİ°åľ¨ è¯·
çİ°åľ¨ æĪĳæĥ³
åĬĽ éĩı
ç±» åĪ«
å¦Ĥæŀľ ä½łæľī
éĿ¢ ç§¯
åħ· æľī
èī² çļĦ
Ġè¯· ä»İ
ä»¥ä¸ĭ åı¥åŃĲ
åģ ĩ
åģ ı
åģ ľ
ç§į ç±»
åħ¶ä»ĸ éĹ®é¢ĺ
å¹¶ ä¸
æ¡ ¶
ç¾İ åĳ³
çĭ ®åŃĲ
å¿ĥ æĥħ
çŁ¥ è¯Ĩ
æ´ Ĺ
æ´ Ľ
çĶµ èĦĳ
åĲĮ ä¹īè¯į
å¼Ģ æĶ¾
äº§ çĶŁ
å®¢ æĪ·
è¿ĺæľī ä»Ģä¹Ī
è¿Ľè¡Į åĪĨæŀĲ
éĥ½ åı¯ä»¥
æŃ£ åľ¨
ä¸»é¢ĺ æĺ¯
éĩį å¤į
æŁ¥ æī¾
ç³ ķ
æĪĳä»¬ åı¯ä»¥
èĪ į
ä¾ĭ å¦Ĥ
æĢ» æĺ¯
ç»Ļå®ļ çļĦ
è¯ķ è¯ķ
è¿Ļæĺ¯ ç¬¬
çī¹ å®ļ
åķ Ĭ
ç»Ĩ èıĮ
ä»£çłģ æł·ä¾ĭ
èĻ ½çĦ¶
åĳ³ éģĵ
èĦ ī
è½» è½»
é¸Ł ç±»
æ¼ «
èĲ½ åı¶
å½¢ çļĦ
åĲįç§° åĴĮ
èĭ ±
èĭ ¹æŀľ
çĶ±äºİ æ²¡æľī
æľīè¶£ çļĦ
çĭ¬ ç«ĭ
æ»¡ è¶³
ç¥ Ŀ
åħ± æľī
æİ¥ ä¸ĭ
éĴ Ī
åħ¬åı¸ çļĦ
é»Ħ èī²
è¯Ħ è®º
è¿Ļé¦ĸ è¯ĹæŃĮ
è´Ń çī©
æ´» åĬ¨
æ·± æµ·
ç½ĳ ç»ľ
èĮ ĥ
æĿ¡ ä»¶
è§£åĨ³ éĹ®é¢ĺ
æĸĩç«łä¸Ń æıĲåıĸåĩº
å¢ŀ åĬł
èĥ Į
èĥ ľ
è¿Ĳ åĬ¨
è®¡ç®Ĺ æľº
æīĢåľ¨çļĦåŁİå¸Ĥ æĺ¯åĵªéĩĮ
éĹ®æĪĳ åĵ¦
è¿Ļæ®µ æĸĩæľ¬
âĢĶ âĢĶ
ä¸Ģä¸ªæĸ° äº§åĵģ
åĩı å°ĳ
éĨ Ĵ
çļĦåĲį åŃĹ
è®¾è®¡ ä¸Ģä¸ª
å®¤ åĨħ
çļĦç¬ ĳè¯Ŀ
åĲ¬èµ·æĿ¥ å¾Ī
æĳĦ æ°ıåº¦
è¯¦ç»Ĩ çļĦ
èĽ ĭ
é² ¸
è½¯ ä»¶
å®ĩ å®Ļ
åŃ¤ çĭ¬
çļĦçĽ ¸
èĤ¯ å®ļ
ä»ĭç» į
æĺ¯æĺŁ æľŁ
1 8
µ å£«
º è¯
½ æķ°
¾ çĹħ
¿ çļĦ
â Ħ
å Ĥ
æ ¹
æ ¿
ç ª
ç Ĩ
é ¾
é Ń
Ġ "
Ġ åľ¨
Ġ è¿Ļä¸ª
ĩ çĬ¶
ī çŁ
Ĭ æĸŃ
Ĳ Ĩ
ĳ æĸĻ
Ķ éĽ
ľ è¯Ń
ä¸ ´
ä¸ ¾
çļĦ æĹ¶
çļĦ è½¦
çļĦ è¯ĹæŃĮ
çļĦ è·Ŀç¦»
çļĦ é£Łçī©
è¯ ĬæĸŃ
ä» ħ
æĪ ı
æľ ¨
ä½ ı
ä¸Ģ éĥ¨
ä¸Ģ éģį
è¿ ½
è¿ ŀ
æĺ ł
æĪĳ å¾Ī
åħ °
æĺ¯ æĮĩ
æĺ¯ çıłç©ĨæľĹçİĽå³°
ä¹ İ
ä½ł éľĢè¦ģ
åĪ ĩ
çĶ »
å® ¿
å® ľ
ç» ©
åĬ ¿
åľ¨ è¿Ļä¸ª
åľ¨ æ°´
åľ¨ åĮ»
åľ¨ åĵªéĩĮ
æľī åĵªäºĽ
æ° ¸
æ° ĳ
æ° Ľ
åĽ ´
æĤ ł
å° ¾
åŃ ĶéĽ
åĵ ¥
åĵ ĩ
ä¸Ģä¸ª åı¥åŃĲ
ä¼ ¤
ä¼ ¦
ä¼ Ĺ
åĩ ½æķ°
è° ľè¯Ń
ä¸į è¦ģ
ä¸į å¤ª
å¾ Ģ
å¾ ĭ
æĸĩ æ¡£
å½ ©
å½ Ĵ
æī ¬
æĿ Ĥ
æĿ īçŁ
åį ĥ
åį Ĭ
åį ı
äºº çļĦ
äºĨ ä»Ģä¹Ī
å¸® ä½ł
è§ ģ
è§ Ĵ
çİ ©
éĢ Ķ
åĩº éĹ¨
æľĢ ä½³
çĶ¨ æĪ·
éĿ ©
éĿ Ĵ
ä¸Ĭ æµ·
æĬ ¤
åĪ° å¤§
ï¼ģ "<|
ç»Ļ ä½ł
ç« ¥
æį ķ
æ³ Ľ
âĢĿ ï¼Į
åľ° åĽ¾
æĽ ¿
å½ĵ æĪĳ
æµ ®
æµ İ
çļĦç ĲĨ
çī© ä½ĵ
æİ §
å¤ļ æł·
è¯į è¯Ń
æ¬ ºè¯
åĽŀçŃĶ éĹ®é¢ĺ
åĪĨ æĪĲ
è¯·éĹ® æľīä»Ģä¹Ī
æĥħ ç»ª
æıĲä¾Ľ åħ·ä½ĵçļĦ
è¡Į çļĦ
æ² »
æĽ´ å®¹æĺĵ
çº ³
çº ·
æģ Ĵ
çĤ Ĵ
ä¸Ģä¸ĭ åĲĹ
ä¸Ģä¸ĭ æĺİå¤©
æ± Ł
èī º
æĺİ çĻ½
çĶŁæĪĲ ä¸Ģé¦ĸ
æ³ķ åĴĮ
å®ĥ æĺ¯
å°ı çĲĥ
å°ı åĪ°å¤§
æŁ ³
è´ ¢
éļ Ĳ
çľ ģ
Ġè¯· å¸®æĪĳ
Ġè¯· æıĲåıĸ
åĽł ç´ł
ä»¥ä¸ĭ æĸĩæľ¬
ä»İ å°ıåĪ°å¤§
ä½ľ åĵģ
éĽ ª
éĽ ħ
åĽ½ éĻħ
åŃ¦ ä¼ļ
åŃ¦ ä¹ł
ç¾İ æĻ¯
åıĳ çİ°
è¿Ľ ä¸ĢæŃ¥
çĪ ½
çĪ µå£«
æııè¿° ä¸Ģä¸ĭ
çļĦéĹ®é¢ĺ åĲĹ
éĤ£ä¹Ī è¯·ä½ł
åĬł ä¸Ĭ
åĬł åħ¥
æ´ ĭ
çĶµ åŃĲ
æµ· æĭĶ
æµ· æ´ĭ
æ¸© æļĸ
èĩª çĶ±
è· ĳ
å¹´ çļĦ
å¼Ģ å¿ĥ
æ²¡ éĹ®é¢ĺ
ç©º æł¼
å°½ åĬĽ
å¹³ æĸ¹
åİ» åħ¬åĽŃ
é¸ £
åĲĪ çĲĨ
åĨį ç»ĻæĪĳä¸Ģä¸ª
è®© ä½ł
è®© äºº
éĩį æĸ°
éĩį åĬĽ
èĪ ¬
æīĭ è¡¨
æīĭ æľº
ç»Ļå®ļ çļĦæĸĩæľ¬
åĲ¬ åĪ°
è½¦ åľº
è¯´ æĺİ
åı¯èĥ½ ä¼ļ
å°± æĺ¯
æłĩ çŃ¾
éĢī é¡¹
æ¯ı å¤©
æ¸ħ åįķ
æ¸ħ æĻ¨
çľĭ èµ·æĿ¥
ç»ı æµİ
æľª çŁ¥
ä¸ĢäºĽ åħ³äºİ
å¸ĮæľĽ æĤ¨
æĢĿ èĢĥ
ä»£çłģ çļĦ
æ¶ ī
å®Į æķ´
è°¢è°¢ä½łçļĦ åĽŀçŃĶ
ç³» ç»Ł
æİĴ åĪĹ
ç¬¬ ä¸Ģä½į
åīį è¡Į
é¸Ł åĦ¿
æ¼ ł
æļ Ĺ
å¤ı å¤©
å¤ı å¤©çļĦ
è¯·æıĲä¾Ľ æĽ´å¤ļ
çİ°åľ¨è¯·ä½ł å°Ĩ
çİ°åľ¨è¯·ä½ł çĶ¨ä¸Ģåı¥è¯Ŀ
è¯¢ éĹ®
å¤į æĿĤ
ä¸įåĲĮ çļĦ
ä¿Ŀ æĮģ
éĥ¨ åĪĨ
å½¢ å¼ı
è§ī å¾Ĺ
éĺ³ åħī
10 0
æ¦Ĥ å¿µ
æ°Ķæ¸© ä¸º
æ³¨ éĩĬ
é£Ł åĵģ
å¡ ĳæĸĻ
ç»Ħ æĪĲ
ç¾İåĽ½ çĭ¬ç«ĭ
åİĨåı² äºĭä»¶
çı į
èİ ĵ
è¡¨è¾¾ äºĨ
ç¿»è¯ĳ æĪĲ
èº« ä½ĵ
åĦ¿ ç«¥
æīĵ å¼Ģ
åİŁ åĽł
ç½ĳ ç«Ļ
é¡¹ çĽ®
å² Ľ
é¥ ®
è®² ä¸Ģä¸ª
ç§¯ æŀģçļĦ
æĦŁåĪ° éĿŀå¸¸
éĻį éĽ¨
å¢ŀ éķ¿
åĪļ åĪļ
è¶³ çĲĥ
é¼ ł
å¸¦ æĿ¥çļĦ
æĻ´ æľĹ
æŁĲ ä¸ª
æŁĲ äºĽ
èįī èİĵ
å¾Īé«ĺåħ´èĥ½å¤Ł å¸®åĪ°
è§Ħ èĮĥ
æ²Ļ æ»©
æ²Ļ æ¼ł
åģ¥ èº«
æĬ¥åĳĬ ä¸Ń
éĨ ī
ä¸ľ è¥¿
çļĦåĲį è¨Ģ
ä»¥ä¾¿ æĪĳ
æĹħ è¡Į
ä¼ĺ ç§Ģ
ç±»åŀĭ çļĦ
æ£Ĵ äºĨ
éĵ ģ
ä¸ºä½ł æıĲä¾Ľ
æľĢå¤§ çļĦ
åŃĹæ¯į é¡ºåºı
å¡« åĨĻ
æĮīçħ§ åŃĹæ¯įé¡ºåºı
èĵĿ èī²
åĴĸåķ¡ åºĹ
åĲ¯ åıĳ
åŃ© åŃĲ
æĿĲ æĸĻ
ä¿® æĶ¹
è´Ł éĿ¢
ä»Ĭå¤©å¤©æ°Ķ çľŁå¥½
åī© ä½Ļ
åĽ¢ éĺŁ
èĲ¥ éĶĢ
èİ·å¾Ĺ äºĨ
å¼ķè¿° ä¸Ģåı¥
çľŁçļĦ å¾Ī
èĶ ¬
æĺ¨ å¤©
è¿Ļæľ¬ ä¹¦
æĭ¥ æľī
åģı å¥½
åģľ è½¦åľº
å¹¶ä¸ Ķ
æ´Ľ æĿīçŁ
éĴĪ å¯¹
é²¸ é±¼
âĦ ĥ
çĨ Ĭ
åŃĶéĽ Ģ
æ¬ºè¯ Ī
æĺİçĻ½ äºĨ
æ´ĽæĿīçŁ ¶
1 2
1 9
2 1
2 3
3 0
8 848
¡ è§ī
¥ åľ
« èĲ
² çļĦ
¹ ģ
¹ éĴŁ
½ çº¦
å ª
å ĭ
æ ©
ç ĩ
ç ¹ģ
è ĸ
è ľ
è Ŀ
Ġ ä½ł
Ġ âĢľ
Ġ æıĲåıĸ
Ġ åĹ
Ġ è§£è¯»
Ġ åĵĩ
ĥ åľ
ĩ æ·
ĭ åĬ¿
Į «
ĵ è¯Ń
ĵ åĬ±
Ĺ ä½į
ļ çī©
ï¼ Ľ
çļĦ ä½ĵ
çļĦ æĦı
çļĦ åĬ¨çī©
çļĦ åįķè¯į
çļĦ åħ¬åı¸
çļĦ ä¸»è¦ģ
çļĦ é¢ĨåŁŁ
çļĦ ä¸īä¸ª
çļĦ é¢ľèī²
çļĦ éĩįè¦ģ
çļĦ åľ°æĸ¹
çļĦ åĵģçīĮ
çļĦ åıĺåĮĸ
ï¼Į âĢľ
ä» ĺ
åı ¹
äº ļ
ä¸Ģ å¤©
ä¸Ģ æľ¬
ä¸Ģ åľº
ä¸Ģ åıª
ä¸Ģ æĿ¡
ä¸Ģ æ¬¾
ä¸Ģ çĽ´
ä¸Ģ åħ±æľī
ä¸Ģ èĪ¬
è¿ ª
è¿ Ķ
æĪĳ æĺ¯
æĪĳ çİ°åľ¨
æĪĳ éļıæĹ¶
æĪĳ æĹłæ³ķ
æĪĳ æŃ£åľ¨
åħ ¸
åħ ħæ»¡
æĺ¯ è°ģ
ä¸ª å°ı
éĹ ¹éĴŁ
ä½ł èģĬå¤©
å¥ ¥
å¥ ¶
å¥ Ĺ
çĶ ·
çĶ ľ
å® Ī
ç» ĥ
å¥½ åľ°
é¢ Ŀ
å¸ Ī
åľ¨ çº¿
æľī çĶ¨
æľī å¤ļ
æľī äºĽ
æľī åħ¶ä»ĸ
è¿Ļ ç§į
è¿Ļ éĥ¨
åĽ °
å¤© åľ°
å¤© ç©º
å° Ķ
åĴĮ åı¥åŃĲ
åĴĮ çī¹çĤ¹
åŃ ĺ
æĤ¨ çļĦç
æĤ¨ æīĢåľ¨çļĦåŁİå¸Ĥ
åĵ ²
åĨ ¬
èĥ½ åĬĽ
è® ¨
ä¸ĭ éĽ¨
ä¸Ń æĢ§
æ°Ķ çĲĥ
è° ±
è° ·
è° ĵè¯Ń
ä¸į ä¸Ģ
ä¸į ä¸Ģå®ļ
çŃ ĳ
å¾ ģ
å¾ Ĳ
æĥ Ĭ
ç§ »
ç§ ģ
åº §
åº ĵ
åį ´
åį Ī
åį ī
æŀ Ŀ
äºº å¿ĥ
éĹ®é¢ĺ åĴĮ
éľĢè¦ģ æıĲä¾Ľ
éľĢè¦ģ åħ¶ä»ĸ
æķ Ļ
ä»Ģä¹Ī æł·çļĦ
å¯ Ĥ
çĶŁ äºº
åĮ Ĩ
åĩº æĿ¥
å¦Ĥ æŃ¤
æľĢ å¤ļ
æľĢ æĸ°
æľĢ ä½İ
ä¸Ĭ éĿ¢çļĦ
æĬ µ
æĬ «èĲ
ï¼ģ âĢĿ
ç»Ļ æĤ¨
æ³ ¥åľ
æĿ¥ åĪ°
æĿ¥ æııè¿°
æµ ĵ
çļĦç ¿
çļĦç Į«
æ¯ «
æ¯ Ĵ
æ¯ Ľ
å¤§ åľ°
å¤§ æµ·
å¤§ åĪ©
å¤§ çĨĬ
æĹ¶ æľŁ
æİ ¢
è¿Ļä¸ª æĹ¥æľŁ
è¿Ļä¸ª çŁŃè¯Ń
çĦ¶ åĲİ
æķ° çĤ¹
æķ° çłģ
éĤ£ è¯·éĹ®
æĥ³ äºĨè§£
åĽŀçŃĶ ä½łçļĦ
è¾ Ĩ
äºĽ ä»Ģä¹Ī
åı¥åŃĲ G
æ² ī
æ² Ł
æľ¬ åĳ¨
æĽ´ å¥½åľ°
çº ½çº¦
æĮ ¥
å± Ĥ
åĬ¨ çļĦ
éĻ ª
éĻ Ĳ
åĨĻ ä¸ĭ
çİ°åľ¨ è¯·æĬĬ
å°Ĩ æĿ¥
å°Ĩ åħ¶
æīĢ ç»Ļ
æ³ķ åĽ½
æł¹æį® è¡¨æł¼
åĲį åŃĹ
å¦Ĥæŀľ ä½ł
éĿ¢ ä¸´
é¦ĸ éĥ½
çľ ¼
Ġè¯· åĽŀçŃĶ
åĽł æĸ¯
ä¿¡ å¿µ
è¶ ĭåĬ¿
éĽ ¶
éĽ ¾
åıĳ éĢģ
çŃī å¾ħ
çŃī åĽłç´ł
ç© ¿
é£İ åĲ¹
é£İ æĭĤ
åĸľ æĤ¦
å»º çŃĳ
çļĦéĹ®é¢ĺ æĪĸèĢħ
è¯Ĺ åı¥
æ°´ æŀľ
åĿ ¦
åĿ Ĺ
çĮ ľ
ç§ĭ æĹ¥
ç§ĭ åı¶
æµ· æ»©
èį «
å¼ı çļĦ
å¼ı éĹ®é¢ĺ
çķ ħ
åħ¥ åĪ°å°ı
ç»ĵ æŀĦ
åī §
è¯¥ åľ°åĮº
è¿ĩ åİ»
åĵªä¸ª é¢ĨåŁŁ
çĿ ¡è§ī
ç¼ ºä¹
Ġä¸º ä¸Ģä¸ªæĸ°äº§åĵģ
åı£ æĦŁ
å¾Ĺ åĪ°çļĦ
å¹³ éĿĻ
è¿Ľè¡Į åĪĨç±»
è¿Ľè¡Į éī´åĪ«
æ· »
æ· ĩæ·
åĨį åĬłä¸Ĭ
æĮĩ ä»£
æĮĩ ç¤º
æĮĩ çļĦæĺ¯
æĮĩ ä»¤
ä¸»é¢ĺ çļĦ
çĪ± çļĦ
çĪ± åĽłæĸ¯
äºĭ çī©
æł¼ è¨Ģ
æĺİå¤© çļĦ
èĪ ª
èĪ ¹
ä¸ī è§Ĵ
åŀ ĥåľ
äºĶ åħ¥åĪ°å°ı
æľĢé«ĺ å³°
è½¦ ä½į
é¡ ¿
åıĺ å¾Ĺ
æĪĳæĥ³ çŁ¥éģĵ
æĻ¯ çĤ¹
æĻ¯ è±¡
çĲĨ è§£
æľŁ å¾ħ
ç»Ļåĩº åħ·ä½ĵçļĦ
æ¯ı ä¸ªäºº
è¯·éĹ®æĤ¨ æīĢåľ¨çļĦåŁİå¸Ĥæĺ¯åĵªéĩĮ
çľĭ åĪ°
çŁ¥éģĵ æĤ¨
ä¹Ĳ æĦı
åĮĹ æŀģ
æ¡Ī ä»¶
åıª çĮ«
æĪĳçļĦ å»ºè®®
å¸ĮæľĽ æĪĳçļĦå»ºè®®
æ¶ ¦
æĬĬ è¿Ļä¸ª
è°¢è°¢ä½łçļĦ æİ¨èįĲ
èĬ± å¼Ģ
èĬ± åįī
ä½łèĥ½ åĳĬè¯īæĪĳ
åĪĨç±» ä¸º
ä¸İ ä¹ĭ
æĺ¯åĵª åº§
è¿ĻäºĽ çĶµå½±
ç¬¬ äºĮ
æĻºèĥ½ æīĭè¡¨
å¿« éĢŁ
çİ°åľ¨è¯·ä½ł çĶ¨
è¦ģæ±Ĥ çļĦ
å½¢ è±¡
æĪĳä¼ļå°½ å¿«
çĬ ¬
çĸ Ĺ
ä¹Ł æĺ¯
åĽĽ å¤§
åĽĽ èĪį
æ°Ķæ¸© åľ¨
æīĢæľī çļĦ
ä¸¤ä¸ª åįķè¯į
äºĶè¨Ģ è¯Ĺ
æµģ æ°´
å¤ľ æĻļ
é£ĺ èĲ½
æĲľç´¢ ä¸Ģä¸ĭ
åĶ ®
ç¥ ¨
ãĢĤ" <|
å®ŀ æĸ½
è¯·éļıæĹ¶ èģĶç³»
æĶ¹ æĪĲ
ç¼ĸ åĨĻä¸Ģä¸ª
çº¦ ä¸º
çĽ¸åħ³ çļĦ
æīĵ ç®Ĺ
æīĵ åį°
åįĩ çļĦæ°´
è´Ń ä¹°
æĸ¹éĿ¢ çļĦ
å² Ĺä½į
é¥ Ń
åı¤ ä»£
å¤Ħ çĲĨ
è®² ç¨
åįİ ä¸º
å¢ŀ å¼º
åĪ¤æĸŃ é¢ĺ
ç»Ł è®¡
æĶ¶ åħ¥
çĬ¶ åĨµ
ç² ®
ç² ī
é¼ »
é¼ ĵåĬ±
ĠçĶŁæĪĲ ä¸Ģé¦ĸ
Ġç»Ļå®ļ ä¸Ģç»Ħ
ãĢĭ ï¼Į
ä½łåı¯ä»¥ åĳĬè¯īæĪĳä½ł
æ¸¸ æĪı
èµĦ äº§
éª Į
Ġå¤ª å¥½äºĨ
åĨ° æ·ĩæ·
æĹ¶éĹ´ åĴĮ
è·¯ å¾Ħ
çº¢èī² çļĦ
çº¢èī² åĴĮ
åĪĹè¡¨ ä¸ŃçļĦ
ç¾ ½
æĪĳå°Ĩ å°½åĬĽ
åį° åº¦
å½ĵåľ° æĶ¿åºľ
éģĩ åĪ°äºĨ
ç¬ĳ è¯Ŀ
èĩªå·± çļĦ
å¦ĤæŀľæĤ¨è¿ĺæľīåħ¶ä»ĸ éĹ®é¢ĺ
çĵ ¶
çĵ ľ
äº« åıĹ
å¥³ åŃ©
åľ¨äºİ è¿ĲåĬ¨
æķ£ æĸĩ
çļĦç¬ ¬
çĽ´ æİ¥
éķ¿åº¦ ä¸º
çģ« è½¦
çļĦçŁŃ è¯Ń
æĪĳæľĢè¿ĳ æĦŁåĪ°
æ¼Ķ è®²ç¨
Ġç»Ļåĩº ä¸Ģä¸ª
ä»¤ äºº
æ°§ æ°Ķ
å¸®å¿Ļ çļĦåĲĹ
çĤİ çĥŃ
åŁº äºİ
çĮİ çī©
ç¤¾ ä¼ļ
è·ŁæĪĳ èģĬ
å¨ ģ
å®£ ä¼ł
åľ¨åħ¬åĽŃ éĩĮ
æľīæĦı ä¹ī
æĤ² ä¼¤
è®¢ è´Ń
è®¸ å¤ļ
è¡£ æľį
æķĪ çİĩ
å¿ħ è¦ģ
æİª æĸ½
ç®¡ çĲĨ
åĿļ æĮģ
æ£Ģ æŁ¥ä¸Ģä¸ĭ
åį« æĺŁ
æĦ¿ æĦı
åİĺç±³ éķ¿
æĽ´åħ·ä½ĵçļĦ ä¿¡æģ¯
æ±½ è½¦
ç±»åĪ« æłĩçŃ¾
è¿Ľè¡ĮåĪĨæŀĲ åĴĮ
æ»¡è¶³ æĤ¨çļĦ
æİ¥ä¸ĭ æĿ¥
é»Ħèī² å°ıçĲĥ
èĽĭ ç³ķ
çļĦçĽ¸ åħ³
æ¿ Ģ
æĪĳå¾Ī ä¹ĲæĦı
å½Ĵ çº³
æİ§ åĪ¶
è·ĳ æŃ¥
å²Ľ ä¸Ĭ
æĮīçħ§åŃĹæ¯įé¡ºåºı æİĴåºı
åĲ¯åıĳ æĢ§
è´ŁéĿ¢ å½±åĵį
åī©ä½Ļ è½¦ä½į
èĶ¬ èıľ
ļçī© é¦Ĩ
ä¸ªå°ı æľĭåıĭ
è¿Ļéĥ¨ çĶµå½±
æĬ«èĲ ¨
æ³¥åľ Ł
å¤§çĨĬ çĮ«
æķ°çĤ¹ åĲİ
é£İæĭĤ éĿ¢
ç¼ºä¹ ı
çĪ±åĽłæĸ¯ åĿ¦
åŀĥåľ ¾
äºĶåħ¥åĪ°å°ı æķ°çĤ¹åĲİ
åĽĽèĪį äºĶåħ¥åĪ°å°ıæķ°çĤ¹åĲİ
åĨ°æ·ĩæ· ĭ
1 4
2 5
E çļĦ
o g
¦ æ°Ķ
¨ ĭ
¨ è¯¢
© çĮİ
³ åĹ
· åĲĪ
º ¦
» çĤ
» å±±
¾ ç¤º
Â °
è ķ
è Ĺ
è ŀ
é º¦
Ġ -
Ġ å¾Ī
Ġ åĨĻ
Ġ æııè¿°
Ġ å¦Ĥä½ķ
Ġ è°¢è°¢ä½ł
Ġ è¿Ļé¦ĸ
Ġ è§£éĩĬ
Ġ éī´åĪ«
Ġ èĥ½ä¸įèĥ½
Ġ åĪĽéĢł
Ġ åĲ¬èµ·æĿ¥å¾Ī
Ġ å¼ķè¿°ä¸Ģåı¥
ģ æľĪ
ħ ä¸Ĭ
Ī æľ¬
Ĭ åĩı
į çŃī
Ĳ å¿ĥ
Ĳ ä»£
ĳ æģ¯
ĵ å±ķ
Ķ ç»Ĩ
ĺ éĤ
ļ ç¤¼
Ľ èĭ
Ŀ åį
ŀ äºī
ł èıľ
Ń ç¤º
çļ ®
çļĦ ä¸Ģ
çļĦ ä¸Ģä¸ª
çļĦ ä¸ĭ
çļĦ äºº
çļĦ åĽŀçŃĶ
çļĦ æĸĩç«ł
çļĦ æııè¿°
çļĦ æĺ¯ä»Ģä¹Ī
çļĦ åİ»
çļĦ å½¢
çļĦ äº§åĵģ
çļĦ å½±åĵį
çļĦ åħ³ç³»
çļĦ è§£éĩĬ
çļĦ æĸ¹å¼ı
çļĦ æłĩé¢ĺ
çļĦ åıĳå±ķ
çļĦ ä½įç½®
çļĦ è¢«åĬ¨è¯ŃæĢģ
çļĦ çī¹çĤ¹
çļĦ åºĶçĶ¨
çļĦ è¯Ńæ°Ķ
çļĦ ä½ľçĶ¨
çļĦ äºĭæĥħ
çļĦ ä¾ĭåŃĲ
çļĦ è´¨éĩı
çļĦ ç§ĺ
çļĦ è¯įæ±ĩ
çļĦ è´Ńçī©
çļĦ æ´»åĬ¨
ä» °
ä» Ĭ
ä» Ķç»Ĩ
æĪ ´
åı «
åı Ĥ
åı Į
æľ µ
ä¸Ģ çĽ
ä¸Ģ åĲį
ä¸Ģ å®¶
ä¸Ģ è¾¹
ä¸Ģ æĶ¯
ä¸Ģ åı°
æĺ ¾ç¤º
æĪĳ åľ¨
æĪĳ èĥ½
æĪĳ ä»Ĭå¤©
æĪĳ åĸľæ¬¢
æĪĳ çĪ±
æĪĳ åıª
æĪĳ è§£çŃĶ
æĪĳ å¸®æĤ¨
æĪĳ çļĦçĭĹ
æĪĳ åıĳçİ°
æĪĳ åĪļåĪļ
åħ »
æĺ¯ ä»İ
æĺ¯ æĪĳçļĦ
æĺ¯ åľ°çĲĥ
æĺ¯ ç¾İåĽ½
æĺ¯ åĵºä¹³åĬ¨çī©
æĺ¯ ä¸įæĺ¯
æĺ¯ ç§¯æŀģçļĦ
ä¸ª æľĭåıĭ
ä¸ª å·ŀ
ä¸ª èĭ¹æŀľ
ä¹ ¡
ä¹ ±
ä¹ ĺ
ä¹ Ŀ
éĹ ²
éĹ Ń
ä½ł æĥ³
ä½ł çİ°åľ¨
ä½ł ä»İ
ä½ł æľīä»Ģä¹Ī
ä½ł è§īå¾Ĺ
æĸ Ĺ
æĸ ľ
åĪ Ŀ
åĪ ĺéĤ
å¥ ı
å¥ ĸ
å® ³
å® ĺ
ç» ´
ç» ĩ
åĬ £
åĬ ŀ
è¯· å°Ĩ
è¯· åĨį
é¢ ĳ
å¸ ķ
åľ¨ è¿Ļ
åľ¨ äºĨ
åľ¨ ä¸Ģèµ·
åľ¨ å®ĩå®Ļ
éĹ® çŃĶ
æľī éľĢè¦ģ
æľī å¸®åĬ©
æľī çĤ¹
æľī ä¸ī
æľī æ²¡æľī
æľī åı¯èĥ½
æľī å¤ļå°ĳ
æľī å¾Īå¤ļ
æľī å¿ħè¦ģ
è¿Ļ å®¶
è¿Ļ æĶ¯
æ° ¦æ°Ķ
åĴ ¨è¯¢
åĴ ³åĹ
å° Ħ
å° Ĭ
åĴĮ æĪĳ
åĴĮ éĹ®é¢ĺ
åĴĮ æľĢ
åĴĮ åħ¶ä»ĸ
åĴĮ ä½łèģĬå¤©
è¦ģ åĸĿ
æĤ¨ æľīä»Ģä¹Ī
é¢ĺ åĲĹ
åı¯ æĮģ
âĢ ¦
ä¸Ģä¸ª ç®Ģåįķ
ä¸Ģä¸ª åħĥç´ł
ä¸Ģä¸ª çº¢èī²çļĦ
æı Ńç¤º
ä¼ °
ä¼ ĳæģ¯
è® ¤
ä¸ĭ éĿ¢
ä¸ĭ åĪĹ
ä¸ĭ éĻį
ä¸ĭ éĿ¢çļĦ
ä¸Ń éĢī
æ°Ķ è±¡
æł ¡
æł ¸
è° Ĳ
ä¸į è¿ĩ
ä¸į åºĶè¯¥
ä¸į èī¯
çŃ ĸ
æĥ ¯
æĥ ľ
æĸĩ æĺİ
æĸĩ åŃĹ
æĸĩ åĮĸ
åı¯ä»¥ çĶ¨
åı¯ä»¥ å¸®åĬ©
åı¯ä»¥ æıĲé«ĺ
åı¯ä»¥ ç»§ç»Ń
å½ ķ
åº Ń
æī ¹
æĿ ¨
æĿ ĥçļĦ
åį ±
åį ·
å¹ ½
å¹ ķ
çī Īæľ¬
äºº æ¬¢
äºº åĳĺ
æıĲ ç¤º
éĩ İ
å¥½çļĦ é¤Ĳåİħ
äºĨ è¿Ļ
æĪĲ è¯Ń
æĪĲ æľ¬
å¼ ĥ
æķ ¦
ä»Ģä¹Ī æĺ¯
çĶŁ çī©
çĶŁ æĢģ
è§ Ī
åŃĲ çļĦ
åŃĲ ä¸Ĭ
å¦Ĥ æ°´
å¦Ĥ çĶ»
çĶ¨ åį¡
çĶ¨ éĢĶ
ä¼ļ æľī
ä¼ļ é£ŀ
ä¼ļ å¯¼èĩ´
ä¸Ĭ éĶ
ä¸Ĭ åįĩ
åĪ° å¤ªéĺ³
æŃ ¢
ç« ¹
ç« ŀäºī
åİ ĭ
å¤©æ°Ķ å¦Ĥä½ķ
æĿ¥ è¶Ĭ
çļĦç ĸ
çļĦç Ĺ
çļĦç ¨ĭ
çī© ç§į
æ¯ ķ
å¾Ī æľīæĦı
å¤§ æĺİ
å¤§ å°ı
å¤§ çº¦
å¤§ æĪĺ
æĹ¶ åĮº
æĹ¶ åĢĻ
æĹ¶ åĪ»
åĽŀ å¤į
è¯Ń æ³ķ
è¯Ń å¢ĥ
å¤ļ ç§į
èĢ Ĳå¿ĥ
ä»ĸ äºº
è¿Ļä¸ª äºº
è¿Ļä¸ª ä»»åĬ¡
è¿Ļä¸ª çī©åĵģ
åħ¶ å®ĥ
æķ° éĩı
éĤ£ ä¸ª
æĥ³ ä¸Ģä¸ª
æ¬ £
æĭ ĵå±ķ
åĪĨ å¸
åĪĨ äº«
æĦŁ åı¹
åĳĬè¯ī ä½ł
æĥħ èĬĤ
æĥħ å¢ĥ
è¡Į é©
å¯¹ è±¡
æĸ° æĸĩæľ¬
ä½ĵ åŀĭ
çº §
æĮ º
æĸĩç«ł ä¸ŃçļĦ
éĻ Į
æĺİ æľĪ
è¿ĺ åī©
åĨĻ ä¸Ģåı¥è¯Ŀ
åº¦ è¿ĩ
åº¦ åģĩ
çİ°åľ¨ ç»ĻæĪĳ
æ³ķ è§Ħ
æ³ķ éĻ¢
éĶ »çĤ
å°ı æĹ¶
å°ı è¯´
åĲį è¨Ģ
è´ §
å¦Ĥæŀľ è¿ĺæľīåħ¶ä»ĸ
çľ ł
èĬ ¬
èĬ ³
èĬ Ĵ
Ġè¯· çĶ¨
Ġè¯· åĳĬè¯īæĪĳ
Ġè¯· ç»ĻæĪĳ
Ġè¯· ä¸ºæĪĳ
Ġè¯· ä½łä»İ
æĸ¹ åĲĳ
æĸ¹ æ³ķåĴĮ
ä»¥ä¸ĭ éĹ®é¢ĺ
ä»¥ä¸ĭ ä¸īä¸ª
æĦı ä¹ī
æĦı å¤§åĪ©
ä¿¡ çĶ¨åį¡
ä½ľ èĢħ
åħ¶ä»ĸ çļĦ
å» ¶
åĽ½ ç±į
åŃ¦ æł¡
æĹł éĻĲ
å¹¶ æĢ»ç»ĵ
å¹¶ è¾ĵåĩº
ç¾İ ä¸½
åıĳ çĶŁçļĦ
åıĳ æĮ¥
è¿Ľ åı£
çĪ Ĩ
åħ¬ äº¤
é£İ æĻ¯
é£İ è½»è½»
çĲĥ éĺŁ
åĸľ çĪ±
åĸľ é©¬
è¯Ĺ è¯į
éĤ£ä¹Ī æĪĳ
éĤ£ä¹Ī è¿Ļä¸ª
åĿ ı
ä¹ĭ åĲİ
çĮ ®
è¢ ĭ
è¢ Ń
æ´ Ĵ
ç´ «
æµ· æĬ¥
æµ· æµª
æ¯Ķ åľ¨
æ¯Ķ ä¾ĭ
èĩª æĪĳ
èĩª åĬ¨
è· ³
èį £
æĪĳä¼ļ åľ¨
æĪĳä¼ļ èĢĥèĻĳ
å¹´ è½»
èµ· ä¹ī
åĲĮ æĹ¶
å¼Ģ åıĳ
å¼Ģ åĲ¯
éĿŀå¸¸ æĦŁ
èĲ §
èĲ Ŀåį
æĺ¯ä»Ģä¹Ī æł·çļĦ
é¢Ħ ç®Ĺ
éļı çĿĢ
éķ ľ
æıĲåıĸ ä¸Ģä¸ĭ
ç»ĻæĪĳ æİ¨èįĲ
ç»ĻæĪĳ ä¸¾
åī Ĭåĩı
è¯¥ åı¥åŃĲ
è¯¥ æĢİä¹Ī
è¿ĩ ç¨ĭ
æ® Ĭ
äº§ çĶŁçļĦ
å±± èĦī
æ» ĭ
æ» ĳ
æ» ļ
æĪĳåı¯ä»¥ åĽŀçŃĶ
æĪĳåı¯ä»¥ å¸®åĬ©æĤ¨
æĪĳåı¯ä»¥ å°Ŀè¯ķ
æĪĳåı¯ä»¥ åĳĬè¯īä½ł
å®¢ æľį
æĢ§ åĴĮ
å»ºè®® åĲĹ
éķ¿ æ¤
ç¼ º
Ġä¸º ä»¥ä¸ĭ
åİ» æī¾
çĽ¸ åºĶ
çĶŁæĪĲä¸Ģä¸ª åı¥åŃĲ
æ· ¡
æ· ·åĲĪ
éĥ½ åĸľæ¬¢åĲĥ
åĲĪ éĢĤ
è®© æĪĳä»¬
æŃ£ éĿ¢
æŃ£ å¸¸
ä¸»é¢ĺ æĺ¯ä»Ģä¹Ī
éļıæĹ¶ åı¯ä»¥
éļıæĹ¶ æĿ¥
éļıæĹ¶ åĳĬè¯īæĪĳ
éļıæĹ¶ éĥ½åı¯ä»¥
æł¼ å¼ı
å·¥ åħ·
å·¥ ä½ľ
å·¥ èµĦ
åĮĸ ä¸º
åĮĸ åĲĪ
éĢļ çŁ¥
æĺİå¤© çļĦå¤©æ°Ķ
æĺİå¤© çļĦå¤©æ°ĶæĥħåĨµ
æĺİå¤© æĹ©ä¸Ĭ
é¤Ĳ çĤ¹
æīĭ å¥Ĺ
æīĭ å¸ķ
ä¾ĭ åı¥
æľĢè¿ĳ çļĦå¤©æ°ĶæĥħåĨµ
æĶ¾ æĿ¾
èı łèıľ
æľĪ ä»½
æľĪ åħī
æĢ» æķ°
ç¡® ä¿Ŀ
Ġæł¹æį® ç»Ļå®ļ
Ġæł¹æį® è¾ĵåħ¥
äºĶ ç»Ŀ
åĲ¬ åĲ¬
åºı åĪĹ
æİ¨ æĸŃ
çº¢ èĲĿåį
åıĺ éĿ©
æĪĳæĥ³ è¦ģ
åľº æ¯ĶèµĽ
åĪĽ æĸ°
åĪĽ å»º
çī¹ å¾ģ
çī¹ æ®Ĭ
çĲĨ æĥ³
åĽłä¸º å®ĥä»¬
åįķè¯į çļĦ
ç¿ ©
ç¿ ł
å°± åİ»
å°± ä¸ļ
ç»Ļåĩº çļĦ
æ¯ı åıªçĮ«
æ¸ħ æĸ°
è¯·éĹ®æĤ¨ æľīä»Ģä¹Ī
è¯·éĹ®æĤ¨ åľ¨åĵªä¸ªåŁİå¸Ĥ
çľĭ çĶµå½±
ä½¿çĶ¨ G
èĢĮ å¼Ĥ
æ¡Ī ä¾ĭ
ä¸ĸçķĮ æĿ¯
ãĢĤâĢĿ âĢĶâĢĶ
è¯» æĢ§
åıª å°¾
æĢĿ ç»ª
æķ°æį® åĪĨæŀĲ
ä»£çłģ éĢ»è¾ĳ
èĻ İ
å¼ķ æĵ
è°¢è°¢ä½łçļĦ å¸®åĬ©
çĥ §
çĥ Ī
è± Ĩ
ä¸ļ åĬ¡
æĺŁ æĺŁ
è¯·åĳĬè¯īæĪĳ æĤ¨
å¾Īé«ĺåħ´ æĪĳçļĦ
æİĴ æĶ¾
æİĴ éĺŁ
è½» æĿ¾
æĽ´å¤ļ çļĦä¿¡æģ¯
åģļ åĩº
ç¬¬ ä¸Ģä¸ª
ç¬¬ åĽĽ
æ¼ Ĥ
è¯·æıĲä¾Ľ åħ·ä½ĵçļĦ
å¦Ĥä½ķ ä½¿çĶ¨
å¿« ä¹Ĳ
çŁŃ çļĦ
åĮĹäº¬ çļĦå¤©æ°ĶæĢİä¹Īæł·
ä¿Ŀ æĬ¤
æĸ°éĹ» æłĩé¢ĺ
èĬĤ æĹ¥
çĭĹ ç²®
çĹ ĩçĬ¶
çĻ ¾
éħ ±
é£ŀ èĪŀ
çĸ «
çĸ ¾çĹħ
ä¸Ģç¯ĩ æĸ°éĹ»æĬ¥éģĵ
æĺ¥ å¤©
æĪĳéľĢè¦ģ å¸®åĬ©
æĪĳéľĢè¦ģ æĽ´å¤ļçļĦä¿¡æģ¯
ä¹Ł ä¼ļ
åĽĽ è¡Į
åĽĽ åŃ£
éĢĤ å½ĵ
éĢĤ åºĶ
éĢĤ å®ľ
äº§åĵģ æĪĸ
å¤©çļĦ æ°Ķæ¸©
è®¾ ç½®
è®¾ å¤ĩ
å¹¿ æ³Ľ
ç®Ģ æ´ģ
ç´ł æķ°
Ġä¸ºä»Ģä¹Ī æŁĲäºĽ
ä¹¦ ç±į
å±ķ è§Ī
æĲľç´¢ å¼ķæĵ
äººå·¥æĻºèĥ½ åľ¨åĮ»
åĶ ¯
åĶ Ĳä»£
åıĹ æ¬¢è¿İ
åľ°çĲĥ åĪ°å¤ªéĺ³
æĶ¹ ä¸º
ç¼ĸ åĨĻä¸Ģç¯ĩ
å¹³åĿĩ æķ°
å¹³åĿĩ åĢ¼
åİĨåı² éĹ®é¢ĺ
åİĨåı² ä¸Ĭ
åİĨåı² çļĦéĹ®é¢ĺ
æīĢåľ¨çļĦ ä½įç½®
æĳ ĩ
æĳ ĺ
ä¸ĩ éĩĮ
æŀģ ç«¯
äºĨè§£ ä¸Ģä¸ĭ
æĻļ ä¸Ĭ
æĻļ é¤Ĳ
è½¬ åĮĸä¸º
æĮī ä½ĵåŀĭ
è§£çŃĶ åĲĹ
çĽ¸åħ³ çļĦéĹ®é¢ĺ
åħ³éĶ®è¯į åĨĻä¸Ģç¯ĩ
çĻ½ äºĳ
ĠéĿŀå¸¸ æĦŁè°¢ä½łçļĦ
è¯Ħ ä¼°
åıį åºĶ
é¢ĺçĽ® æĺ¯
åįĩ èµ·
åįĩ çº§
éĢł æĪĲ
åİŁ å§ĭ
æµĭ è¯ķ
æĶ¯ æĮģ
æĶ¯ ä»ĺ
é¦Ļ æ°Ķ
æĸ¹éĿ¢ çļĦéĹ®é¢ĺ
å² ¸
å² ģæľĪ
èĮ «
é¥ °
Ġä»İ ä»¥ä¸ĭ
Ġä»İ è¿Ļç¯ĩæĸĩç«łä¸Ń
åı¤ åħ¸
å¤´ çĹĽ
åĳ½ é¢ĺ
æķħ ä¹¡
æĸĩç«łä¸Ń æıĲåĪ°çļĦ
éĻį æ°´
éĻį ä½İ
çļĦå¤©æ°ĶæĥħåĨµ åĳ¢
æŁ¥è¯¢ å¤©æ°Ķé¢ĦæĬ¥
æĪĳä¼ļå°½åĬĽ å¸®åĬ©ä½ł
æĪĳä¼ļå°½åĬĽ åĽŀçŃĶä½łçļĦ
è¯Ĩ åĪ«
äº¤ éĢļ
äº¤ äºĴ
åĪļ æīį
ç»¿ èī²
ç»¿ æłĳ
èĩªçĦ¶ è¯Ńè¨Ģ
èĩªçĦ¶ ç¾İæĻ¯
æľªæĿ¥ äººå·¥æĻºèĥ½
æ¦Ĥæĭ¬ åĩº
ç² ¾
ĠçĶŁæĪĲ ä¸Ģé¦ĸäºĶè¨Ģç»Ŀåı¥
å¸¦ æĿ¥
æĦī æĤ¦
æķ´ çĲĨ
æĻ´ å¤©
èĢģ èĻİ
æĦŁè§ī å¾Ī
èµĦ æĸĻ
èµĦ æºĲ
åĪĽä½ľ ä¸Ģä¸ª
åĪĽä½ľ ä¸Ģé¦ĸ
å¹¿åĳĬ æµ·æĬ¥
00 0
éª Ĺ
Ġå¤ª æ£ĴäºĨ
è¿Ļæ®µ è¯Ŀ
åĨ° ç®±
éĹ®é¢ĺéľĢè¦ģ åĴ¨è¯¢
è§Ħ åĪĻ
æĥħæĦŁ åĪĨç±»
éĻĦè¿ĳ çļĦ
AI è¯Ńè¨Ģæ¨¡åŀĭ
ç¾ ¤
ç¾ Ĭ
Ġå¸®æĪĳ æĲľç´¢ä¸Ģä¸ĭ
è¿ľ æĸ¹
ä¹ł æĥ¯
åĳĺ å·¥
ä¼ģ ä¸ļ
ä¼ĺ åĮĸ
èģĬå¤© æľºåĻ¨äºº
æī¾åĪ° æľĢè¿ĳçļĦ
è¿Ļç¯ĩæĸĩç«łçļĦ ä¸»æĹ¨
çĹħ æ¯Ĵ
æ¥ ļ
çļĦå¤§ å°ı
æĿ¯ æ°´
æķ£ æŃ¥
åĪ°å°ı åŃ¦
æ²³ æµģ
éĶĢ åĶ®
åŃĹæ¯į æĢ»æķ°
åĲ¬èµ·æĿ¥ ä¸įéĶĻ
å¦ Ļ
æħ ¢
æħ Į
é² ľ
Ġè°¢è°¢ æĤ¨çļĦ
ç»Ń åıĳå±ķ
å°ģ éĹŃ
è§Ĥ çĤ¹
æľĢåĲİ ä¸Ģä¸ªåħĥç´ł
ä¿® é¥°
è¶Ĭ æĿ¥è¶Ĭ
åħ¨çĲĥ æľĢé«ĺçļĦå±±å³°
éħį æĸĻ
å© ļç¤¼
çļĦå°ı è¯´
çļĦä¸»é¢ĺ æĢĿæĥ³
åı¦ å¤ĸ
æ°§ åĮĸ
åĵĪ åĪ©
æ°ĶåĢĻ åıĺåĮĸ
çŃ¾ ç½
éĩĩ è®¿
æİī åľ¨äºĨ
èĩ³ å°ĳ
æ¡ĥ èĬ±
éĢļå¸¸ åľ¨
çĸĳ éĹ®
çĸĳ éĹ®åı¥
çİ¯å¢ĥ æ±¡æŁĵ
æ³¨æĦı åĬĽ
ç¥ŀ ç§ĺ
çļĦç¾İå¥½ åĴĮ
ä¼ģé¹ħ æĺ¯ä¸Ģç§į
æ½ ®
è£ ħ
æĪĳå·²ç»ı å°Ĩ
æĪĳå¾Īé«ĺåħ´èĥ½å¤Ł å¸®åĬ©æĤ¨
åĲĦ ç§į
å®£ è¨Ģ
å®Ŀ çŁ³
åĨľ åİĨ
ä¸Ńå¿ĥ æĢĿæĥ³
åįģ åĪĨ
å¯» æī¾
å·® å¼Ĥ
æģ¶ åĬ£
æ£Ģ æŁ¥
éħĴ åºĹ
è½¬æį¢ æĪĲ
ç¢§ ç©º
ä¸ĸçķĮä¸ĬæľĢé«ĺçļĦå±±å³° æĺ¯çıłç©ĨæľĹçİĽå³°
åĩĨç¡® æĢ§
æĩ Ĥ
çĳ Ł
æĪĳæľī ä¸Ģä¸ªéĹ®é¢ĺ
åħį è´¹
ä½łä¼ļ åĸľæ¬¢
è¿Ļæł· æĪĳ
è®¿ éĹ®
å¾· åĽ½
åįĹ çĵľ
æĭī éĽħ
çĶ±äºİæ²¡æľī åħ·ä½ĵçļĦ
ç¥Ŀ ç¦ı
è¿Ļé¦ĸè¯ĹæŃĮ çļĦ
èĥĮ æĻ¯
åŃ¤çĭ¬ çļĦ
åĤ ¨
æ¹ ¿
é¾ Ļ
éŃ Ķ
çļĦæĹ¶ åħī
ä½ı å®¿
è¿½ æ±Ĥ
è¿ŀ æİ¥
æĺł çļĦçĶµå½±
æ°¸ è¿ľ
æ°Ľ åĽ´
ä¼¦ æķ¦
ä¸įå¤ª å¥½
æĸĩæ¡£ åºĵ
å½© ç¤¼
åįĥ åħĭ
å¸®ä½ł æŁ¥è¯¢
æĽ¿ æį¢
çļĦçĲĨ æĥ³
çī©ä½ĵ çļĦè´¨éĩı
åĪĨæĪĲ ä¸¤ä¸ª
æģĴ æĺŁ
æ±Ł å±±
èīº æľ¯
è´¢ ç»ı
éļĲ ç§ģ
çĪµå£« ä¹Ĳ
æııè¿°ä¸Ģä¸ĭ ä½ł
çĶµåŃĲ äºĳ
åİ»åħ¬åĽŃ æķ£æŃ¥
å¸ĮæľĽæĤ¨ èĥ½
æ¶ī åıĬ
ç¬¬ä¸Ģä½į çļĩå¸Ŀ
ç¾İåĽ½çĭ¬ç«ĭ å®£è¨Ģ
çıį æĥľ
é¥® æĸĻ
æĦŁåĪ°éĿŀå¸¸ åħ´å¥ĭ
å¸¦æĿ¥çļĦ æĮĳæĪĺ
å¾Īé«ĺåħ´èĥ½å¤Łå¸®åĪ° ä½ł
éĵģ æ¡¶
ä¸ºä½łæıĲä¾Ľ å¸®åĬ©
èĿ ī
çļĦæĦı æĢĿ
çļĦéĩįè¦ģ æĢ§
çļĦåĵģçīĮ åĲįç§°
è¿Ķ åĽŀ
åħħæ»¡ äºĨ
åĽ° éļ¾
åĴĮåı¥åŃĲ H
è®¨ è®º
çļĦç¿ »è¯ĳ
æİ¢ ç´¢
è¿Ļä¸ªçŁŃè¯Ń çļĦ
è¾Ĩ åħ¬äº¤
åı¥åŃĲG åĴĮåı¥åŃĲH
æ²Ł éĢļ
éĻª ä¼´
æīĢç»Ļ çļĦ
Ġä¸ºä¸Ģä¸ªæĸ°äº§åĵģ è®¾è®¡ä¸Ģä¸ª
æ·» åĬł
åĨįåĬłä¸Ĭ ä¸Ģåı¥
ä¸īè§Ĵ å½¢çļĦ
è¯·éļıæĹ¶èģĶç³» æĪĳ
å²Ĺä½į çļĦ
çģ«è½¦ æĹ¶åĪ»
è®¢è´Ń ä¸Ģä»½
åĲ¯åıĳæĢ§ çļĦåĲįè¨Ģ
èĹ ı
çļĦè¢«åĬ¨è¯ŃæĢģ æĺ¯
ä¸ĢçĽ ı
åĪĺéĤ ¦
åĴ³åĹ ½
åı¯æĮģ ç»Ńåıĳå±ķ
ä¸ĬéĶ ģ
çļĦç¨ĭ åºı
å¤§çº¦ æĺ¯
æĦŁåı¹ åı¥
è¡Įé© ¶
éĶ»çĤ ¼
åĸľé©¬ æĭīéĽħ
éķ¿æ¤ ħä¸Ĭ
çº¢èĲĿåį ľ
åıªå°¾ å·´
ç¬¬åĽĽ ä¸ªæķ°
æĲľç´¢å¼ķæĵ İ
åľ°çĲĥåĪ°å¤ªéĺ³ çļĦè·Ŀç¦»
åħ³éĶ®è¯įåĨĻä¸Ģç¯ĩ æĸĩç«ł
ĠéĿŀå¸¸æĦŁè°¢ä½łçļĦ åĽŀçŃĶ
è¾Ĩåħ¬äº¤ è½¦
åĸľé©¬æĭīéĽħ å±±èĦī
" ãĢĤ
. .
1 7
2 2
2 7
2 8
3 8
4 0
6 3
7 6
: âĢľ
A æĢ»
B çļĦ
B AæĢ»
D F
D åĪ°
M a
N BAæĢ»
P DF
_ _
c m
l e
o og
r y
¡ ¬
¡ åºĹ
¢ äºĨ
¢ å¤į
¢ èµ·ä¹ī
£ ä»»
£ æ¯į
¤ ä¿
¤ éģĵ
¤ ç¦»
¥ çļ
¦ ´
¦ åı
¦ æĪ·
¦ é¹
¨ å¤´
ª åĬĽ
« Į
« æĪ
® Ģ
® åħ¬åĽŃ
¯ çī¹
° æŀľ
° åĽ½
° åĨĻä¸Ģç¯ĩ
± ä¹Ĳ
± èĬ±
± èĮ
² äºº
² èħ
´ å¦Ĥ
´ åĿı
¶ æķ°
¸ åį³
¹ é¤Ĳ
¹ é¥
º è¡¨
º è½¬
º äº§çĶŁçļĦ
¼ è¦ģ
¼ è°·
½ ĳ
½ å®¹
¾ Ĭ
¾ è¯Ń
¾ ç»ı
¾ æ¶
¿ è½¦
¿ åħ¬éĩĮ
¿ çģ¯
¿ åħį
å ´
å ĺ
å «Į
æ ¾
æ ħ§
æ ¦´
ç ħ
è ª
é ŀ
Ġ ä»¥
Ġ ç»Ļ
Ġ åĳĬè¯īæĪĳ
Ġ æĪĳæĥ³
Ġ è°¢è°¢ä½łçļĦ
Ġ åĪĨç±»
Ġ åģļ
Ġ æĪĳéľĢè¦ģ
Ġ çĶ¨ä¸Ģåı¥è¯Ŀ
Ġ åĵ¦
Ġ ä¸įéĶĻ
Ġ éĢļè¿ĩ
Ġ ç»ĻæĪĳä¸Ģä¸ª
Ġ åĪĽä½ľ
Ġ ä½Ĩæĺ¯
Ġ åĮ»
Ġ è¿Ļä¸ªåı¥åŃĲ
Ġ éĺħè¯»
Ġ è¿Ļæĺ¯ä¸Ģä¸ª
Ġ ä¸įéľĢè¦ģ
Ġ è°¢è°¢ä½łçļĦåĽŀçŃĶ
Ġ æīĵå¼Ģ
Ġ çľŁçļĦå¾Ī
Ġ æĮĩç¤º
Ġ å½Ĵçº³
Ġ æıŃç¤º
Ġ çİ°åľ¨ç»ĻæĪĳ
Ġ åĪĽå»º
Ġ åĲ¬èµ·æĿ¥ä¸įéĶĻ
Ģ åľ¨äºİ
Ģ èµĦäº§
Ĥ ¹é¤Ĳ
ĥ Ń
ĥ è¿Ľ
ĥ åĮº
Ħ é»Ħ
ħ çļĦ
ħ åĬĽ
ħ ç¬Ķ
ĩ æķ
ī åĴ
ī è½¬
ĭ éĺ³
ĭ æ¯Ķè¾ĥ
Į ä¸ļ
Į åŃĲä¸Ĭ
į æĻļ
Ĳ è¿°
Ĳ é¾Ļ
ĳ å¥½
ĳ æ°Ķ
ĳ é¼»
Ĵ ä½ĵ
ĵ åĲį
ķ åľ°
ķ éĺ³
Ĺ æĪ·
ĺ æīĭ
ĺ èĽ
ĺ å®Ŀ
Ļ äºº
ļ è¯Ń
Ľ çĽ
ľ çĦ¶
Ŀ åĬł
ŀ èĪ¹
Ł åĳ³
Ł éĩĳ
Ł ç³ķ
ł åĨ
ł çī©
ł éĻ¤
Ń çī
Ń éģĩ
ä¸ ²
ä¸ ĵ
ä¸ Ŀ
çļĦ å®ļ
çļĦ å¸®åĬ©
çļĦ è´
çļĦ æł·
çļĦ ä¸¤
çļĦ æľĪ
çļĦ æĺ¯åĵª
çļĦ åĪĨæŀĲ
çļĦ åĲįç§°
çļĦ ç»ĵæŀľ
çļĦ ä¹¦
çļĦ èıľ
çļĦ è¡¨è¾¾
çļĦ æĦŁè§ī
çļĦ çī©åĵģ
çļĦ æĹ¶éĹ´
çļĦ é¢Ħæµĭ
çļĦ åĽ¾
çļĦ åı£åı·
çļĦ æķħäºĭ
çļĦ éŁ³ä¹Ĳ
çļĦ éľĢæ±Ĥ
çļĦ ä¸»æĹ¨
çļĦ åĬŁèĥ½
çļĦ åħĥç´ł
çļĦ çļĩå¸Ŀ
çļĦ æŃĮè¯į
çļĦ åģ¥åº·
çļĦ ä¼łæĴŃ
çļĦ éĹ®åı¥
çļĦ è¡Ĺ
çļĦ æĮĳæĪĺ
çļĦ åĬĽéĩı
çļĦ åĲįç§°åĴĮ
çļĦ æĿ¡ä»¶
çļĦ ä½ľåĵģ
çļĦ æ¦Ĥå¿µ
çļĦ åİŁåĽł
çļĦ åģľè½¦åľº
çļĦ çĶ·
çļĦ æķĻ
çļĦ é¦ĸéĥ½
çļĦ æł¼è¨Ģ
çļĦ èĬ±åįī
çļĦ å¿«éĢŁ
çļĦ æĭĵå±ķ
çļĦ åĪĨå¸
çļĦ é£İæĻ¯
çļĦ åİĨåı²éĹ®é¢ĺ
çļĦ åŃĹæ¯įæĢ»æķ°
çļĦ æľĢåĲİä¸Ģä¸ªåħĥç´ł
çļĦ å©ļç¤¼
çļĦ ä½ıå®¿
çļĦ æĸĩæ¡£åºĵ
è¯ ģ
è¯ Ģåľ¨äºİ
ä» ª
ä» Ļäºº
äº ¿åħ¬éĩĮ
å¤ ®åħ¬åĽŃ
å¤ ķéĺ³
ä¸Ģ äºº
ä¸Ģ éģĵ
ä¸Ģ çĤ¹
ä¸Ģ åĲĮ
ä¸Ģ ä»¶
ä¸Ģ åįĬ
ä¸Ģ åĿĹ
æĪĳ è¦ģ
æĪĳ å¿
æĪĳ æĺ¯ä»Ģä¹Ī
æĪĳ æ²¡æľī
æĪĳ çŁ¥éģĵ
æĪĳ èĥ½å¤Ł
æĪĳ å®ĮæĪĲ
æĪĳ æĦŁè§ī
æĪĳ ä¸Ģå®ļ
æĪĳ æĺ¯ä¸Ģä¸ª
æĪĳ æľĢåĸľæ¬¢
æĪĳ å¾Īé«ĺåħ´èĥ½
æĪĳ åŃ¦ä¼ļ
æĪĳ è§īå¾Ĺ
æĪĳ æīĵç®Ĺ
æĪĳ éģĩåĪ°äºĨ
æĪĳ æĦŁåĪ°éĿŀå¸¸åħ´å¥ĭ
æĪĳ çļĦç¨ĭåºı
åħ ħ
åħ «æĪ
åĲ Ľ
æĺ¯ è¦ģ
æĺ¯ æ³
æĺ¯ åĵªä¸ª
æĺ¯ çĶ±
æĺ¯ æ¯ı
æĺ¯ ç¬¬
æĺ¯ åĩł
æĺ¯ è¿ĳä¹īè¯į
æĺ¯ åıįä¹īè¯į
æĺ¯ èĭ±
æĺ¯ åį°åº¦
æĺ¯ Ma
ä¸ª å¤©
ä¸ª æĸ°
ä¸ª åįķè¯į
ä¸ª åħĥç´ł
ä¸ª åĨľ
ä¸ª çľģ
åľ Ī
åľ £æ¯į
ä½ł å¾Ī
ä½ł æĽ´
ä½ł å°Ĩ
ä½ł åĳ¢
ä½ł çľŁ
æĸ ĳ
åĪ º
åĪ łéĻ¤
çĶ °
å® ģ
å® ½å®¹
å® ¾è¯Ń
å® łçī©
ç» µ
åĬ ªåĬĽ
å¥½ çĶ¨
å¥½ åĪ°
å¥½ äºĭ
å¥½ åĲĥ
è¯· åĽŀçŃĶ
è¯· ä»İ
è¯· æıĲåıĸ
è¯· ç¨
è¯· çĶ¨ä¸Ģåı¥è¯Ŀ
è¯· è®©æĪĳ
é¢ Ĺ
å¸ ģ
å¸ ½åŃĲ
åľ¨ ä¸Ģä¸ª
åľ¨ åħ¬
åľ¨ æ·
åľ¨ é£ŀ
åľ¨ æĲľ
åľ¨ å¹¿
åľ¨ è¥¿
åľ¨ è¿Ļä¸ªåı¥åŃĲ
åľ¨ ä¸ľ
åľ¨ å·´é»İ
åľ¨ è¿ĻéĩĮ
åľ¨ ä¼ļè®®
åľ¨ å®¤åĨħ
åľ¨ æ²Ļæ»©
åľ¨ åģľè½¦åľº
åľ¨ çŃīå¾ħ
åľ¨ å¤ľæĻļ
éĹ® ä½ł
æľī åĬ©
æľī åĬĽ
æľī éĽ¨
æľī è¯¯
è¿Ļ ä»¶
è¿Ļ ä¸īä¸ª
è¿Ļ åĩłä¸ª
è¿Ļ åľºæ¯ĶèµĽ
è¿Ļ è¾Ĩåħ¬äº¤è½¦
ä»¥ ä¸Ĭ
ä»¥ åħ¥
ä»¥ åĨħ
åĽ º
å¤© èĬ±
å¤© è¾¹
å¤© çļĦå¤©æ°ĶæĥħåĨµ
å¤© æĺ¯æĺŁæľŁ
å¤© çĻ½äºĳ
æĤ £
åĴĮ å»ºè®®
åĴĮ æĶ¾
åĴĮ æķ°æį®
åĴĮ ä»£çłģ
åĴĮ é¦Ļ
åĴĮ é¡¹
åĴĮ èĢģ
åĴĮ æĸ¹å¼ı
åĴĮ éĺħè¯»
åĴĮ æĦŁåıĹ
åĴĮ å¤±
åĴĮ æľįåĬ¡
åĴĮ åģ¥åº·
åĴĮ åįı
åĴĮ éĻįéĽ¨
åĴĮ è°Ĳ
åĴĮ è¯Ńå¢ĥ
åĴĮ èĬĴ
åĴĮ è§ĦåĪĻ
åĴĮ èīºæľ¯
åŃ ľçĦ¶
æĤ¨ è¦ģ
æĤ¨ æĥ³
æĤ¨ å¯¹
æĤ¨ è¿ĺæľīåħ¶ä»ĸ
æĤ¨ åľ¨åĵªä¸ªåŁİå¸Ĥ
æĤ¨ è¦ģæ±ĤçļĦ
æĤ¨ æīĵç®Ĺ
ä¸º äºĨ
ä¸º æĪĳæĥ³
ä¸º æ¯ı
ä¸º å¤ļäºĳ
ä¸º åĲĮä¹īè¯į
ä¸º æ¸©æļĸ
ä¸º PDF
åı¯ èĢ
åı¯ ä¹Ĳ
åı¯ çĪ±çļĦ
åı¯ è¯»æĢ§
æĹ ±
æĹ ı
åĨ ²
åĨ łåĨ
ä¸Ģä¸ª æŃ£
ä¸Ģä¸ª æľĪ
ä¸Ģä¸ª åı¯èĥ½
ä¸Ģä¸ª ä¾ĭåŃĲ
ä¸Ģä¸ª æľīæĦıä¹ī
ä¸Ģä¸ª å°ģéĹŃ
èĥ½ æıĲä¾Ľ
èĥ½ å¸®åĬ©ä½ł
èĥ½ åĿĲ
ä¼ į
ä¼ ŀ
ä¸ĭ è½
ä¸ĭ å¤ļå°ĳ
ä¸Ń åı¯ä»¥
ä¸Ń åı·
ä¸Ń åħ±
ä¸Ń æķ°åŃ¦
ä¸Ń æī¾åĪ°
ä¸Ń æıĲåĪ°çļĦ
ä¸Ń åĬłåħ¥
ä¸Ń å¡«åĨĻ
ä¸Ń çļĦçĮ«
ä¸Ń æ¼Ĥ
ä¸Ń å¤®åħ¬åĽŃ
æ°Ķ ä½ĵ
æ°Ķ æ°Ľ
æ°Ķ åĤ¨
åĩ Ŀ
åĩ ¯çī¹
åĩ ĢèµĦäº§
è° ļè¯Ń
ä¸į åı¯
ä¸į æĸŃ
ä¸į æĺ¯çļĦ
ä¸į åł
ä¸į æĩ
ä¸į æŃ¢
æĥ ĳ
æĸĩ åįķ
æĸĩ çĮ®
åı¯ä»¥ æĺ¯
åı¯ä»¥ åľ¨
åı¯ä»¥ åĪĨ
åı¯ä»¥ æıĲä¾Ľ
åı¯ä»¥ åĳĬè¯īæĪĳ
åı¯ä»¥ å¸®æĪĳ
åı¯ä»¥ è¢«
åı¯ä»¥ ä½¿çĶ¨
åı¯ä»¥ éĢļè¿ĩ
åı¯ä»¥ åĿĲ
åı¯ä»¥ åľ¨æ°´
ç§ Łéĩĳ
åº Ļ
æī §
æī ¼è¦ģ
æī ĳé¼»
æĿ ĳ
æĿ ľ
æĿ ¿çģ¯
åį ĸ
åį ļ
åį İå¸Ĥ
åį ļçī©é¦Ĩ
éľ ²
å¹ ¸
å¹ ¼
å¹ ħ
çī Ľ
æĦ ģ
æŀ ¯
äºº æĸĩ
äºº çī©
äºº åĲį
äºº åħ¥
äºº å£«
äºº åĿĲ
äºº ç¾¤
éĹ®é¢ĺ åĳ¢
éĹ®é¢ĺ çļĦä¸īä¸ª
æıĲ åıĬ
æıĲ åĪ°äºĨ
æıĲ éĨĴ
è¡ Ģ
å¥½çļĦ å»ºè®®
äºĨ æĪĳ
äºĨ åĵªäºĽ
äºĨ äººå·¥æĻºèĥ½
äºĨ æ¸¸
äºĨ è®¸å¤ļ
æĪĲ éķ¿
æĪĲ æŃ£
æĪĲ ä¸Ģåı¥è¯Ŀ
æĪĲ ç«ĭ
æĪĲ åıĮ
éľĢè¦ģ æĤ¨
éľĢè¦ģ å°Ĩ
éľĢè¦ģ åĲĥ
éľĢè¦ģ ä¸Ĭä¸ĭæĸĩ
éľĢè¦ģ çĿ¡è§ī
éľĢè¦ģ å¸®å¿ĻçļĦåĲĹ
éľĢè¦ģ åīĬåĩı
å¸® å¸®æĪĳ
æķ Į
æĢ ¡
æĢ ¥
ä»Ģä¹Ī ç±»åŀĭ
ä»Ģä¹Ī ç±»åŀĭçļĦ
å¯ ŀ
çĶŁ æĦı
çĶŁ éķ¿
çĶŁ ç´ł
çĶŁ åĦ¿
çĶŁ çĹħ
çĶŁ æĺ¯æĪĳçļĦ
è§ ¦
çİ ī
éĢ Ĵ
åĩº çļĦ
åĩº ä¸Ģä¸ª
åĩº äºĨ
åĩº ä¸īä¸ª
åĩº ç¾İåĳ³
åĩº ä¸ºPDF
å¦Ĥ æĺ¥
å¦Ĥ èĮ
å¦Ĥ çģ«
å¦Ĥ è¡Ģ
æľĢ å°ı
æľĢ çĪ±
æľĢ çŁŃ
æľĢ éĩįè¦ģ
æľĢ ç¹ģ
æľĢ åıĹæ¬¢è¿İ
çĶ¨ æĿ¥
éĿ ł
ä¸Ĭ æľī
ä¸Ĭ ç½ĳ
ä¸Ĭ æĦıå¤§åĪ©
æĬ ½
åĪ° æĪĳ
åĪ° çļĦéĹ®é¢ĺ
äºİ åĵªä¸ªåŁİå¸Ĥ
æį ī
æį ŀèĪ¹
æ³ ¡
æ³ ³
é£ Ĵ
åĵª ä½į
åĵª ä»½
åĵª ä¸Ģå¹´
åľ° ä½į
åľ° è¡¨è¾¾
åľ° é»Ħ
åľ° åĲ¹
åľ° åĲ¸å¼ķ
å¿ Ĺ
å· ·
å· ¢èµ·ä¹ī
å· ¦åı
æĽ ¼è°·
æĽ ¾ç»ı
å¤©æ°Ķ å¾Ī
å¤©æ°Ķ æ¸©
å¤©æ°Ķ ä¿¡æģ¯
å¤©æ°Ķ æĥħåĨµ
å¤©æ°Ķ æĢİä¹Īæł·
å¤©æ°Ķ æģ¶åĬ£
æĿ¥ æºĲ
æĿ¥ å¸®ä½ł
æµ ħ
çļĦç ±
çļĦç ´
çļĦç º
çļĦç ı
çļĦç ¡¬
çļĦç ®Ģ
çļĦç ¾Ĭ
çļĦç ĥŃ
çī© è´¨
å¾Ī æľīè¶£
å¾Ī æĦīå¿«
å¾Ī åĨ·
å¾Ī æĦ¿æĦı
å¤§ æľ¬
å¤§ å®¶
å¤§ è±¡
å¤§ çīĩ
å¤§ åĪ°å°ı
å¤§ èĦĳ
å¤§ è¶ĭåĬ¿
æĹ¶ åĪĨ
æĹ¶ ä»£
æĹ¶ èĬĤ
æĹ¶ æĶ¿
æİ Į
ä¿ ±
ä¿ Ĺ
ä¿ ĥè¿Ľ
è¯į åĩºçİ°
ä»ĸ çļĦè½¦
ä»ĸ ä¸Ģå¤©
è¿Ļä¸ª æĸĩæľ¬
è¿Ļä¸ª åŁİå¸Ĥ
è¿Ļä¸ª åįķè¯į
è¿Ļä¸ª è®¢
è¿Ļä¸ª åĲįåŃĹ
è¿Ļä¸ª åĪĹè¡¨ä¸ŃçļĦ
è¿Ļä¸ª ç¬ĳè¯Ŀ
è¿Ļä¸ª åĳ½é¢ĺ
è¿Ļä¸ª è¯įåĩºçİ°
æĶ »
åħ¶ ä¸ŃçļĦ
æķ° åĪĹ
æķ° åĢ¼
æķ° è¿Ĳ
æķ° æľĢå¤ļ
éĤ£ ç§į
éĤ£ ä½łåı¯ä»¥
æĥ³ éĹ®
æĥ³ æī¾
æĥ³ çŁ¥éģĵ
æĭ į
æĭ Ł
éģ Ĺ
éģ ¿åħį
éģ Ńéģĩ
è¯Ŀ é¢ĺ
åĽŀçŃĶ çĽ¸åħ³
åĪĨ åŃĲ
åĪĨ çŃīçŃī
è¯·éĹ® éľĢè¦ģ
è¯·éĹ® ä»Ĭå¤©åĮĹäº¬
æĦŁ å®ĺ
é«ĺ çļĦ
é«ĺ åº¦
é«ĺ å±±
é«ĺ è¾¾
çĽ Ľ
çĽ ²äºº
æıĲä¾Ľ çĽ¸åħ³
æıĲä¾Ľ è¯¦ç»ĨçļĦ
æıĲä¾Ľ æľīçĶ¨
èµ °
èµ ı
èµ ĸ
èµ ¢äºĨ
èµ ¤éģĵ
åı¥åŃĲ ä¸ŃçļĦ
åı¥åŃĲ çļĦè¢«åĬ¨è¯ŃæĢģæĺ¯
è¡Į æĶ¿
è¡Į éªĹ
å¯¹ äºİ
å¯¹ åº¦
å¯¹ ä»¥ä¸ĭ
å¯¹ åºĶ
å¯¹ æĪĳä»¬
å¯¹ æīĢæľī
å¯¹ æĶ¿
å¯¹ ä½łæľī
å¯¹ éļĲç§ģ
æĸ° åı¥åŃĲ
æĸ° å¹´
æĸ° ä¸ĸçķĮ
æĸ° æĬĢ
æĸ° äº§åĵģ
æĸ° è¥¿
æĸ° çĶµèĦĳ
æĸ° çĶŁåĦ¿
åĳĬè¯īæĪĳ æĤ¨æīĢåľ¨çļĦåŁİå¸Ĥ
è½ ¿è½¦
æľ¬ èº«
ä½ĵ çİ°
ä½ĵ æ¸©
ä½ĵ çļĦä½ĵ
æĽ´ å¤§
æĽ´ æŃ£
æĽ´ æľīè¶£
æĽ´ å¼º
çº ±
çº ¸
çº ł
æģ ¨
æģ ĭ
æģ ¢å¤į
æģ Ĳé¾Ļ
ä¸Ģä¸ĭ æľĢè¿ĳ
æĸĩç«ł åĨħå®¹
æĸĩç«ł åĴĮè§ĦåĪĻ
æ± Ĺ
èī ³
éĻ ©
æĺİ ä¸İ
æĺİ æľĿ
æĺİ åª
æĺİ æī¼è¦ģ
è¿° äºĨ
è¿ĺ éľĢè¦ģ
è¿ĺ ä¸įéĶĻ
è¿ĺ èĥ½åĿĲ
åĸ īåĴ
åĨĻ çļĦ
åĨĻ äºĨ
åĨĻ åĩº
åĨĻ ä½ľ
åĨĻ å¾Ĺ
çĶŁæĪĲ ä¸Ģåı¥
ä¸» è¯Ń
ä¸» å¹²
çİ°åľ¨ è¯·åĳĬè¯īæĪĳ
çİ°åľ¨ æĺ¯åĩł
æĪĸ åħ¶ä»ĸ
æĪĸ æľ¯
æĪĸ æµģ
æĪĸ äºĭçī©
æĪĸ çĸĳéĹ®
å°Ĩ åľ¨
å°Ĩ å®ĥä»¬
æīĢ éľĢ
æīĢ ä¸įåĲĮ
è°¢è°¢ æĤ¨çļĦ
æ³ķ å¾ĭ
ç±» åĬ¨çī©
ç±» ä¼¼
æł¹æį® æıĲä¾Ľ
æł¹æį® ä»¥ä¸ĭ
æł¹æį® è¾ĵåħ¥
æł¹æį® æľĢæĸ°
å®ĥ åı¯ä»¥
å®ĥ æĺ¯åĲ¦
å°ı éĽ¨
å°ı çĭĹ
å°ı çĮª
åĲį èĳĹ
åĲį æįķ
æŁ Ķ
è´ µ
è´ ¦æĪ·
å¦Ĥæŀľ ä»Ĭå¤©
å¦Ĥæŀľ æĪĳæĺ¯
éĿ¢ åĮħ
é¦ĸ åħĪ
èĬ ĿåĬł
çļĦå¤©æ°Ķ åĲĹ
çļĦå¤©æ°Ķ åºĶè¯¥æĺ¯
èī² è°ĥ
ç¯ĩ æĸĩç«ł
Ġè¯· å°Ĩ
Ġè¯· æł¹æį®
Ġè¯· æıĲåıĸåĩº
Ġè¯· çĶ¨ä¸Ģåı¥è¯Ŀ
è¡¨ çİ°
è¡¨ ç¤º
è¿ĳ æľŁ
æĸ¹ ä½ĵçļĦä½ĵ
ä»¥ä¸ĭ æĺ¯
ä»¥ä¸ĭ åįķè¯į
æĦı åħ¥
æĦı æ¸Ĳ
ä¿¡ ä»°
çĤ¹ åĴĮ
çĤ¹ æĸ°éĹ»
çĤ¹ äºĭæĥħ
åģ ·
åģ ¶æķ°
ä»İ DåĪ°
ä»İ å¥½åĪ°
ä»İ å¤§åĪ°å°ı
ä½ľ ä¸ļ
åĵģ ç§į
ç§į æ¤įçī©
åħ¶ä»ĸ ä»»åĬ¡
éĺ ²
éĺ ´
éĺ ¿
éĺ Ĳè¿°
éĽ ·
éĽ ģ
éĽ Ĩ
éĽ Ħé»Ħ
éĩĮ æıĲåıĸåĩº
éĹ´ çļĦçļĩå¸Ŀ
å¸Ĥ åľº
åıĸ çļĦ
åıĸ åĴĮ
åıĸ åĨ³
åĽ½ æľĢå¤§çļĦ
åŃ¦ å½±
åŃ¦ éĻ¢
æĹł æİª
å¹¶ åľ¨
å¹¶ ä¸į
å¹¶ æıĲä¾Ľ
å¹¶ åĳĬè¯īæĪĳ
å¹¶ å°Ĩåħ¶
å¹¶ åıĳéĢģ
æ¡ ĮåŃĲä¸Ĭ
ç¾İ å¥½
ç¾İ å¥½çļĦ
ç¾İ åħĥ
ç¾İ é£Ł
åıĳ çĶŁ
åıĳ æĺİ
åıĳ çĥŃ
åıĳ å°Ħ
è¿Ľ åħ¥
çĪ ¸
åħ¬ ä¼Ĺ
é£İ è½»
é£İ éĢģ
çĲĥ åľº
çĲĥ åĳĺ
çĲĥ èĪª
å»º ç«ĭ
æııè¿° ä¸Ģ
æııè¿° ä¸Ń
æııè¿° ç§ĭå¤©çļĦ
æııè¿° å¤ıæĹ¥
æııè¿° å¤ıå¤©çļĦ
æııè¿° ç§ĭæĹ¥
çĭ ¼
çĭ ©çĮİ
åįķ ä»·
å¿ĥ åĴĮ
å¿ĥ ä¸Ń
å¿ĥ çĶµ
å¿ĥ èĦ
å¿ĥ è§ĤçĤ¹
æ°´ æĹ¶
éĤ£ä¹Ī çİ°åľ¨
åħ·ä½ĵ éĹ®é¢ĺéľĢè¦ģ
åħ·ä½ĵ çļĦéĹ®é¢ĺæĪĸèĢħ
åĬł åĪ©
åĬł å¼º
åŁİå¸Ĥ åı¯æĮģç»Ńåıĳå±ķ
çĮ ©
è¢ ħ
æ´ ²
æ´ ¾
ç´ §
çĶµ çģ¯
ç§ĭ ä¸ĩ
æµ· å¹³
æµ· åķ
æ¯Ķ çļĦ
æ¯Ķ ç©ºæ°Ķ
æ¸© åĵ¥
èĩª è¡Į
ä¿¡æģ¯ ä»¥ä¾¿æĪĳ
è· µ
æĪĳä¼ļ ä¸ºæĤ¨
æĪĳä¼ļ è¯ķè¯ķ
å¹´ åĲĮ
å¹´ äº§
å¹´ å¹³åĿĩ
å¹´ é¾
å¹´ éĹ´çļĦçļĩå¸Ŀ
æŃĮ æīĭ
ä½į çļĩå¸Ŀ
è¯·ä½ł çĶ¨
å½± å®¶
å½± çīĩ
èµ· äºĨ
ä»£ è¡¨
ä»Ĭå¤© çļĦå¤©æ°ĶæĢİä¹Īæł·
ä»Ĭå¤© æĹ©ä¸Ĭ
åĲ¦ å®ļ
åĲĮ æŀĦ
åĲĮ ç±»åĬ¨çī©
å¼Ģ æĶ¯
å¼Ģ å¤´
éĿŀå¸¸ æľīè¶£
éĿŀå¸¸ æĦŁè°¢
éĿŀå¸¸ æĦŁè°¢ä½łçļĦ
èĲ ¦
ä»¶ ç®±
æĺ¯ä»Ģä¹Ī æĹ¶åĢĻ
æĺ¯ä»Ģä¹Ī åĽ½ç±į
é¢Ħ å®ļ
å¸®æĪĳ æŁ¥ä¸Ģä¸ĭ
éļı æľº
çķ ¥
çķ Ķ
çķ Ļ
ä¸¤ ä½į
ä¸¤ ä¸ªäºº
ä¸¤ åı¥è¯Ŀ
ä¸¤ ç¯ĩæĸĩç«ł
æıĲåıĸ ç»ĵæŀľ
ç»ĻæĪĳ ä¸ĢäºĽ
ç»ĻæĪĳ è®²ä¸Ģä¸ª
åħ³äºİ ä¸ĸçķĮ
åħ³äºİ çĪ±æĥħ
åħ³äºİ äººå·¥æĻºèĥ½åľ¨åĮ»
è¯¥ éĤ®ä»¶
è¯¥ æĸĩçĮ®
è¿ĩ å¹´çļĦ
æ® ĭéĺ³
Ġä½łå¥½ åķĬ
åĵªä¸ª è¶³çĲĥ
å±± ä¸Ĭ
å±± æ°´
æ» Ķ
ä½¿ åħ¶
ä½¿ åı¥åŃĲ
ä½¿ å®ĥä»¬
å¤ª ç©º
å¤ª æ£ĴäºĨ
æĪĳåı¯ä»¥ éĢļè¿ĩ
æĢ§ åĮĸ
åĮħ ç²
ç©º ç¼º
ç©º ä¸ĩéĩĮ
è¢« ç¿»è¯ĳæĪĲ
è¢« æĽ´å¼º
åĢ į
åĢ ºè¡¨
ç¼ ©
ç¼ ĺ
Ġä¸º æĪĳ
Ġä¸º ä»¥ä¸ĭåı¥åŃĲ
åĲİ çļĦæĸĩæľ¬
åĲİ å¤©æĺ¯æĺŁæľŁ
åĬ¨çī© ç§įç±»
è¿ĺæľī åħ¶å®ĥ
é» ĺ
åı£ è¯Ń
åı£ ç¢
æľº ä¼ļ
æľº ä¸Ĭ
æľº ç¥¨
å®¹ åĻ¨
ä¸ŃçļĦ çĶŁçī©
å¾Ĺ åĪ°
å¹³ åı°
å¹³ æ·¡
åİ» å¹´åĲĮ
çĽ¸ éģĩ
çĽ¸ äºĴ
çĽ¸ å®Ī
çĽ¸ æ¯ĶçļĦ
çĶŁæĪĲä¸Ģä¸ª åħ³äºİ
çĶŁæĪĲä¸Ģä¸ª åĮħåĲ«
çĶŁæĪĲä¸Ģä¸ª ä¸İä¹ĭ
è¿Ľè¡Į ç¿»è¯ĳ
åĸľæ¬¢ åľ¨
åĸľæ¬¢ æĸĩåŃ¦
åĸľæ¬¢ çļĦé¢ĨåŁŁ
é¸ Ń
é¸ ½åŃĲ
éĥ½ ä¼ļ
è¿Ļç¯ĩ è¯ĹæŃĮ
åĨį æĿ¥
åĨį åĳĬè¯īæĪĳ
åĨį æĬĬ
åĨį åĨĻä¸Ģé¦ĸ
åĨį éĩįå¤į
åĨį çĶŁæĪĲä¸Ģé¦ĸ
è®© ä½łçļĦ
æŃ£ åģ¶æķ°
æĮĩ åĩº
æĮĩ å®ļ
æĮĩ æĺİ
æĮĩ å¯¼
æĮĩ åįĹ
æĮĩ çļĦæĺ¯ä»Ģä¹Ī
ä¸»é¢ĺ åĴĮ
ä¸»é¢ĺ è¡Į
çĪ± å¥½
èģ ļ
èģ Įä¸ļ
äºĭ å®ŀ
äºĭ æ¡Īä»¶
ä¸ºæĤ¨ è§£çŃĶ
éĩį å¤§
æŁ¥ æĶ¶
ç³ Łç³ķ
èĢħ çļĦ
æĺİå¤© ä¼ļ
æĺİå¤© çļĦå¤©æ°Ķé¢ĦæĬ¥
æĺİå¤© å·´é»İ
æĹłæ³ķ å¯¹
æĹłæ³ķ æıĲä¾Ľåħ·ä½ĵçļĦ
æ®µ èĲ½
çĿĢ ä¸Ģ
çĿĢ åľ¨
çĿĢ äºº
çĿĢ å¤©ç©º
é¤Ĳ é¦Ĩ
ä¸ī æ®µ
ä¸ī æľĢåĸľæ¬¢
çĶ± åĴĮ
åĨħ å®ĮæĪĲ
æī¾ åĩº
æīĭ å®¹æĺĵ
æľĢè¿ĳ ä¸ļ
æľĢè¿ĳ ä¸Ģæ¬¡
æĶ¾ å¤§
æĶ¾ å¿ĥ
æĶ¾ åħ¥
èı ĩ
èı Ĭ
æľĪ çĲĥ
æĢ» ç»Ł
æĢ» åĨłåĨ
æ²¡æľī æıĲ
ç¡® å®ŀ
åŀ Ĥ
åĲ¬ çĿĢ
æľĢé«ĺ æ°Ķæ¸©
æľĢé«ĺ æ°Ķæ¸©ä¸º
æİ¨ åĬ¨
çº¢ èĬ±
çº¢ æ¡ĥ
çº¢ æ¥¼
çº¢ å®ĿçŁ³
é¡ »
è¯´ è¯´
è¯´ å·´é»İ
è¯ķ éªĮ
åıĺ æĪĲ
åıĺ éĩı
åıĺ æļĸ
åıĺ åĨ·
æĪĳæĥ³ äºĨè§£ä¸Ģä¸ĭ
åľº åľ°
åľº éĩĮ
åĪĽ æĦı
åĪĽ å§ĭ
è¿Ļæĺ¯ åĽłä¸º
è¿Ļæĺ¯ ä¸Ģç¯ĩ
è¿Ļæĺ¯ çĶ±äºİ
è¿Ļæĺ¯ ä¸Ģæ®µ
åĽłä¸º å®ĥ
åĽłä¸º æ²¡æľī
åĽłä¸º è¿ĻäºĽ
åĽłä¸º ä»ĸä»¬
ç¿ ħ
æľŁ çĽ¸æ¯ĶçļĦ
åĲĥ äºĨ
åĲĥ æİī
åĪ« äºº
å°± è¯»
å°± æĺ¯åľ¨
æłĩ å¿Ĺ
ç»Ļåĩº ä¸Ģä¸ª
æ¯ı çīĩ
æ¯ı ä¸ªæľĭåıĭ
æ¸ħ åĩī
æ¸ħ æ´ģ
æ¸ħ æ¥ļ
æĻº æħ§
çľĭ çļĦ
çľĭ ä¸Ģä¸ĭ
çľĭ çľĭ
ä½¿çĶ¨ çļĦ
èĤ ²
èĤ ¥çļ
åı¶ èĲ½
ä½Ĩ ä»ĸ
ä½Ĩ æĪĳä¸įçŁ¥éģĵ
èĢĮ åıĪ
æ¡Ī é¦Ĩ
ä¸ĸçķĮ åľ°åĽ¾
ä¸ĸçķĮ å¤§æĪĺ
åķ ¼
ãĢĤâĢĿ âĢľ
åıª æľī
åıª ç¾Ĭ
åıª å°ıçĮª
ä¸ĢäºĽ çĪµå£«
å¸ĮæľĽ ä½ł
å¸ĮæľĽ ä½łèĥ½
å¸ĮæľĽ è¿ĻäºĽ
å¸ĮæľĽ ä½łä¼ļåĸľæ¬¢
æķ°æį® æĺ¯åħ³äºİ
æķ°æį® åĴĮéĹ®é¢ĺ
çĽ® æłĩ
çĽ® åīį
ä»£çłģ é£İæł¼
è¿ĺæľīåħ¶ä»ĸ ä»Ģä¹Ī
è¿ĺæľīåħ¶ä»ĸ åı£åĳ³
æ¶ ķ
æ¶ Ľ
æľīä»Ģä¹Ī åħ¶ä»ĸéĹ®é¢ĺ
æĤ¨çļĦ è¦ģæ±Ĥ
æĤ¨çļĦ æĮĩä»¤
èĥ½å¤Ł æ»¡è¶³æĤ¨çļĦ
å¼ķ äººåħ¥
åİĨ æ³ķ
åİĨ ä¸ŃçļĦ
è°¢è°¢ä½łçļĦ è§£çŃĶ
èĬ± é¦Ļ
éĽ¨ å¤©
åħ·ä½ĵçļĦ å®ŀ
ç¨ĭ åº¦
èĦ Ĥ
èĦ Ĩ
èĦ ļ
ä½łèĥ½ æİ¨èįĲ
ä½łèĥ½ ä¸įèĥ½
å®¶ çĮ«
åĪĨç±» éĢīé¡¹
ç®Ĺ æ³ķ
æĲ º
çĥ ¹é¥
çĥ Łåĳ³
ä¸İ æĪĳä»¬
ä¸İ æ°§æ°Ķ
ä¸İ çī©ä½ĵçļĦè´¨éĩı
ä¸ļ è®¡åĪĴ
ä¸ļ çĶŁäºº
æĺ¯åĵª ä¸Ģå¹´
æĺ¯åĲ¦ éľĢè¦ģ
æĺ¯åĲ¦ è¿ĺæľīåħ¶ä»ĸ
æĺ¯åĲ¦ æľīå¿ħè¦ģ
è¯·åĳĬè¯īæĪĳ æĤ¨éľĢè¦ģ
è¯·åĳĬè¯īæĪĳ æĤ¨æĥ³è¦ģ
è¿ĻäºĽ éĹ®é¢ĺ
è¿ĻäºĽ åĬ¨çī©
è¿ĻäºĽ æķ°æį®æĺ¯åħ³äºİ
åĨ³ å®ļ
åĨ³ èµĽ
å¯¼ åĩºä¸ºPDF
æĽ´å¤ļ çļĦ
æĽ´å¤ļ åħ³äºİ
åģļ çļĦåĲĹ
åģļ äºĨä»Ģä¹Ī
åģļ ä½ľä¸ļ
é¸Ł è¯Ń
é¸Ł é¸£
é¸Ł ä¼ļé£ŀ
æļ ´
æļ ĳæ°Ķ
å¤ı åŃ£
è¯·æıĲä¾Ľ æĽ´åħ·ä½ĵçļĦä¿¡æģ¯
å¦Ĥä½ķ åĲĹ
å¿« çļĦ
çİ°åľ¨è¯·ä½ł æĬĬ
å®ĥä»¬ ä¹ĭéĹ´çļĦ
ä¹ĭéĹ´ åıĳçĶŁ
æİ¨èįĲ ä¸Ģæľ¬
åĮĹäº¬ çļĦ
åĮĹäº¬ çļĦå¤©æ°Ķ
åĮĹäº¬ ä»Ĭå¤©
åĮĹäº¬ çļĦå¹³åĿĩ
æ£ ®
æ£ ĺæīĭ
å¤į è®®
åħ¨ æĸ°äº§åĵģ
åħ¨ åĽ½æľĢå¤§çļĦ
ä¸ªäºº ä¸Ń
ä¸ªäºº ä»½
è¦ģæ±Ĥ åĽŀçŃĶ
ä¿Ŀ æļĸ
å¦ĤæŀľæĤ¨ éľĢè¦ģ
å¦ĤæŀľæĤ¨ æľīä»»ä½ķ
å¦ĤæŀľæĤ¨ éľĢè¦ģåħ¶ä»ĸ
çĭĹ åĴĮ
çĭĹ é£Łåĵģ
çĮ« æĺ¯
çĮ« åĴĮèĢģ
èĲ½ ä¸ĭ
åħ³éĶ® çĤ¹
åħ³éĶ® åŃĹ
çģ µ
çģ ¼
çĻ »å±±
éħ ¸
åı· çº¿
ä¸Ģç§į åı£åı·
åħĥ æľĿ
åĲ« æľī
åĩł ä¹İ
ç§ĳ åĬ¨çī©
ç§ĳ æ¯Ķåľ¨
é£ŀ çļĦ
æĥħåĨµ ä¸ĭ
æĪĳä¼ļå°½ éĩı
ç¤º ä¾ĭ
10 000
çĬ ¯
æĺ¥ å¤©çļĦ
æĺ¥ æļĸ
æĪĳéľĢè¦ģ æĭ¿
ä¹Ł èĥ½
åĽĽ æº
çİ¯ çĲĥèĪª
æ³¨ æĺİä¸İ
æĪĸèĢħ éľĢè¦ģæĽ´å¤ļ
æīĢæľī æķ°åŃĹ
æīĢæľī éĶĢåĶ®
ä¸¤ä¸ª åĵģçīĮ
ä¸¤ä¸ª ä¸įåĲĮçļĦ
ç»ĵæŀľ æĺ¯
ç»ĵæŀľ åĽĽèĪįäºĶåħ¥åĪ°å°ıæķ°çĤ¹åĲİ
ç¦» å¼Ģ
èĭ ı
çļĦåı¥åŃĲ ä¸º
æµģ æ´¾
æ¬¡ æķ°
æ¬¡ æĸ¹
æ¬¡ ä¸ĸçķĮå¤§æĪĺ
ç®Ģ è¦ģ
ç®Ģ çŁŃçļĦ
ç®Ģ æĺİæī¼è¦ģ
Ġä¸ºä»Ģä¹Ī è¿Ļä¸ª
Ġä¸ºä»Ģä¹Ī æĪĳçļĦç¨ĭåºı
çĶ±äºİ é¢ĺçĽ®
çĶ±äºİ æľªçŁ¥
éĢīæĭ© éĢĤå½ĵ
åĻ¨ æĿĲ
åĻ¨ æĹ¶ä»£
å¤ľ ç©º
å¤ľ å¹ķ
åĪ¤ åĨ³
é¢Ĩ å¯¼
æľīè¶£ çļĦç¬ĳè¯Ŀ
é£ĺ éĽ¶
é£Ł è°±
åĵªäºĽ çī©åĵģ
åĵªäºĽ æ¤įçī©
è¯Ńè¨Ģ çļĦ
è¾¹ éķ¿
çĭ¬ èĩª
çĭ¬ çī¹
æ»¡ æĦı
åĢ¼ æĺ¯
åĢ¼ å¾Ĺ
åĢ¼ çļĦä½įç½®
èıľ åĵģ
æĲľç´¢ éĻĦè¿ĳçļĦ
å§ ĵåĲį
åĶ ±
åĶ ĩ
åĶ ¾æ¶
çļĦä¿¡æģ¯ åĴĮ
æĪ· å¤ĸ
å®ŀ çİ°
å®ŀ è·µ
çŃĶæ¡Ī æĺ¯
åľ°çĲĥ çļĦå¹³åĿĩ
åľ°çĲĥ çļĦåį
æİ¥ è§¦
æĶ¹ åĨĻ
æĶ¹ åıĺ
è¯·éĹ®ä½ł æľīä»Ģä¹Ī
è¯·éĹ®ä½ł åľ¨åĵªä¸ªåŁİå¸Ĥ
è¯·éĹ®ä½ł æīĢåľ¨çļĦåŁİå¸Ĥæĺ¯åĵªéĩĮ
è¯·éĹ®ä½ł éģĩåĪ°äºĨ
ç¾İåĽ½ æľĢå¤§
åĮħæĭ¬ èĩªçĦ¶
ç¼ĸ åĨĻ
æľĢé«ĺçļĦ å»ºçŃĳ
æľĢé«ĺçļĦ æľĪä»½
å®ĮæĪĲ è¿Ļä¸ªä»»åĬ¡
çı Ńçī
èİ «
ä¸ĩ çī©
åĪ¶ å®ļ
åĪ¶ åĵģ
åĪ¶ éĢł
è®º æĸĩ
äºĨè§£ ä»Ģä¹Ī
çĶ¨ä¸Ģåı¥è¯Ŀ æ¦Ĥæĭ¬
æŃ¥ éª
ç«Ļ åľ¨
ç«Ļ åľ°
è¡¨è¾¾ å¯¹
åħ¬åı¸ æľĢè¿ĳä¸ļ
é»Ħ å·¢èµ·ä¹ī
çĻ½ èī²
çĻ½ å¤©çļĦæ°Ķæ¸©
éŁ §
ĠéĿŀå¸¸ æĦŁè°¢
è¯Ħ åĪĨ
è¯Ħ å®ļ
åıį å¯¹åº¦
è¿Ļé¦ĸ è¯Ĺ
è¿Ļé¦ĸ æŃĮ
è¿Ļé¦ĸ æŃĮæĽ²
èĥ½åĲ¦ ç»ĻæĪĳæİ¨èįĲ
æīĵ æįŀèĪ¹
å¼ł å½¢è±¡
å¼ł ä¸īæľĢåĸľæ¬¢
åİŁ åŃĲçļĦ
åľ°åĮº èĢĮå¼Ĥ
ä»ĸä»¬ ä¹ĭéĹ´çļĦ
æĶ¯ åĩº
é¦Ļ åĳ³
é¦Ļ èķ
è¿ĺæĺ¯ ä¸ŃæĢ§
è¿ĺæĺ¯ æĦŁåı¹åı¥
ä¸»è¦ģ è®²
ä¸»è¦ģ æĬĢæľ¯
æ´» åĬĽ
åĵªä¸ªåŁİå¸Ĥ çļĦå¤©æ°ĶæĥħåĨµåĳ¢
æ·± æĢĿ
ç½ĳ ä¸Ĭ
è¥¿ çıŃçī
Ġä»İ ç»Ļå®ļçļĦ
Ġä»İ æĸĩç«łä¸ŃæıĲåıĸåĩº
åı¤ é£İ
åı¤ åºĻ
å¤Ħ äºİåĵªä¸ªåŁİå¸Ĥ
å¥¹ çļĦ
å¥¹ åĩºçĶŁ
å¥¹ æĮĩçļĦæĺ¯
å¥¹ åĸľæ¬¢æĸĩåŃ¦
åĳ½ åĲį
ä¸ŃåĽ½ åı¤ä»£
ä¸ŃåĽ½ åİĨåı²ä¸Ĭ
æĿ¡ è¾¹
æĿ¡ æ¬¾
åįİ æ°ıåº¦
åįİ çļĦè¡Ĺ
éĩĳ å±ŀ
éĩĳ çīĮ
éĩĳ é¢Ŀ
æĦŁåĪ° çĦ¦èĻĳ
æĦŁåĪ° æĦīæĤ¦
æĸĩç«łä¸Ń æıĲåıĸ
ä»»åĬ¡ åĲĹ
ä»»åĬ¡ éľĢè¦ģæĪĳ
æĪĳä¼ļå°½åĬĽ ä¸ºæĤ¨æıĲä¾Ľå¸®åĬ©
åĪ¤æĸŃ åħ¶
ç¢ ³
äº¤ åª
äº¤ ç»ĩ
ä¸Ģæ®µ æĸĩæľ¬
å®ī æİĴ
å®ī è£ħ
ç»¿ åı¶
ç»Ł æ²»
çīĩ åĪ»
éĤ® ç®±
çļĦç¾İ æĻ¯
æĶ¶ ä»¶ç®±
è¶³ å¤Ł
éĺŁ ä¼į
èĤī ç±»
èĤī éħ±
èĤī ä¸²
æľªæĿ¥ åįģ
æľªæĿ¥ å·¥ä½ľ
çĬ¶ æĢģ
æ¨ ±èĬ±
ĠéĤ£ä¹Ī è¯·
ĠéĤ£ä¹Ī è¯·éĹ®
ĠéĤ£ä¹Ī è¯·ä½ł
Ġç»Ļå®ļ ä¸Ģä¸ª
Ġç»Ļå®ļ ä¸Ģåı¥è¯Ŀ
å¤ĸ çļĦ
è¿Ĳ ä¼ļ
ä½łåı¯ä»¥ éĢļè¿ĩ
æķ´ æķ°è¿Ĳ
ä¾¿ åĪ©
çļĦçŁ ĽçĽ
æ¸¸ æ³³
æĻ´ ç©ºä¸ĩéĩĮ
èĢģ å¸Ī
èĢģ äººåĿĲ
åħ¶ä¸Ń åĮħæĭ¬
åħ¶ä¸Ń åĮħåĲ«
å¯¹è¯Ŀ ç³»ç»Ł
åĨĻä¸Ģé¦ĸ ä¸ĥ
å¸®åĬ©æĤ¨ è§£åĨ³éĹ®é¢ĺ
æŁĲ ç§į
èįī å¦ĤèĮ
ç»ĻæĪĳä¸Ģä¸ª ä¾ĭåı¥
è®¡ç®Ĺ ç»ĵæŀľåĽĽèĪįäºĶåħ¥åĪ°å°ıæķ°çĤ¹åĲİ
çĪ±æĥħ çĶµå½±
æĢ»ç»ĵ ä¸Ģä¸ĭ
æĢ»ç»ĵ è¿Ļç¯ĩæĸĩç«ł
ä½Ĩæĺ¯ æĪĳ
ä¸ĸçķĮä¸Ĭ æľĢé«ĺçļĦå±±
çĥŃ çĤ¹æĸ°éĹ»
è¾ĵåħ¥ æķ°æį®
å¹¿åĳĬ éĤ®ä»¶
å¹¿åĳĬ æłĩè¯Ń
æīĢåľ¨çļĦåŁİå¸Ĥ åĲĹ
åĵºä¹³åĬ¨çī© çļĦä¾ĭåŃĲ
æĴ ¤ç¦»
æĴ °åĨĻä¸Ģç¯ĩ
éª ¨å¤´
é¹ ¦é¹
ĠæĪĳ è¦ģ
Ġè¯·éĹ® è¿Ļ
Ġå¤ª éĺ³
è¿Ļæ®µ æĸĩåŃĹ
åĨ° å±±
ä¸Ģä¸ªæĸ° çļĦåĵģçīĮåĲįç§°
ä¸įæĺ¯ æīĢæľī
ä¸įæĺ¯ ç´łæķ°
éĹ®é¢ĺéľĢè¦ģ å¸®å¿Ļ
åĮ» éĻ¢
è¿Ļä¸ªåı¥åŃĲ æĶ¹æĪĲ
æĽ´åĬł çĽ´æİ¥
åĸĿ éĽĦé»Ħ
åĨĻä¸Ģä¸ª æłĩé¢ĺ
éļ¾ é¢ĺ
éļ¾ ä»¥åħ¥
è¡¨æł¼ å¯¼åĩºä¸ºPDF
çº¢èī² è½¿è½¦
å±ŀäºİ æ°´æŀľ
å±ŀäºİ æŃ£éĿ¢
éĻĦè¿ĳ æľīä»Ģä¹Ī
éĻĦè¿ĳ çļĦçĭĹ
AI æľºåĻ¨äºº
ĠéĤ£ å¦Ĥæŀľ
Ġå¦Ĥæŀľ ä¸Ģä¸ªäºº
ä¸ľ çľģ
ä»· æł¼
ä»· æĢģ
ä»· åĢ¼
äºĮ æ®µ
æĪĳå°Ĩ ä¸ºæĤ¨
ä¹° äºĨ
è¯·æĤ¨ åĳĬè¯īæĪĳ
è¯·æĤ¨ æıĲä¾Ľåħ·ä½ĵçļĦ
è¿Ļåı¥è¯Ŀ æĺ¯ç§¯æŀģçļĦ
æĹ© é¤Ĳ
æĹħ æ¸¸
ä¼ĺ çĤ¹
åĩĨ æĹ¶
åĩĨ å¤ĩ
åĩī çĪ½
åĩī é£İè½»è½»
è°ĥ æĸĻ
è°ĥ çļ®
åį° è®°
éģĩ åĪ°çļĦéĹ®é¢ĺ
å®ĥçļĦ ä½ĵæ¸©
ç§ĭé£İ åĲ¹
æ¸©åº¦ çº¦
æ¸©åº¦ éĢĤå®ľ
æľºåĻ¨ åŃ¦ä¹ł
èģĬå¤© åĲ§
Ġæł¹æį®ä»¥ä¸ĭ åħ³éĶ®è¯įåĨĻä¸Ģç¯ĩæĸĩç«ł
è¯·éĹ®æĤ¨éľĢè¦ģ æŁ¥è¯¢
å¦ĤæŀľæĤ¨è¿ĺæľīåħ¶ä»ĸ éľĢè¦ģ
æīįèĥ½ åĽŀçŃĶ
æīįèĥ½ ç¡®å®ļ
å·´é»İ åľ£æ¯į
æ¨¡ å¼ı
çĵ ¦
éĵ ºè½¬
éĵ ħç¬Ķ
ï¼ī ï¼Į
çļĦå¹³åĿĩ åįķè¯į
çļĦå¹³åĿĩ åĢ¼
å¥³ æĢ§
å¥³ çĶŁæĺ¯æĪĳçļĦ
åľ¨äºİ æ¯ıä¸ªäºº
æĤ¨åı¯ä»¥ éĢīæĭ©
æĤ¨åı¯ä»¥ æĶ¾å¿ĥ
ä¸ºä½ł è§£çŃĶ
è®° å¾Ĺ
è®° å½ķ
æłĳ æľ¨
è°ģ æĺ¯
ä¸įä¼ļ ä¸ĭéĽ¨
ä¸įä¼ļ é£ŀçļĦ
æĿ¯ åŃĲ
äººä»¬ éľĢè¦ģçĿ¡è§ī
å¤©æ°Ķé¢ĦæĬ¥ æľºåĻ¨äºº
æ²³ é©¬
æ²³ æĺ¯åį°åº¦
ä½ľä¸º ä¸Ģä¸ª
ä½ľä¸º è¯Ńè¨Ģæ¨¡åŀĭ
ä½ľä¸º AIè¯Ńè¨Ģæ¨¡åŀĭ
æ¬¢è¿İ æĿ¥åĪ°
åıĳå±ķ çļĦä¸¤
ç§ĭå¤©çļĦ åĩīé£İè½»è½»
è®©æĪĳ å¸®æĤ¨
æŃ£ç¡® çļĦ
èģĶ èµĽ
æľĢè¿ĳçļĦ æĸ°éĹ»
çİ¯ä¿Ŀ ä¸įåºĶè¯¥
å¡« ç©º
æĳĦ å½±å®¶
æ¤į è¢«
è¯¦ç»Ĩ åĽŀçŃĶ
èĵĿ å¤©çĻ½äºĳ
åĴĸåķ¡ åİħ
å¦ Ī
å¦ ĥçļĦ
Ġåı¯ä»¥ åĨįç»ĻæĪĳä¸Ģä¸ª
çļĦè¯Ŀ é¢ĺåĲĹ
ä¸Ģç»Ħ æķ°æį®
å¥ĩ æķ°
å¥ĭ æĸĹ
å°ģ å¹¿åĳĬéĤ®ä»¶
åĳ¨ éķ¿
å¾® ç¬ĳ
æĿ¾ é¼ł
æ¸Ĳ åıĺ
æ¸Ĳ æ¸Ĳåıĺ
æĦŁåıĹ åĴĮ
çŁ³ çļĦé¢ľèī²
çŁ³ æ¦´
çŁ³ åĻ¨æĹ¶ä»£
ä¸»æĹ¨ æĢĿæĥ³
è´¹ çĶ¨
è´¹ èĢħ
è´Ł åĢºè¡¨
åħ¬éĩĮ çļĦ
ç§ĭå¤© çļĦç¾İæĻ¯
æŃĮæĽ² åĲįç§°åĴĮ
ä»Ĭå¤©å¤©æ°Ķ å¾Īå¥½
æĪĳåı¯ä»¥ä¸ºæĤ¨ æŁ¥æī¾
ç©ºæ°Ķ æ¸ħæĸ°
æ¶Ī æģ¯
æ¶Ī æŀģçļĦ
æ¶Ī è´¹èĢħ
æ¼Ķ å¥ı
åħ¨çĲĥ æľĢå¤§çļĦ
åħ¨çĲĥ åıĺæļĸ
éħį ä¸ĬæĦıå¤§åĪ©
ç§ĳæĬĢ åıĺéĿ©
ç§ĳæĬĢ å¸¦æĿ¥çļĦæĮĳæĪĺ
æĦīå¿« çļĦæĹ¶åħī
å© īè½¬
èħ °æŀľ
Ġå°Ĩ ä»¥ä¸ĭåı¥åŃĲ
Ġå°Ĩ ä»¥ä¸ĭæĸĩæľ¬
ĠåĨĻä¸Ģé¦ĸ äºĶè¨Ģç»Ŀåı¥
ĠåĨĻä¸Ģé¦ĸ äºĶè¨Ģè¯Ĺ
çļĦåį ±
çļĦåį ļçī©é¦Ĩ
åı¦ ä¸Ģè¾¹
å¤± åİ»
å¤± èĲ½
å¤ĩ æ³¨
æĸ¯ åį¡
åĽ¢ ä½ĵ
åĵĪ åĵĪ
èĥ½å¸®æĪĳ åĩº
æŀ«åı¶ çº¢
æıĲåĪ°çļĦ ä¸»è¦ģæĬĢæľ¯
éĩĩ è´Ń
æĪĲåĬŁ çļĦç§ĺ
æĪĲåĬŁ æĴ¤ç¦»
å¸®åĪ° ä½ł
çĶŁåĳ½ åľ¨äºİè¿ĲåĬ¨
è§Ĩ é¢ĳ
æ³¢ çī¹
æķ°åŃĹ æ¡£
æķ°åŃĹ è´§
çĤİ çĤİ
ä½įäºİ åĸľé©¬æĭīéĽħå±±èĦī
ä»Ĭå¤©çļĦå¤©æ°Ķ æĻ´æľĹ
ä»Ĭå¤©åĮĹäº¬ çļĦå¤©æ°Ķé¢ĦæĬ¥
èĲ¥ åħ»
ç¤¾ åĮº
ç¤¾ äº¤åª
éĢļå¸¸ æĺ¯
ç»ĨèĬĤ éĥ¨åĪĨ
æ³¨æĦı çļĦ
æ³¨æĦı ä¿Ŀæļĸ
ç¥ŀ å¥ĩ
å®īåħ¨ éĢłæĪĲ
å®īåħ¨ éĹ®é¢ĺçļĦä¸īä¸ª
çļĦç¾İå¥½ åį°è®°
èĳĹåĲį äººå£«
èĳĹåĲį çļĦåįļçī©é¦Ĩ
èİ·å¾Ĺ æĢ»åĨłåĨ
æ¤įçī© çķĮ
åĥı è¯ĬæĸŃ
å·§åħĭåĬĽ èĽĭç³ķ
å¨ ±ä¹Ĳ
æ½ º
æ½ ľ
æĵ ¦
è£ ħæ»¡
çļĦçŃĶæ¡Ī åĴĮæķ°æį®
äºĴ åĬ©
åĲĦ ä¸ª
ï¼ŁâĢĿ <|
åľ¨åħ¬åĽŃ éķ¿æ¤ħä¸Ĭ
æĤ² æŃĮ
å°¼ äºļ
åĨľ ä¸ļ
èĥ½ä¸įèĥ½ åĨįåĬłä¸Ĭä¸Ģåı¥
è®¸ å½ĵåľ°æĶ¿åºľ
æĸĩåŃ¦ ä½ľåĵģ
æŀĹ éĹ´
éľĢè¦ģå¸®åĬ© çļĦåľ°æĸ¹
ä¾Ŀ æį®
ä¾Ŀ èµĸ
åĵªç§į åĬ¨çī©
å·® æİĴåºı
è¿Ļä¸ªéĹ®é¢ĺ çļĦçŃĶæ¡Ī
æĦŁåħ´è¶£ åĳ¢
éĻ¤ ä»¥
é£İæł¼ åĴĮçī¹çĤ¹
åĿļ éŁ§
ç¼ĵ ç¼ĵ
é»ĳ æ¡ĥ
åĪĽéĢł ä¸Ģä¸ª
ç¦ı å°¼äºļ
åķĨ åºĹ
åķĨ ä¸ļè®¡åĪĴ
åķĨ éĵºè½¬
å¼ķè¿° ä¸Ģæ®µ
å¾Īé«ĺåħ´èĥ½ ä¸ºæĤ¨æıĲä¾Ľå¸®åĬ©
çģ¯ çļĦé¢ľèī²
éħĴ ç²¾
ç¼ĸç¨ĭ è§ĦèĮĥ
åĪ¶ä½ľ æĸ¹æ³ķåĴĮ
åĪ¶ä½ľ åĩºç¾İåĳ³
æĪ¿éĹ´ éĩĮ
æĪ¿éĹ´ çļĦæĿ¡ä»¶
ä¸ĸçķĮä¸ĬæľĢé«ĺçļĦå±±å³° æĺ¯ä»Ģä¹Ī
æ¥¼ æĪ¿
çıłç©ĨæľĹçİĽå³° æĺ¯
ç¬¦åĲĪ è¦ģæ±ĤçļĦ
ç¬¦åĲĪ æĤ¨è¦ģæ±ĤçļĦ
åł ¡åºĹ
çĳ ŀ
ä¸ĥ çĤ¹
åĬ± äººå¿ĥ
è¿Ļéģĵ é¢ĺ
è¿Ļéģĵ èıľ
è¿Ļéģĵ é¤ĲçĤ¹
è¿ĻéĩĮ æĺ¯
è¿Ļæł· åı¯ä»¥
è¿Ļä¸¤ä¸ª è¯į
è¿Ļä¸¤ä¸ª åįķè¯į
åĳ¼åĲ¸ æ°§æ°Ķ
ä¸įéľĢè¦ģ åĳ¼åĲ¸æ°§æ°Ķ
åºķ éĥ¨
æĿİ çĻ½
æĿİ åįİ
åį« çĶŁ
å¹² çĩ
å¹² æĹ±
æĪĲä¸º ä¸Ģç§įåı£åı·
å¯Ĩ åº¦
å¯Į æľī
çİĭ æĺİ
çİĭ å¦ĥçļĦ
åĩºçĶŁ åľ°
åĩºçĶŁ ä¸Ģä¸ªæľĪ
ä¼ļè®® å®¤
æĬĹ çĶŁç´ł
ç«¯ åįĪ
åĪĨåĪ« æĺ¯
èµŀ è®¸å½ĵåľ°æĶ¿åºľ
æ²¹ æ°ĶåĤ¨
æ²¹ èĦĤ
æ±½ æ°´
æ±ī æľĿ
æ±ī åł¡åºĹ
éĻĪè¿° åı¥
çİ°åľ¨æĪĳæĥ³ è®©ä½ł
å¦Ĥæŀľä½łæľī åħ¶ä»ĸéĹ®é¢ĺ
Ġè¯·ä»İ æĸĩç«łä¸ŃæıĲåıĸåĩº
Ġè¯·ä»İ ä¸ĬéĿ¢çļĦ
å¿ĥæĥħ æĦīå¿«
å¿ĥæĥħ å¾ĪæĦīå¿«
æ´Ĺ æīĭ
å¼ĢæĶ¾ å¼ıéĹ®é¢ĺ
å®¢æĪ· çļĦæĭĵå±ķ
è¿ĺæľīä»Ģä¹Ī éľĢè¦ģ
ä¸»é¢ĺæĺ¯ çĪ±æĥħ
èĪį å¼ĥ
è¿Ļæĺ¯ç¬¬ ä¸Ģæ®µ
è¿Ļæĺ¯ç¬¬ ä¸īæ®µ
è¿Ļæĺ¯ç¬¬ äºĮæ®µ
çī¹å®ļ çļĦ
æ¼« å¤©
æ¼« æŃ¥
èĭ± æĸĩ
æľīè¶£çļĦ è°ľè¯Ń
æİ¥ä¸ĭ æĿ¥çļĦ
åħ¬åı¸çļĦ åĩĢèµĦäº§
åħ¬åı¸çļĦ æĪĲç«ĭ
æ·±æµ· ä¸ŃçļĦçĶŁçī©
æ·±æµ· æīĵæįŀèĪ¹
æ·±æµ· åºķéĥ¨
ç½ĳç»ľ å®īåħ¨éĹ®é¢ĺçļĦä¸īä¸ª
èĥľ åľ°
è®¡ç®Ĺæľº ç¼ĸç¨ĭ
è¿Ļæ®µæĸĩæľ¬ çļĦå¹³åĿĩåįķè¯į
åĲ¬èµ·æĿ¥å¾Ī æ£Ĵ
æĳĦæ°ıåº¦ ä¹ĭéĹ´
æĺ¯æĺŁæľŁ ä¸ī
18 5
åĤ įæĻļ
çª ģ
çª ĹæĪ·
çļĦè½¦ ä»·
ä»ħ ä»ħ
æĺ¯æĮĩ åĵªäºĽ
å®ľ äºº
ç»© æķĪ
ç»© ä¸įå¤ªå¥½
æ°ĳ äºĭæ¡Īä»¶
æĤł çĦ¶
ä¸įå¤ª å¯¹
çİ© åħ·
æľĢä½³ å½±çīĩ
éĿĴ å±±
ä¸Ĭæµ· çļĦèĬ±åįī
æįķ æįī
å½ĵæĪĳ åĲ¬åĪ°
çļĦçĲĨ çĶ±åĴĮ
å¤ļæł· æĢ§
è¯·éĹ®æľīä»Ģä¹Ī éľĢè¦ģå¸®åĬ©
æĽ´å®¹æĺĵ çĶŁçĹħ
çº· æİī
çº· çº·æİī
æģĴ æ²³æĺ¯åį°åº¦
æ±Ł æ°´
éĽª ç¢§
æµ·æ´ĭ åŀĥåľ¾
å¹³æĸ¹ æł¹
åİ»åħ¬åĽŃ è·ĳæŃ¥
åĲĪçĲĨ çļĦè§£éĩĬ
éĩįæĸ° ç»ĦæĪĲ
éĩįåĬĽ æĺ¯ä¸Ģç§į
ç»Ļå®ļçļĦæĸĩæľ¬ çĶŁæĪĲä¸Ģä¸ª
åı¯èĥ½ä¼ļ å¯¹
éĢīé¡¹ ä¸Ń
çľĭèµ·æĿ¥ å¾Ī
ç»ıæµİ çĬ¶åĨµ
æ¶ī å«Į
å®Įæķ´ åı¥åŃĲ
ç¬¬ä¸Ģä½į æĢ»ç»Ł
çİ°åľ¨è¯·ä½łå°Ĩ è¿Ļä¸ªåı¥åŃĲ
çİ°åľ¨è¯·ä½łçĶ¨ä¸Ģåı¥è¯Ŀ æııè¿°å¤ıå¤©çļĦ
å¤įæĿĤ åº¦
å½¢å¼ı æĺ¯
éĺ³åħī æĺİåª
å¡ĳæĸĻ æ¡¶
å¡ĳæĸĻ åĪ¶åĵģ
ç¾İåĽ½çĭ¬ç«ĭ æĹ¥
åĦ¿ç«¥ æ¸¸æĪı
é¡¹çĽ® å»¶
å¢ŀéķ¿ çİĩ
æŁĲä¸ª åŁİå¸Ĥ
å¾Īé«ĺåħ´èĥ½å¤Łå¸®åĪ° æĤ¨
æ²Ļæ¼ł åĲįç§°
åģ¥èº« åĻ¨æĿĲ
æĬ¥åĳĬä¸Ń æ³¨æĺİä¸İ
æĬ¥åĳĬä¸Ń æıĲåĪ°çļĦä¸»è¦ģæĬĢæľ¯
éĨī æĦı
ä»¥ä¾¿æĪĳ æĽ´å¥½åľ°
æĹħè¡Į çļĦéĹ®é¢ĺ
åŃ©åŃĲ å¼ĢæĶ¾
ä¿®æĶ¹ å»ºè®®
èİ·å¾ĹäºĨ å¥¥
æĭ¥æľī æĽ´
åģıå¥½ åĲĹ
é²¸é±¼ æĺ¯åĵºä¹³åĬ¨çī©
é²¸é±¼ åĶ¾æ¶
åŃĶéĽĢ èĪŀ
æ¬ºè¯Ī éĤ®ä»¶
æ¬ºè¯Ī çļĦåħ¬åı¸
åĭ ¤ä¿
åĭ ĩæķ
æ© Ļ
çĩ ĥ
èĸ Ħ
èľ ĺèĽ
ĠåĹ ¨
ĠåĹ ¯
æĪĳçİ°åľ¨ å°±åİ»
æĪĳæŃ£åľ¨ åģļä½ľä¸ļ
éĹ¹éĴŁ åĬŁèĥ½
å¥¥ è¿Ĳä¼ļ
å¥¶ ç²ī
çĶľ çĤ¹
é¢Ŀ å¤ĸçļĦ
æľīåħ¶ä»ĸ éľĢè¦ģ
è¿Ļç§į é£Łåĵģ
å¤©åľ° éĹ´
åŃĺ åľ¨
æĤ¨çļĦç Ĥ¹é¤Ĳ
åĵ² ä¼¦
åĨ¬ å¤©æ°Ķæ¸©
ä¸įä¸Ģ æł·
ä¸įä¸Ģ èĩ´
æĥĬ åĸľ
ç§» åĬ¨
éĹ®é¢ĺåĴĮ ä¸Ĭä¸ĭæĸĩ
å¯Ĥ å¯ŀ
åĮĨ åĮĨ
æľĢå¤ļ çļĦåģľè½¦åľº
æľĢä½İ æ°Ķæ¸©ä¸º
æĬµ æĬĹ
æ¯« åįĩçļĦæ°´
è¿Ļä¸ªæĹ¥æľŁ æĺ¯æĺŁæľŁ
è¿Ļä¸ªæĹ¥æľŁ å¯¹åºĶ
æķ°çłģ äº§åĵģ
æĥ³äºĨè§£ åĵªä¸ª
äºĽä»Ģä¹Ī åĳ¢
æ²ī åºķ
æľ¬åĳ¨ åĨħå®ĮæĪĲ
å°ĨæĿ¥ è¢Ń
æ³ķåĽ½ äºº
å¦Ĥæŀľä½ł è¿ĺæľīåħ¶ä»ĸ
éĿ¢ä¸´ çļĦæĮĳæĪĺ
çľ¼ åīį
ç©¿ è¶Ĭ
è¯¥åľ°åĮº æĺ¥
åĵªä¸ªé¢ĨåŁŁ çļĦ
åı£æĦŁ ä»İå¥½åĪ°
å¾ĹåĪ°çļĦ ç»ĵæŀľæĺ¯
æĮĩä»£ å¯¹è±¡
æĺİå¤©çļĦ æ°Ķæ¸©
æĺİå¤©çļĦ æ¸©åº¦
è¯·éĹ®æĤ¨æīĢåľ¨çļĦåŁİå¸Ĥæĺ¯åĵªéĩĮ åĳ¢
æĬĬè¿Ļä¸ª å®¹åĻ¨
ç¬¬äºĮ æ¬¡ä¸ĸçķĮå¤§æĪĺ
çĬ¬ ç§ĳåĬ¨çī©
çĸĹ åĴĮ
ä¹Łæĺ¯ åħ¨åĽ½æľĢå¤§çļĦ
åĽĽå¤§ åĲįæįķ
åĽĽå¤§ åıĳæĺİ
æīĢæľīçļĦ æŃ£åģ¶æķ°
æīĵåį° æľº
åįİä¸º åħ¬åı¸çļĦæĪĲç«ĭ
ç»Łè®¡ ä¸Ģä¸ĭ
ç»Łè®¡ æķ°æį®
é¼» æ¶ķ
Ġç»Ļå®ļä¸Ģç»Ħ éĹ®é¢ĺ
ä½łåı¯ä»¥åĳĬè¯īæĪĳä½ł æīĢåľ¨çļĦåŁİå¸ĤåĲĹ
èµĦäº§ è´ŁåĢºè¡¨
æĹ¶éĹ´åĴĮ åľ°çĤ¹
çº¢èī²åĴĮ ç»¿èī²
ç¾½ æ¯Ľ
ç¾½ ä¹ĭéĹ´åıĳçĶŁ
èĩªå·±çļĦ æ¢¦æĥ³
çĵ¶ æ±½æ°´
æķ£æĸĩ ä¸Ń
æĪĳæľĢè¿ĳæĦŁåĪ° å¾Ī
æ¼Ķè®²ç¨ ¿
æ¼Ķè®²ç¨ ¿çļĦ
è·ŁæĪĳèģĬ èģĬ
å®£ä¼ł è¯Ń
åľ¨åħ¬åĽŃéĩĮ åº¦è¿ĩ
è¡£æľį å¤ª
åĿļæĮģ ä¸įæĩ
è¿Ľè¡ĮåĪĨæŀĲåĴĮ è§£è¯»
æİ¥ä¸ĭæĿ¥ è¯·ä½ł
é»Ħèī²å°ıçĲĥ æľī
çļĦçĽ¸åħ³ åĨħå®¹
çļĦçĽ¸åħ³ è¯įæ±ĩ
æ¿Ģ åĬ±äººå¿ĥ
æİ§åĪ¶ å·¥åħ·
è·ĳæŃ¥ éŀ
åī©ä½Ļè½¦ä½į æľĢå¤ļçļĦåģľè½¦åľº
ä¸ªå°ıæľĭåıĭ åľ¨
å¤§çĨĬçĮ« çļĦåĪĨå¸
çĪ±åĽłæĸ¯åĿ¦ æĺ¯ä»Ģä¹ĪåĽ½ç±į
åĽĽèĪįäºĶåħ¥åĪ°å°ıæķ°çĤ¹åĲİ ä¸Ģä½į
EçļĦ æľĢçŁŃ
èŀ į
éº¦ åĵ²ä¼¦
ĠåĲ¬èµ·æĿ¥å¾Ī ä¸įéĶĻ
Ġå¼ķè¿°ä¸Ģåı¥ æ¿ĢåĬ±äººå¿ĥ
įçŃī çīĩåĪ»
Ľèĭ ¦
çļĦåİ» å¤Ħ
çļĦå½¢ æĢģ
çļĦåħ³ç³» æĺ¯ä»Ģä¹Ī
çļĦåºĶçĶ¨ ç¨ĭåºı
çļĦè´Ńçī© åĪĹè¡¨
æĪ´ å¸½åŃĲ
åıĤ åĬł
ä¸ĢæĶ¯ ç¬Ķ
ä¸Ģåı° æĸ°çĶµèĦĳ
æĪĳä»Ĭå¤© æĦŁè§īå¾Ī
æĪĳåĸľæ¬¢ è¿Ļä¸ª
æĪĳçĪ± ä½ł
æĪĳåıª æĺ¯
æĺ¯åľ°çĲĥ çļĦ
ä¹± æĹłæİª
ä¹Ŀ åıª
ä½łçİ°åľ¨ æĥ³
åĪĿ ä¸Ńæķ°åŃ¦
ç»´ æĬ¤
åĬŀ æ³ķ
åľ¨å®ĩå®Ļ ä¸Ń
æľīçĤ¹ çĦ¦èĻĳ
æľīä¸ī åıªå°¾å·´
è¿ĻæĶ¯ éĵħç¬Ķ
æ°¦æ°Ķ æ°ĶçĲĥ
å°Ĭ éĩį
åĴĮæľĢ èĳĹåĲįçļĦåįļçī©é¦Ĩ
ä¸Ģä¸ªç®Ģåįķ çļĦè´Ńçī©åĪĹè¡¨
ä¸Ģä¸ªçº¢èī²çļĦ æĿ¯åŃĲ
æł¸ å¿ĥè§ĤçĤ¹
çŃĸ BçļĦ
æī¹ ç¤º
æĿ¨ ç´«
æĿĥçļĦ åķĨéĵºè½¬
çīĪæľ¬ æİ§åĪ¶å·¥åħ·
çĶŁæĢģ ç³»ç»Ł
ç«¹ æŀĹ
çļĦçĸ ¾çĹħ
çļĦçĹ ĩçĬ¶
æ¯ķ ä¸ļçĶŁäºº
å¾ĪæľīæĦı æĢĿ
å¤§æĺİ å¹´éĹ´çļĦçļĩå¸Ŀ
å¤§å°ı åĨĻ
è¯Ńæ³ķ éĶĻè¯¯
èĢĲå¿ĥ åĽŀçŃĶ
æ¬£ åĸľ
éĻĮ çĶŁäºº
åº¦åģĩ èĥľåľ°
èĬ¬ èĬ³
Ġè¯·ä½łä»İ è¿Ļç¯ĩæĸĩç«łä¸Ń
çĪĨ åıĳ
å¹´è½» äºº
å¼Ģåıĳ èĢħ
éĿŀå¸¸æĦŁ äººçļĦ
èĲ§ çĳŁ
è¯¥æĢİä¹Ī åģļ
æ»ĭ åĳ³
éĥ½åĸľæ¬¢åĲĥ èĤī
æŃ£å¸¸ éĤ®ä»¶
éļıæĹ¶æĿ¥ éĹ®æĪĳ
éļıæĹ¶éĥ½åı¯ä»¥ éĹ®æĪĳåĵ¦
æł¼å¼ı å¹¶åıĳéĢģ
åĮĸåĲĪ ä»·æĢģ
æĺİå¤©æĹ©ä¸Ĭ ä¸ĥçĤ¹
äºĶç»Ŀ è¯Ĺ
åĲ¬åĲ¬ ä½łçļĦ
æİ¨æĸŃ åĩº
çĲĨæĥ³ çļĦåİ»å¤Ħ
å°±ä¸ļ æľºä¼ļ
æ¯ıåıªçĮ« æľīä¸īåıªå°¾å·´
ä½¿çĶ¨G oog
ä¸ļåĬ¡ æ¨¡å¼ı
å¾Īé«ĺåħ´æĪĳçļĦ åĪĽä½ľ
è½»æĿ¾ åľ°
çĸ« æĥħ
åĽĽåŃ£ è±Ĩ
äº§åĵģæĪĸ æľįåĬ¡
è®¾ç½® æĪĳçļĦ
å¹¿æ³Ľ çļĦé¢ĨåŁŁ
ç®Ģæ´ģ æľīåĬĽ
ä¹¦ç±į åĪĹè¡¨
å±ķè§Ī ä¼ļ
åĶ¯ æľī
åĶĲä»£ åıĳçĶŁçļĦ
å¹³åĿĩåĢ¼ åĽĽèĪįäºĶåħ¥åĪ°å°ıæķ°çĤ¹åĲİä¸Ģä½į
æĳĺ è¦ģ
æĮīä½ĵåŀĭ ä»İå¤§åĪ°å°ı
åıįåºĶ çĶŁæĪĲ
åįĩçº§ æĪ¿éĹ´çļĦæĿ¡ä»¶
åİŁå§ĭ æĸĩæľ¬
åı¤åħ¸ æĸĩåŃ¦ä½ľåĵģ
æĪĳä¼ļå°½åĬĽåĽŀçŃĶä½łçļĦ éĹ®é¢ĺ
åĪļæīį çļĦ
æľªæĿ¥äººå·¥æĻºèĥ½ åıĳå±ķçļĦä¸¤
è¿Ļæ®µè¯Ŀ çļĦåŃĹæ¯įæĢ»æķ°
åĨ°ç®± éĹ¨
æī¾åĪ°æľĢè¿ĳçļĦ åĴĸåķ¡åºĹ
çĹħæ¯Ĵ çļĦä¼łæĴŃ
æħĮ ä¹±æĹłæİª
Ġè°¢è°¢æĤ¨çļĦ æİ¨èįĲ
ä¿®é¥° åħ³ç³»
è¶ĬæĿ¥è¶Ĭ å¥½
çŃ¾ç½ ²çļĦ
çĸĳéĹ®åı¥ è¿ĺæĺ¯æĦŁåı¹åı¥
ä¼ģé¹ħæĺ¯ä¸Ģç§į é¸Ł
åĲĦç§į éĹ®é¢ĺ
åĨľåİĨ æĸ°å¹´
è½¬æį¢æĪĲ åįĥåħĭ
ç¢§ç©º å¦Ĥ
åħįè´¹ åįĩçº§æĪ¿éĹ´çļĦæĿ¡ä»¶
è¿Ļé¦ĸè¯ĹæŃĮçļĦ ä¸Ńå¿ĥæĢĿæĥ³
èĥĮæĻ¯ ä¿¡æģ¯
åŃ¤çĭ¬çļĦ èĢģäººåĿĲ
ä¼¦æķ¦ å¤§æľ¬
æĽ¿æį¢ ä¸º
çļĦçĲĨæĥ³ åº¦åģĩèĥľåľ°
æ±Łå±± å¦ĤçĶ»
è´¢ç»ı æĸ°éĹ»æĬ¥éģĵ
çĪµå£«ä¹Ĳ æĽ²
çĶµåŃĲäºĳ è¢«æĽ´å¼º
ç¾İåĽ½çĭ¬ç«ĭå®£è¨Ģ æĺ¯åľ¨
é¥®æĸĻ çļĦ
è®¨è®º äºĨäººå·¥æĻºèĥ½
çļĦç¿»è¯ĳ è½¯ä»¶
æİ¢ç´¢ æĸ°ä¸ĸçķĮ
æīĢç»ĻçļĦ èµĦæĸĻ
ä¸īè§Ĵå½¢çļĦ åĳ¨éķ¿
å²Ĺä½įçļĦ åĳĺå·¥
è®¢è´Ńä¸Ģä»½ ä¸Ńåı·
ä¸ĢçĽı å¤©èĬ±
åĪĺéĤ¦ åĴĮé¡¹
éĶ»çĤ¼ èº«ä½ĵ
17 76
NBAæĢ» åĨ³èµĽ
ry çļĦåħ¬åı¸
°åĽ½ é¦ĸéĥ½
²èħ ºäº§çĶŁçļĦ
¸åį³ å°ĨæĿ¥è¢Ń
½ĳ ç«Ļ
çħ ®
Ġç»Ļ ä»¥ä¸ĭ
ĠåĪĽå»º ä¸Ģä¸ª
ĥåĮº åŁŁ
ĭæ¯Ķè¾ĥ è¯ķéªĮ
ķåľ° éĿ¢ç§¯
ĺå®Ŀ ä¸Ĭ
çļĦå®ļ ä¹ī
çļĦåģ¥åº· åĴĮ
çļĦåİŁåĽł åĲĹ
çļĦæľĢåĲİä¸Ģä¸ªåħĥç´ł æĺ¯
çļĦä½ıå®¿ ç±»åŀĭ
æĪĳå¾Īé«ĺåħ´èĥ½ ä¸ºä½łæıĲä¾Ľå¸®åĬ©
æĪĳåŃ¦ä¼ļ äºĨè®¸å¤ļ
æĪĳæīĵç®Ĺ åİ»åħ¬åĽŃæķ£æŃ¥
åħ«æĪ Ĵ
æĺ¯æ³ °åĽ½é¦ĸéĥ½
æĺ¯æ¯ı å¹´çļĦ
æĺ¯èĭ± åĽ½
æĺ¯Ma ryçļĦåħ¬åı¸
ä¸ªå¤© æĸĩåįķ
ä¸ªæĸ° å®¢æĪ·çļĦæĭĵå±ķ
ä¸ªåĨľ åľºéĩĮ
ä¸ªçľģ ä»½
å¥½äºĭ æĪĲåıĮ
å¥½åĲĥ çļĦé¤Ĳåİħ
è¯·ç¨ įçŃīçīĩåĪ»
åľ¨åħ¬ åİĨä¸ŃçļĦ
åľ¨æ· ĺå®Ŀä¸Ĭ
åľ¨é£ŀ æľºä¸Ĭ
åľ¨æĲľ å¯»
åľ¨å¹¿ ä¸ľçľģ
æľīåĬ© äºİ
è¿Ļä»¶ è¡£æľįå¤ª
è¿Ļåĩłä¸ª åĬ¨çī©
åĴĮé¦Ļ èıĩ
åĴĮèĬĴ æŀľ
ä¸ºæ¸©æļĸ èī²è°ĥ
åı¯èĢ ķåľ°éĿ¢ç§¯
ä¸Ģä¸ªæŃ£ æĸ¹ä½ĵçļĦä½ĵ
ä¸Ģä¸ªåı¯èĥ½ çļĦåįķè¯į
ä¸Ģä¸ªå°ģéĹŃ å¼ıéĹ®é¢ĺ
ä¸ĭè½ ½
ä¸ŃåĬłåħ¥ ä¸ĢäºĽçĪµå£«
ä¸Ńæ¼Ĥ æµ®
åĩ¯çī¹ çİĭå¦ĥçļĦ
ä¸įåł ª
åı¯ä»¥åĪĨ åĪ°
äººç¾¤ å¯¹æĶ¿
äºĨæ¸¸ å®¢
æĪĲæŃ£ æ¯Ķ
éľĢè¦ģåīĬåĩı å¼ĢæĶ¯
å¸®å¸®æĪĳ åĲĹ
ä»Ģä¹Īç±»åŀĭçļĦ æķ°åŃ¦
çĶŁæĦı è¶ĬæĿ¥è¶Ĭå¥½
æľĢéĩįè¦ģ çļĦ
æľĢç¹ģ åįİçļĦè¡Ĺ
æľĢåıĹæ¬¢è¿İ çļĦä½ıå®¿ç±»åŀĭ
åĵªä»½ æĬ¥åĳĬ
åľ°åĲ¹ çĿĢ
å·¦åı ³
æĽ¼è°· æĺ¯æ³°åĽ½é¦ĸéĥ½
çļĦç¡¬ åº¦
çļĦç¾Ĭ èĤīä¸²
å¤§çīĩ ä¸Ń
æĹ¶æĶ¿ çĥŃçĤ¹æĸ°éĹ»
ä»ĸä¸Ģå¤© è¦ģåĸĿ
è¿Ļä¸ªè®¢ åįķ
æĥ³æī¾ çĤ¹äºĭæĥħ
åĽŀçŃĶçĽ¸åħ³ éĹ®é¢ĺ
çĽ²äºº æĳĦå½±å®¶
æıĲä¾Ľè¯¦ç»ĨçļĦ åĽŀçŃĶ
è¡ĮæĶ¿ å¤įè®®
å¯¹æīĢæľī åŃ©åŃĲå¼ĢæĶ¾
å¯¹éļĲç§ģ çļĦå½±åĵį
æĸ°æĬĢ èĥ½
æĸ°è¥¿ åħ°
åĸīåĴ Ļ
çİ°åľ¨æĺ¯åĩł çĤ¹
æĪĸæľ¯ è¯Ń
æĪĸæµģ æĦŁ
å°ıçĭĹ ä»Ĭå¤©æĹ©ä¸Ĭ
åĲįèĳĹ çļĦä¸»é¢ĺæĢĿæĥ³
è´¦æĪ· æľĢé«ĺçļĦæľĪä»½
å¦Ĥæŀľä»Ĭå¤© æĺ¯æĺŁæľŁä¸ī
å¦ĤæŀľæĪĳæĺ¯ ä½ł
èĬĿåĬł åĵ¥
ä»İDåĪ° EçļĦæľĢçŁŃ
åĵģç§į çļĦçĭĹ
å¸Ĥåľº èĲ¥éĶĢ
åıĸåĨ³ äºİ
åŃ¦å½± åĥıè¯ĬæĸŃ
æ¡ĮåŃĲä¸Ĭ æĶ¾
åıĳå°Ħ æĸ°
å»ºç«ĭ äºĨ
åįķä»· æľĢé«ĺ
å¿ĥçĶµ åĽ¾
å¿ĥèĦ ı
åĬłåĪ© ç¦ıå°¼äºļ
çĶµçģ¯ æ³¡
ç§ĭä¸ĩ æľ¨
æµ·åķ ¸åį³å°ĨæĿ¥è¢Ń
æ¸©åĵ¥ åįİå¸Ĥ
å¹´äº§ æĿĥçļĦåķĨéĵºè½¬
å¹´é¾ Ħ
éļıæľº éĢīæĭ©
ä¸¤ä¸ªäºº çļĦåĲįåŃĹ
è¿ĩå¹´çļĦ æĹ¥æľŁ
åĵªä¸ªè¶³çĲĥ èģĶèµĽ
åĮħç² ½åŃĲ
åı£ç¢ ĳå¥½
åİ»å¹´åĲĮ æľŁçĽ¸æ¯ĶçļĦ
æīĭå®¹æĺĵ ç¨ĭåº¦
æľĢè¿ĳä¸Ģæ¬¡ è¡ĮæĶ¿å¤įè®®
çº¢æ¥¼ æ¢¦
çº¢å®ĿçŁ³ çļĦç¡¬åº¦
è¯´å·´é»İ è¯Ŀ
åĪĽå§ĭ äºº
æ¯ıçīĩ çļĦå½¢æĢģ
æ¯ıä¸ªæľĭåıĭ åı¯ä»¥åĪĨåĪ°
æĻºæħ§ åľ¨äºİè¿ĲåĬ¨
èĤ¥çļ Ĥ
åıªç¾Ĭ åľ¨
åıªå°ıçĮª åĴĮ
ä»£çłģé£İæł¼ è§ĦèĮĥ
è¿ĺæľīåħ¶ä»ĸåı£åĳ³ çļĦèıľ
å¼ķäººåħ¥ èĥľ
åħ·ä½ĵçļĦå®ŀ ä¾ĭ
ä½łèĥ½æİ¨èįĲ ä¸Ģä¸ĭåĲĹ
çĥ¹é¥ ª
ä¸İæ°§æ°Ķ åıįåºĶçĶŁæĪĲ
åĮĹäº¬çļĦå¹³åĿĩ å·¥èµĦ
æ£ĺæīĭ çļĦéĹ®é¢ĺ
çĮ«åĴĮèĢģ é¼ł
åħĥæľĿ æĹ¶æľŁ
ç§ĳæ¯Ķåľ¨ NBAæĢ»åĨ³èµĽ
æĺ¥æļĸ èĬ±å¼Ģ
æĪĳéľĢè¦ģæĭ¿ åİ»
åĽĽæº ¢
æīĢæľīéĶĢåĶ® äººåĳĺ
ä¸¤ä¸ªåĵģçīĮ çļĦäº§åĵģ
çĶ±äºİé¢ĺçĽ® æ²¡æľī
éĢīæĭ©éĢĤå½ĵ çļĦ
åĢ¼çļĦä½įç½® æĺ¯ç¬¬
è¯·éĹ®ä½łéģĩåĪ°äºĨ ä»Ģä¹Ī
ç¾İåĽ½æľĢå¤§ åĴĮæľĢèĳĹåĲįçļĦåįļçī©é¦Ĩ
æŃ¥éª ¤
åħ¬åı¸æľĢè¿ĳä¸ļ ç»©ä¸įå¤ªå¥½
åıįå¯¹åº¦ æľĢé«ĺ
å¼łå½¢è±¡ å¤§çīĩä¸Ń
å¼łä¸īæľĢåĸľæ¬¢ çļĦé£Łçī©
é¦Ļèķ ī
è¥¿çıŃçī Ļ
å¥¹åĩºçĶŁ åľ¨å·´é»İ
å¥¹æĮĩçļĦæĺ¯ è°ģ
å¥¹åĸľæ¬¢æĸĩåŃ¦ åĴĮèīºæľ¯
ä¸ŃåĽ½åı¤ä»£ åĽĽå¤§åıĳæĺİ
ä¸ŃåĽ½åİĨåı²ä¸Ĭ ç¬¬ä¸Ģä½įçļĩå¸Ŀ
åįİæ°ıåº¦ è½¬æį¢
å®īè£ħ ä¸ĢçĽıå¤©èĬ±
èĤīéħ± åĴĮé¦Ļèıĩ
æľªæĿ¥åįģ å¤©çļĦå¤©æ°ĶæĥħåĨµ
æľªæĿ¥å·¥ä½ľ éĿ¢ä¸´çļĦæĮĳæĪĺ
æķ´æķ°è¿Ĳ ç®Ĺ
çļĦçŁĽçĽ ¾
èįīå¦ĤèĮ µ
è®¡ç®Ĺç»ĵæŀľåĽĽèĪįäºĶåħ¥åĪ°å°ıæķ°çĤ¹åĲİ ä¸¤ä½į
é¹¦é¹ ī
æĽ´åĬłçĽ´æİ¥ çļĦè¯Ńæ°Ķ
åĸĿéĽĦé»Ħ éħĴ
éļ¾ä»¥åħ¥ çľł
è¡¨æł¼å¯¼åĩºä¸ºPDF æł¼å¼ıå¹¶åıĳéĢģ
çº¢èī²è½¿è½¦ çļĦè½¦ä»·
éĻĦè¿ĳçļĦçĭĹ åĴĸåķ¡åİħ
å·´é»İåľ£æ¯į éĻ¢
å¥³çĶŁæĺ¯æĪĳçļĦ æľĭåıĭ
åľ¨äºİæ¯ıä¸ªäºº çļĦ
è®°å½ķ ä¸ĭ
æ¬¢è¿İæĿ¥åĪ° æĪĳä»¬çļĦ
ç§ĭå¤©çļĦåĩīé£İè½»è½» åľ°åĲ¹çĿĢ
çİ¯ä¿Ŀä¸įåºĶè¯¥ ä»ħä»ħ
å¥ĭæĸĹ ä¸įæŃ¢
çŁ³æ¦´ çŁ³çļĦé¢ľèī²
æ¼Ķå¥ı ä¸ŃåĬłåħ¥ä¸ĢäºĽçĪµå£«
åħ¨çĲĥæľĢå¤§çļĦ æ²Ļæ¼łåĲįç§°
éħįä¸ĬæĦıå¤§åĪ© èĤīéħ±åĴĮé¦Ļèıĩ
ç§ĳæĬĢåıĺéĿ© å¯¹éļĲç§ģçļĦå½±åĵį
èħ°æŀľ åĴĮèĬĴæŀľ
æĸ¯åį¡ æľĢä½³å½±çīĩ
æĪĲåĬŁçļĦç§ĺ è¯Ģåľ¨äºİ
æĪĲåĬŁæĴ¤ç¦» äºĨæ¸¸å®¢
æķ°åŃĹæ¡£ æ¡Īé¦Ĩ
æķ°åŃĹè´§ å¸ģ
ç¤¾äº¤åª Ĵä½ĵ
èİ·å¾ĹæĢ»åĨłåĨ Ľ
è£ħæ»¡ ä¸ĢåįĬ
çļĦçŃĶæ¡ĪåĴĮæķ°æį® æ¸ħåįķ
åķĨä¸ļè®¡åĪĴ ä¹¦
åĪ¶ä½ľæĸ¹æ³ķåĴĮ éħįæĸĻ
è¿Ļéģĵé¤ĲçĤ¹ éĢĤåĲĪ
å¹²çĩ ¥
ç«¯åįĪ èĬĤ
èµŀè®¸å½ĵåľ°æĶ¿åºľ å®ŀæĸ½
æ²¹æ°ĶåĤ¨ å±Ĥ
å¦Ĥæŀľä½łæľīåħ¶ä»ĸéĹ®é¢ĺ æĪĸèĢħéľĢè¦ģæĽ´å¤ļ
æ·±æµ·ä¸ŃçļĦçĶŁçī© çľĭèµ·æĿ¥
ä¸Ĭæµ·çļĦèĬ±åįī å±ķè§Īä¼ļ
æ¶īå«Į æ¬ºè¯ĪçļĦåħ¬åı¸
éĺ³åħīæĺİåª ļ
åĦ¿ç«¥æ¸¸æĪı åľº
é¡¹çĽ®å»¶ è¯¯
æĬ¥åĳĬä¸Ńæ³¨æĺİä¸İ åİ»å¹´åĲĮæľŁçĽ¸æ¯ĶçļĦ
èİ·å¾ĹäºĨå¥¥ æĸ¯åį¡æľĢä½³å½±çīĩ
é²¸é±¼åĶ¾æ¶ ²èħºäº§çĶŁçļĦ
åĭ¤ä¿ Ń
åĭĩæķ ¢
èľĺèĽ Ľ
åĨ¬å¤©æ°Ķæ¸© çļĦåıĺåĮĸ
æľ¬åĳ¨åĨħå®ĮæĪĲ èĩ³å°ĳ
åı£æĦŁä»İå¥½åĪ° å·®æİĴåºı
æĬĬè¿Ļä¸ªå®¹åĻ¨ è£ħæ»¡ä¸ĢåįĬ
ä¹Łæĺ¯åħ¨åĽ½æľĢå¤§çļĦ åŁİå¸Ĥ
æīĢæľīçļĦæŃ£åģ¶æķ° éĥ½
åĿļæĮģä¸įæĩ Ī
è·ĳæŃ¥éŀ ĭæ¯Ķè¾ĥè¯ķéªĮ
å¤§çĨĬçĮ«çļĦåĪĨå¸ ĥåĮºåŁŁ
åĪĿä¸Ńæķ°åŃ¦ éļ¾é¢ĺ
è¿ĻæĶ¯éĵħç¬Ķ åĨĻä¸ĭ
çŃĸBçļĦ åıįå¯¹åº¦æľĢé«ĺ
æ¯ķä¸ļçĶŁäºº æķ°æľĢå¤ļ
ä½¿çĶ¨Goog le
æĮīä½ĵåŀĭä»İå¤§åĪ°å°ı æİĴåĪĹ
æľªæĿ¥äººå·¥æĻºèĥ½åıĳå±ķçļĦä¸¤ å¤§è¶ĭåĬ¿
çĹħæ¯ĴçļĦä¼łæĴŃ æĸ¹å¼ı
åħįè´¹åįĩçº§æĪ¿éĹ´çļĦæĿ¡ä»¶ åĴĮæĸ¹å¼ı
åŃ¤çĭ¬çļĦèĢģäººåĿĲ åľ¨åħ¬åĽŃéķ¿æ¤ħä¸Ĭ
ä¼¦æķ¦å¤§æľ¬ éĴŁ
çĶµåŃĲäºĳè¢«æĽ´å¼º åľ°åĲ¸å¼ķ
è®¢è´Ńä¸Ģä»½ä¸Ńåı· æĬ«èĲ¨
åĪĺéĤ¦åĴĮé¡¹ ç¾½ä¹ĭéĹ´åıĳçĶŁ
æĪĳåŃ¦ä¼ļäºĨè®¸å¤ļ æĸ°æĬĢèĥ½
ä¸ªå¤©æĸĩåįķ ä½į
ä¸Ģä¸ªæŃ£æĸ¹ä½ĵçļĦä½ĵ ç§¯
åĩ¯çī¹çİĭå¦ĥçļĦ åĩºçĶŁåľ°
äººç¾¤å¯¹æĶ¿ çŃĸBçļĦåıįå¯¹åº¦æľĢé«ĺ
æľĢç¹ģåįİçļĦè¡Ĺ éģĵ
æĥ³æī¾çĤ¹äºĭæĥħ åģļ
å°ıçĭĹä»Ĭå¤©æĹ©ä¸Ĭ åľ¨åħ¬åĽŃéĩĮ
è´¦æĪ·æľĢé«ĺçļĦæľĪä»½ æĶ¶åħ¥
ä»İDåĪ°EçļĦæľĢçŁŃ è·¯å¾Ħ
åŃ¦å½±åĥıè¯ĬæĸŃ æĸ¹éĿ¢
åĬłåĪ©ç¦ıå°¼äºļ å·ŀ
å¹´äº§æĿĥçļĦåķĨéĵºè½¬ æīĭå®¹æĺĵç¨ĭåº¦
ç§ĳæ¯Ķåľ¨NBAæĢ»åĨ³èµĽ ä¸Ń
å®īè£ħä¸ĢçĽıå¤©èĬ± æĿ¿çģ¯
çİ¯ä¿Ŀä¸įåºĶè¯¥ä»ħä»ħ æĪĲä¸ºä¸Ģç§įåı£åı·
æ¼Ķå¥ıä¸ŃåĬłåħ¥ä¸ĢäºĽçĪµå£« çļĦåħĥç´ł
æ¶īå«Įæ¬ºè¯ĪçļĦåħ¬åı¸ æĺ¯MaryçļĦåħ¬åı¸
èİ·å¾ĹäºĨå¥¥æĸ¯åį¡æľĢä½³å½±çīĩ å¥ĸ
é²¸é±¼åĶ¾æ¶²èħºäº§çĶŁçļĦ æ²¹èĦĤ
! <|
" "
" ?
" ãĢĤ<|
% ãĢĤ<|
1 1
1 3
2 6
2 50
3 1
3 2
3 3
3 9
4 5
4 9
4 10
5 2
5 00
5 000
6 4
7 0
7 1
7 8
7 00
7 52
8 0
8 6
8 7
8 8
8 28
9 00
: :
A P
A éĹ®é¢ĺ
B æĺ¯
B å¤§
D åĴĮ
E R
H ä¹ĭéĹ´
I R
I æĿ¥
J a
J o
L u
L çļĦ
M S
N ER
O K
O o
Q AéĹ®é¢ĺ
T æģ
W o
X LçļĦ
] ï¼Į
_ ï¼Į
a æ²¡
c l
c y
d æĸĩæ¡£
e d
h n
i t
l og
n èįīèİĵ
n èıłèıľ
o s
o åĲĹ
p s
r dæĸĩæ¡£
v aæ²¡
¡ çļĦ
¡ æĹ¶
¡ èĤī
¡ æĻ´
¡ çļ®
¡ çĮ®
¡ çī¹å®ļçļĦ
¢ æ°Ķ
¢ è¡Į
¢ èī²
¢ å¼ķ
¢ è¶³çĲĥ
£ ģ
£ å®¶
£ çĤĴ
£ å¥¶ç²ī
¤ ¼
¤ å§
¤ èĤī
¤ éĨĴ
¥ ŀ
¥ æĥ
¥ æĥ³
¥ åħ¨
¥ è¯Ĩ
¥ åįı
¥ éĿ©
¥ åı¯çĪ±çļĦ
¦ »
¦ æĢ§
¦ å°½
¦ å§ĭ
¦ ä¸ľ
¦ çĳŁ
¦ åķ¼
§ éĥ
§ ä¼¤
§ ç¾Ĭ
¨ åĴĮ
¨ ç¦»
¨ éķľ
¨ éŃĶ
¨ èĬ±é¦Ļ
© º
© å½¢
© å¡
© è¿ľ
© åĨĻä¸Ģç¯ĩ
© çİ¯å¢ĥæ±¡æŁĵ
© åĽº
© æĵ¦
ª Ĺ
ª ä¸Ĭ
ª æĺİ
ª æĶ¾
ª åĲĥ
ª çİ¯
ª èĮ
ª å¿µ
ª èĩ³
ª ç§Ģ
ª æĤł
ª æĽ¾ç»ı
ª åĪĨåŃĲ
« åĪĹ
« çĽ®
« æĺŁ
« çļĦå¤©æ°ĶæĢİä¹Īæł·
« ä¼łæĴŃ
« çĳ
« åŃĲä¸Ĭ
« å©īè½¬
¬ è¯·
¬ éĹ´
¬ çī¹
® ä¸
® æłĩ
® é£ĺ
® è§Ĥ
® éģį
¯ åħĭ
¯ èĩ³
¯ åŁº
¯ åĽ°éļ¾
¯ åĲĽ
¯ çĪ±æĥħçĶµå½±
° ĩ
° åĴĮ
° åıĬ
° å¯Į
° é£İåĲ¹
° åĪ°æĪĳ
± æŃ
± åĮħ
± ç¿
± æ£
± éªĹ
± æģ¨
² ¾
² Į
² åĬ
² æĥ
² æĻļ
³ åĴĮ
³ åŃĲ
³ åĪ°
³ åħĭ
´ åŃĲ
´ æľĽ
´ åĲ«
´ åĦ¿
´ åĪ¶ä½ľ
´ æ½®
µ ä¸Ģ
µ åĴĮ
µ éĹ®é¢ĺ
µ é«ĺ
µ æĩ
µ å¾ĭ
µ æĸľ
µ ®é£ĺ
¶ æ¢
¶ æ¯į
¶ èĢģ
¶ ç¿©
· åĴĮ
· äºº
· åħ¥
· æľĪ
· æľ¯
· èĸ
¸ åľ¨
¸ ä¸Ĭ
¸ æĸ¹
¸ æµ·
¸ å¼ı
¸ åħ¥
¸ ç¤¼
¸ å¥ĸ
¸ åĩºçļĦ
¸ ä¿Ĺ
¸ ¢è¶³çĲĥ
¹ Ī
¹ èĥ½
¹ æ¶
¹ èº«
¹ éħį
¹ äººæ¬¢
¹ æłĩå¿Ĺ
º åľ¨
º çī
º çĭ¼
º èĤ²
» äº
» æ¯Ķ
» éļ¾
» çļĦæ°´
» çĤĴ
¼ æľī
¼ çĹĽ
¼ æ¥¼
¼ åĪĩ
½ ¿
½ çĶŁ
½ å¿ħ
½ åĪº
¾ æĶ¾åħ¥
¾ æļĳæ°Ķ
¾ èĸĦ
¿ ä½
¿ ç¾İ
¿ çĥ
¿ åĳ½
¿ æĹłæ³ķåĽŀçŃĶ
¿ çĬ¬
¿ æĸľ
Â ³
ç ŀ
ç ¦ģ
ç £ģ
ç °ĩ
ç µ®é£ĺ
è Ĩ
è Ĵ
è ļ
è Ł
è ²Į
è ¸¢è¶³çĲĥ
è ¹Ī
é ½¿
ð Ł
Ġ 1
Ġ 8
Ġ ä¸Ģ
Ġ éĹ®
Ġ è¿Ļ
Ġ ä¸Ģä¸ª
Ġ çĶ¨
Ġ ä¸Ĭ
Ġ å½ĵ
Ġ æıĲä¾Ľ
Ġ å°ı
Ġ éķ¿
Ġ è¿Ļç¯ĩ
Ġ è®©
Ġ åĲ¬
Ġ è½¦
Ġ è¯ķ
Ġ è¿Ļæĺ¯
Ġ ä½¿çĶ¨
Ġ å®Į
Ġ å¼ķ
Ġ æĬĬ
Ġ ä½łèĥ½
Ġ æĻºèĥ½
Ġ åĮĹäº¬
Ġ çĮ«
Ġ ç±³
Ġ åĪĨæŀĲ
Ġ æ³¨
Ġ æĺ¯çļĦ
Ġ é¤Ĳåİħ
Ġ ä¸įçĶ¨
Ġ æĮī
Ġ åħ³éĶ®è¯į
Ġ è®²
Ġ è§£åĨ³
Ġ åĪ¤æĸŃ
Ġ æ¦Ĥæĭ¬
Ġ å¯¹è¯Ŀ
Ġ æĢ»ç»ĵ
Ġ ä¸ĸçķĮä¸Ĭ
Ġ è¿Ļæ®µ
Ġ ä¸įçŁ¥éģĵ
Ġ åĨĻä¸Ģä¸ª
Ġ æ¯Ķè¾ĥ
Ġ AI
Ġ ä½łæľī
Ġ æī¾åĪ°
Ġ è¿Ļç¯ĩæĸĩç«łçļĦ
Ġ å·´é»İ
Ġ æĤ¨åı¯ä»¥
Ġ æĮīçħ§
Ġ çİĽ
Ġ ç§ĭå¤©
Ġ æ¼Ķ
Ġ ç§ĳæĬĢ
Ġ èĥ½åĳĬè¯īæĪĳ
Ġ ä»Ĭå¤©çļĦå¤©æ°Ķ
Ġ æĦŁè°¢ä½łçļĦ
Ġ æķĪ
Ġ æıĲä¾Ľä¸Ģä¸ª
Ġ æĪĳä»¬çļĦ
Ġ è¿Ļæł·
Ġ äº§çĶŁ
Ġ è®¾è®¡ä¸Ģä¸ª
Ġ ä¸įè¦ģ
Ġ è¯´æĺİ
Ġ æİĴåĪĹ
Ġ çİ°åľ¨è¯·ä½łå°Ĩ
Ġ æĺİçĻ½äºĨ
Ġ ä¸ĢæĿ¡
Ġ åı¥åŃĲG
Ġ æĪĳæĥ³çŁ¥éģĵ
Ġ çº¢èī²åĴĮ
Ġ è®¸å¤ļ
Ġ çĪ±åĽłæĸ¯åĿ¦
Ġ æĺ¯ä¸įæĺ¯
Ġ ä¸ĭåĪĹ
Ġ ç«ŀäºī
Ġ æīĭå¥Ĺ
Ġ ç¬¬ä¸Ģä¸ª
Ġ æĻļé¤Ĳ
Ġ è¯Ħä¼°
Ġ åı¤åħ¸
Ġ å¤´çĹĽ
Ġ è¯ĨåĪ«
Ġ æĥħæĦŁåĪĨç±»
Ġ èģĬå¤©æľºåĻ¨äºº
Ġ æ£ĢæŁ¥
Ġ å¾·åĽ½
Ġ æııè¿°ä¸Ģä¸ĭä½ł
Ġ åı¥åŃĲGåĴĮåı¥åŃĲH
Ġ åĪłéĻ¤
Ġ ä¸įæĺ¯çļĦ
Ġ æĬ½
Ġ é«ĺå±±
Ġ è¡¨çİ°
Ġ çĲĥåľº
Ġ æĮĩåĩº
Ġ æĺ¯åĲ¦æľīå¿ħè¦ģ
Ġ é¸Łä¼ļé£ŀ
Ġ èĢģå¸Ī
Ġ è°ĥçļ®
Ġ åĵĪåĵĪ
Ġ èĥ½å¸®æĪĳåĩº
Ġ å¼ķè¿°ä¸Ģæ®µ
Ġ è¿Ļéģĵé¢ĺ
Ġ ç¾İåĽ½çĭ¬ç«ĭæĹ¥
Ġ ç¬¬äºĮæ¬¡ä¸ĸçķĮå¤§æĪĺ
Ġ è·ŁæĪĳèģĬèģĬ
Ġ éº¦åĵ²ä¼¦
Ġ ä¸ĢæĶ¯ç¬Ķ
Ġ æī¹ç¤º
Ġ è¿ĺæľīåħ¶ä»ĸåı£åĳ³çļĦèıľ
Ġ è®°å½ķä¸ĭ
Ġ èµŀè®¸å½ĵåľ°æĶ¿åºľå®ŀæĸ½
Ġ Oo
Ġ QAéĹ®é¢ĺ
Ģ åĴĮ
Ģ ä¸ĭ
Ģ äºº
Ģ å¾Ĺ
Ģ åıĬ
Ģ å¨
Ģ å·ŀ
Ģ èıĮ
ģ ä¹ĭ
ģ å¹³
ģ åĨ³
ģ äººå¿ĥ
ģ ä¿±
Ĥ åĴĮ
Ĥ æĹ¶
Ĥ ä½ķ
Ĥ æŀĿ
Ĥ «çĽ®
ĥ åıĸ
ĥ èĮ
ĥ èĥĮ
Ħ çļĦ
Ħ ç¢§
Ħ çĤĴ
Ħ éľ²
ħ åĪ°
ħ æĦı
ħ éĩĮ
ħ éķ¿
ħ ä¸ĢäºĽ
ħ èĬ±
ħ éĹ»
ħ ä¸Ģæ¬¡
ħ è¶Ĭ
ħ èĨ
Ĩ æĺ¯
Ĩ ä¸Ń
Ĩ æĿ
Ĩ ä¸Ĭ
Ĩ åĵģ
Ĩ åĲ¬
Ĩ èĻ
ĩ åĲİ
ĩ çģ¼
Ī åĲİ
Ī è®º
Ī æĿĥçļĦ
Ī åĪĺéĤ¦
Ī ±æģ¨
ī å¾Īå¥½
ī æ´Ľ
ī åĲ¬åĪ°
ī å®³
Ĭ åĴĮ
Ĭ åŃĲ
Ĭ å¾Ħ
Ĭ âĢĿãĢĤ
Ĭ åħ°
Ĭ å°Ķ
Ĭ åįļ
ĭ å¾ĭ
ĭ éĽ¶
Į æĥ
Į æĸ°
Į èµ·æĿ¥
Į éĢģ
į <|
į åľ¨
į ä½ľ
į æł¼
į å®Ŀ
į èĮ«
İ çĦ¶
İ èĳ
İ æ´ģ
ı åĬĽ
ı åĽ¾
ı æĿ¾
ı æ·»
ı æĸĹ
ı å¹ķ
ı åĨ²
Ĳ éķ¿
Ĳ èĪ¬
Ĳ ä»¤äºº
ĳ çļĦ
ĳ èµ
ĳ ä¸Ģä¸ĭ
ĳ è¿ĩ
ĳ ..
ĳ æĥĳ
Ĵ çļĦ
Ĵ åıĳ
Ĵ éĥ½
Ĵ æľį
Ĵ åĩī
Ĵ åĵĪ
Ĵ åį±
Ĵ æĪĸæµģæĦŁ
ĵ çģ«
Ķ çļĦ
Ķ æĹ¥
Ķ çĿĢ
Ķ æĶ¾
Ķ è§Ĩ
Ķ æ²»
ķ å¸
ķ åıĺ
ķ è§ģ
ķ çĬ¯
ĸ çĶ
ĸ æģ¯
ĸ çļĦå¿«éĢŁ
ĸ ĳæĥĳ
Ĺ éķ¿
Ĺ é©¬
Ĺ ä½Ļ
Ĺ çıį
Ĺ åĮĹæŀģ
Ĺ åıĸçļĦ
ĺ çļĦ
ĺ å¾
ĺ äºĨ
ĺ åŃĲ
ĺ æŃ£
ĺ è®°
ĺ ç®¡
ĺ å°Ħ
ĺ ĬâĢĿãĢĤ
Ļ è¿°
ļ ä¸įèĥ½
ļ å¾Ĳ
ļ ä¸įåı¯
ļ æĭŁ
ļ éĩĳçīĮ
Ľ äº
Ľ å£°
Ľ èĵĿ
Ľ æīĢæľīçļĦ
Ľ åį·
ľ Ł
ľ çļĦ
ľ åĬ¨çī©
ľ è½¯
ľ æ´Ĵ
Ŀ éģĵ
Ŀ ä¸ĸ
Ŀ ç§Ģ
Ŀ çļĦäºº
Ŀ åĲĽ
ŀ å£
ŀ æĺł
ŀ çº³
Ł ä¸Ģä¸ĭ
Ł ç©º
Ł åĲİ
Ł æ¼
Ł åĪ°äºĨ
Ł ä½İ
Ł æ©
ł éģĵ
ł è´¨
ł åĹ
ł ç©ĨæľĹçİĽå³°
ł ´åĿı
Ń åĬĽ
Ń çĲĥ
Ń æĿ¯
Ń ç»ķ
Ń é¼»æ¶ķ
ä¸ ¹
ä¸ ģ
ä¸ °å¯Į
ãĢ Į
ãĢ Ĳ
ãĢ į<|
ãĢ ĳ..
çļ İæ´ģ
çļĦ åĴĮ
çļĦ åŃ
çļĦ åı¯
çļĦ ä¸į
çļĦ åº
