{"<|endoftext|>":0,"<|im_start|>":1,"<|im_end|>":2,"!":3,"\"":4,"#":5,"$":6,"%":7,"&":8,"'":9,"(":10,")":11,"*":12,"+":13,",":14,"-":15,".":16,"/":17,"0":18,"1":19,"2":20,"3":21,"4":22,"5":23,"6":24,"7":25,"8":26,"9":27,":":28,";":29,"<":30,"=":31,">":32,"?":33,"@":34,"A":35,"B":36,"C":37,"D":38,"E":39,"F":40,"G":41,"H":42,"I":43,"J":44,"K":45,"L":46,"M":47,"N":48,"O":49,"P":50,"Q":51,"R":52,"S":53,"T":54,"U":55,"V":56,"W":57,"X":58,"Y":59,"Z":60,"[":61,"\\":62,"]":63,"^":64,"_":65,"`":66,"a":67,"b":68,"c":69,"d":70,"e":71,"f":72,"g":73,"h":74,"i":75,"j":76,"k":77,"l":78,"m":79,"n":80,"o":81,"p":82,"q":83,"r":84,"s":85,"t":86,"u":87,"v":88,"w":89,"x":90,"y":91,"z":92,"{":93,"|":94,"}":95,"~":96,"¡":97,"¢":98,"£":99,"¤":100,"¥":101,"¦":102,"§":103,"¨":104,"©":105,"ª":106,"«":107,"¬":108,"®":109,"¯":110,"°":111,"±":112,"²":113,"³":114,"´":115,"µ":116,"¶":117,"·":118,"¸":119,"¹":120,"º":121,"»":122,"¼":123,"½":124,"¾":125,"¿":126,"À":127,"Á":128,"Â":129,"Ã":130,"Ä":131,"Å":132,"Æ":133,"Ç":134,"È":135,"É":136,"Ê":137,"Ë":138,"Ì":139,"Í":140,"Î":141,"Ï":142,"Ð":143,"Ñ":144,"Ò":145,"Ó":146,"Ô":147,"Õ":148,"Ö":149,"×":150,"Ø":151,"Ù":152,"Ú":153,"Û":154,"Ü":155,"Ý":156,"Þ":157,"ß":158,"à":159,"á":160,"â":161,"ã":162,"ä":163,"å":164,"æ":165,"ç":166,"è":167,"é":168,"ê":169,"ë":170,"ì":171,"í":172,"î":173,"ï":174,"ð":175,"ñ":176,"ò":177,"ó":178,"ô":179,"õ":180,"ö":181,"÷":182,"ø":183,"ù":184,"ú":185,"û":186,"ü":187,"ý":188,"þ":189,"ÿ":190,"Ā":191,"ā":192,"Ă":193,"ă":194,"Ą":195,"ą":196,"Ć":197,"ć":198,"Ĉ":199,"ĉ":200,"Ċ":201,"ċ":202,"Č":203,"č":204,"Ď":205,"ď":206,"Đ":207,"đ":208,"Ē":209,"ē":210,"Ĕ":211,"ĕ":212,"Ė":213,"ė":214,"Ę":215,"ę":216,"Ě":217,"ě":218,"Ĝ":219,"ĝ":220,"Ğ":221,"ğ":222,"Ġ":223,"ġ":224,"Ģ":225,"ģ":226,"Ĥ":227,"ĥ":228,"Ħ":229,"ħ":230,"Ĩ":231,"ĩ":232,"Ī":233,"ī":234,"Ĭ":235,"ĭ":236,"Į":237,"į":238,"İ":239,"ı":240,"Ĳ":241,"ĳ":242,"Ĵ":243,"ĵ":244,"Ķ":245,"ķ":246,"ĸ":247,"Ĺ":248,"ĺ":249,"Ļ":250,"ļ":251,"Ľ":252,"ľ":253,"Ŀ":254,"ŀ":255,"Ł":256,"ł":257,"Ń":258,"ä¸":259,"ï¼":260,"ãĢ":261,"çļ":262,"çļĦ":263,"ï¼Į":264,"ãĢĤ":265,"è¯":266,"ä»":267,"æĪ":268,"åı":269,"<|":270,"en":271,"im":272,"|>":273,"end":274,"æľ":275,"äº":276,"ä½":277,"å¤":278,"ä¸Ģ":279,"è¿":280,"æĺ":281,"æĪĳ":282,"ãĢĤ<|":283,"åħ":284,"åĲ":285,"æĺ¯":286,"ä¸ª":287,"åľ":288,"ä¹":289,"ï¼Ł":290,"éĹ":291,"ä½ł":292,"æĸ":293,"åĪ":294,"å¥":295,"çĶ":296,"å®":297,"ç»":298,"åĬ":299,"å¥½":300,"è¯·":301,"é¢":302,"å¸":303,"åľ¨":304,"éĹ®":305,"æľī":306,"è¿Ļ":307,"ä»¥":308,"æ°":309,"åĽ":310,"åĴ":311,"å¤©":312,"æĤ":313,"å°":314,"åĴĮ":315,"åŃ":316,"¦ģ":317,"è¦ģ":318,"æĤ¨":319,"ĥ½":320,"é¢ĺ":321,"ä¸º":322,"åı¯":323,"æĹ":324,"âĢ":325,"åĵ":326,"åĳ":327,"åĨ":328,"ä¸Ģä¸ª":329,"æı":330,"èĥ½":331,"ä¹Ī":332,"ä¼":333,"è®":334,"ä¸ĭ":335,"ä¸Ń":336,"æ°Ķ":337,"åĩ":338,"æł":339,"è°":340,"ãĢģ":341,"ä¸į":342,"çŃ":343,"å¾":344,"æĥ":345,"æĸĩ":346,"åı¥":347,"åı¯ä»¥":348,"å½":349,"ç§":350,"åº":351,"æī":352,"æĿ":353,"åį":354,"éľ":355,"å¹":356,"çī":357,"æĦ":358,"æŀ":359,"éľĢ":360,"äºº":361,"éĹ®é¢ĺ":362,"æıĲ":363,"è¡":364,"éĩ":365,"å¥½çļĦ":366,"è°¢":367,"äºĨ":368,"æĪĲ":369,"¦Ĥ":370,"éľĢè¦ģ":371,"å¸®":372,"å¼":373,"æķ":374,"æĢ":375,"Ģä¹Ī":376,"ä»Ģä¹Ī":377,"å¯":378,"çĶŁ":379,"åĮ":380,"è§":381,"çİ":382,"ä¾":383,"éĢ":384,"ï¼ļ":385,"åĩº":386,"åŃĲ":387,"å¦Ĥ":388,"æľĢ":389,"çĶ¨":390,"ä¼ļ":391,"éĿ":392,"ä¸Ĭ":393,"çŃĶ":394,"æĬ":395,"åĪ°":396,"äºİ":397,"åĲĹ":398,"ï¼ģ":399,"ç»Ļ":400,"æŃ":401,"ç«":402,"æį":403,"åĳĬ":404,"æ³":405,"åħ³":406,"é£":407,"âĢľ":408,"âĢĿ":409,"åĵª":410,"åİ":411,"éĤ":412,"åľ°":413,"å¿":414,"å·":415,"æĽ":416,"å¤©æ°Ķ":417,"å½ĵ":418,"æĿ¥":419,"æµ":420,"çļĦç":421,"ï¼Ł<|":422,"çī©":423,"æ¯":424,"å¾Ī":425,"çĦ":426,"å¤§":427,"æĹ¶":428,"æŀľ":429,"æ¸":430,"åĽŀ":431,"æİ":432,"è¯Ń":433,"å¤ļ":434,"æĻ":435,"èĢ":436,"ä¿":437,"è¯į":438,"ä»ĸ":439,"è¿Ļä¸ª":440,"æį®":441,"æĶ":442,"åħ¶":443,"çĦ¶":444,"ç±":445,"æķ°":446,"éĤ£":447,"æĥ³":448,"æ¬":449,"æĭ":450,"éģ":451,"è¯ī":452,"è¯Ŀ":453,"é¦":454,"åĽŀçŃĶ":455,"è¾":456,"åĪĨ":457,"è¯·éĹ®":458,"æĦŁ":459,"çİ°":460,"åĳĬè¯ī":461,"«ĺ":462,"çŁ":463,"é«ĺ":464,"äºĽ":465,"çĽ":466,"ä»¬":467,"æĥħ":468,"æıĲä¾":469,"æıĲä¾Ľ":470,"èµ":471,"åı¥åŃĲ":472,"è¡Į":473,"å¯¹":474,"æ²":475,"æĸ°":476,"åĳĬè¯īæĪĳ":477,"çĲ":478,"è½":479,"æľ¬":480,"ä½ĵ":481,"æĽ´":482,"çº":483,"æĮ":484,"å±":485,"å®ļ":486,"åĬ©":487,"èĩ":488,"åĬ¨":489,"è§£":490,"æģ":491,"çĤ":492,"ä¸Ģä¸ĭ":493,"æĸĩç«":494,"æĸĩç«ł":495,"æ±":496,"èī":497,"åŁ":498,"éĻ":499,"Ġå¥½çļĦ":500,"æĺİ":501,"è¿°":502,"è¿ĺ":503,"åĸ":504,"åĨĻ":505,"åº¦":506,"å¸®åĬ©":507,"çĶŁæĪĲ":508,"ä¸»":509,"çİ°åľ¨":510,"æĪĸ":511,"åĬĽ":512,"å°Ĩ":513,"æł¹":514,"æīĢ":515,"è°¢è°¢":516,"æ³ķ":517,"¾İ":518,"éĶ":519,"å½ĵçĦ¶":520,"ç±»":521,"æł¹æį®":522,"å®ĥ":523,"å°ı":524,"éģĵ":525,"åĲį":526,"ä½łå¥½":527,"æŁ":528,"è´":529,"å¦Ĥæŀľ":530,"éĿ¢":531,"é¦ĸ":532,"éļ":533,"åħ·":534,"çľ":535,"èĬ":536,"çļĦå¤©æ°Ķ":537,"èī²":538,"¯ĩ":539,"ç¯ĩ":540,"Ġè¯·":541,"ä½łçļĦ":542,"å¸¸":543,"åĽł":544,"è¡¨":545,"¨Ģ":546,"ç®":547,"è¨Ģ":548,"è¿ĳ":549,"æĸ¹":550,"ä»¥ä¸ĭ":551,"æĦı":552,"ä¿¡":553,"çĤ¹":554,"åģ":555,"ä»İ":556,"ä½ľ":557,"åĵģ":558,"ç§į":559,"åħ¶ä»ĸ":560,"è¶":561,"éĺ":562,"éĽ":563,"éĩĮ":564,"éĹ´":565,"å¸Ĥ":566,"æģ¯":567,"å»":568,"Ĭå¤©":569,"åıĸ":570,"åĽ½":571,"åŃ¦":572,"æĹł":573,"æıı":574,"æł·":575,"å¹¶":576,"æ¬¢":577,"æ¡":578,"ç¾İ":579,"åıĳ":580,"è¿Ľ":581,"çŃī":582,"ç©":583,"çĪ":584,"åħ¬":585,"æĸĩæľ¬":586,"é£İ":587,"çĲĥ":588,"åĸľ":589,"å»º":590,"æııè¿°":591,"ç¬":592,"çĭ":593,"İå¸Ĥ":594,"åĳ¢":595,"åįķ":596,"å¿ĥ":597,"çļĦéĹ®é¢ĺ":598,"è¯Ĺ":599,"ä¸Ģåı¥":600,"æ°´":601,"è®®":602,"æĬ¥":603,"éĤ£ä¹Ī":604,"çŁ¥":605,"åħ·ä½ĵ":606,"åĿ":607,"ä¹ĭ":608,"åĬł":609,"åŁİå¸Ĥ":610,"çĮ":611,"è¢":612,"æ´":613,"ç´":614,"åħ´":615,"çĶµ":616,"ç§ĭ":617,"éĿŀ":618,"æµ·":619,"æ¯Ķ":620,"æ¸©":621,"èĩª":622,"ä¿¡æģ¯":623,"è·":624,"èį":625,"æĪĳä¼ļ":626,"å¹´":627,"æŃĮ":628,"ä½į":629,"è¯·ä½ł":630,"å½±":631,"èµ·":632,"ä»£":633,"ä»Ĭå¤©":634,"åĲ¦":635,"åĲĮ":636,"æĹ¥":637,"å¼Ģ":638,"éĿŀå¸¸":639,"èĲ":640,"ä»¶":641,"æĺ¯ä»Ģä¹Ī":642,"é¢Ħ":643,"å¸®æĪĳ":644,"å¼ı":645,"éļı":646,"çķ":647,"éķ":648,"ä¸¤":649,"åħ¥":650,"ç»ĵ":651,"æıĲåıĸ":652,"ç»ĻæĪĳ":653,"åħ³äºİ":654,"åī":655,"è¯¥":656,"è¿ĩ":657,"æ®":658,"Ġä½łå¥½":659,"äº§":660,"ä½ķ":661,"åĵªä¸ª":662,"æ²¡":663,"å±±":664,"æ»":665,"ç¤":666,"çĿ":667,"ä½¿":668,"å¤ª":669,"æĪĳåı¯ä»¥":670,"å®¢":671,"æĢ§":672,"åĮħ":673,"æ±Ĥ":674,"ç©º":675,"å»ºè®®":676,"è¢«":677,"éķ¿":678,"åĢ":679,"ç¼":680,"Ġä¸º":681,"ä¸Ģé¦ĸ":682,"åĲİ":683,"å°ĳ":684,"åĬ¨çī©":685,"è¿ĺæľī":686,"å½ĵçĦ¶åı¯ä»¥":687,"é»":688,"åı£":689,"æľº":690,"å®¹":691,"å°½":692,"åŃĹ":693,"ä¸ŃçļĦ":694,"å¾Ĺ":695,"å¹³":696,"åİ»":697,"çĽ¸":698,"çĶŁæĪĲä¸Ģä¸ª":699,"è¿Ľè¡Į":700,"åĸľæ¬¢":701,"æ·":702,"é¸":703,"éĥ½":704,"åĲĪ":705,"è¿Ļç¯ĩ":706,"åĨį":707,"è®¡":708,"è®©":709,"æŃ£":710,"æĮĩ":711,"ä¸»é¢ĺ":712,"çĪ±":713,"éļıæĹ¶":714,"ç½":715,"èģ":716,"äºĭ":717,"ä¸ºæĤ¨":718,"æł¼":719,"åºĶ":720,"éĩį":721,"å·¥":722,"æŁ¥":723,"ç³":724,"çł":725,"æĪĳä»¬":726,"ä¹ī":727,"åĮĸ":728,"éĢļ":729,"èĢħ":730,"æĺİå¤©":731,"æĹłæ³ķ":732,"æ®µ":733,"çĿĢ":734,"¤Ĳ":735,"å¢":736,"ç¡":737,"ç¨":738,"èĪ":739,"é¤Ĳ":740,"ä¸ī":741,"ä»»":742,"çĶ±":743,"åĨħ":744,"æī¾":745,"æīĭ":746,"ä¾ĭ":747,"æľĢè¿ĳ":748,"æĶ¾":749,"ä¸Ģåı¥è¯Ŀ":750,"èı":751,"æľĪ":752,"æľĽ":753,"æĢ»":754,"ç»Ļå®ļ":755,"æĭ¬":756,"æ²¡æľī":757,"çłģ":758,"ç¡®":759,"åŀ":760,"Ġæł¹æį®":761,"äºĶ":762,"åĲ¬":763,"åºı":764,"æľĢé«ĺ":765,"æİ¨":766,"è½¦":767,"çº¢":768,"é¡":769,"ä¸ĸ":770,"è¯´":771,"è¯ķ":772,"åıĺ":773,"æĪĳæĥ³":774,"åľº":775,"åĪĽ":776,"è¿Ļæĺ¯":777,"åı¯èĥ½":778,"çī¹":779,"æĻ¯":780,"çĲĨ":781,"åĽłä¸º":782,"åįķè¯į":783,"çķĮ":784,"è¿Ļç¯ĩæĸĩç«ł":785,"ç¿":786,"æľŁ":787,"å¤Ł":788,"åĲĥ":789,"åĪ«":790,"å°±":791,"æłĩ":792,"éĢī":793,"ç»Ļåĩº":794,"æ¯ı":795,"æ¸ħ":796,"æĻº":797,"è¯·éĹ®æĤ¨":798,"çľĭ":799,"è¶£":800,"çŁ¥éģĵ":801,"ä½¿çĶ¨":802,"ç¦":803,"èĤ":804,"åı¶":805,"ä½Ĩ":806,"ä¹Ĳ":807,"ç»ı":808,"åĬ¡":809,"éĩı":810,"åĮĹ":811,"èĢĮ":812,"é«ĺåħ´":813,"æ¡Ī":814,"ä¸ĸçķĮ":815,"åķ":816,"ĮæľĽ":817,"ãĢĤâĢĿ":818,"è¯»":819,"åıª":820,"æľª":821,"ä¸ĢäºĽ":822,"æĪĳçļĦ":823,"åĪĹ":824,"ç»Ĩ":825,"å¸ĮæľĽ":826,"æĢĿ":827,"æķ°æį®":828,"çĽ®":829,"ä»£çłģ":830,"è¿ĺæľīåħ¶ä»ĸ":831,"æ¶":832,"èĻ":833,"æĸŃ":834,"å®Į":835,"æľīä»Ģä¹Ī":836,"æĤ¨çļĦ":837,"åĳ³":838,"èĥ½å¤Ł":839,"å¼ķ":840,"æĬĬ":841,"åİĨ":842,"è°¢è°¢ä½łçļĦ":843,"éĶĻ":844,"èĬ±":845,"éĽ¨":846,"åħ·ä½ĵçļĦ":847,"ç³»":848,"ç¨ĭ":849,"èĦ":850,"ä½łèĥ½":851,"å®¶":852,"åĨµ":853,"åĮº":854,"åĪĨç±»":855,"ç®Ĺ":856,"å®¢æ°Ķ":857,"æĲ":858,"çĥ":859,"è±":860,"éĥ":861,"ä¸İ":862,"ä¸ļ":863,"ä»½":864,"äº¬":865,"æĺŁ":866,"æĺ¯åĵª":867,"æĺ¯åĲ¦":868,"éĹ»":869,"è¯·åĳĬè¯īæĪĳ":870,"è¿ĻäºĽ":871,"åĨ³":872,"æĢİ":873,"å¯¼":874,"å¾Īé«ĺåħ´":875,"æİĴ":876,"å¤ļå°ĳ":877,"è½»":878,"æĽ´å¤ļ":879,"åģļ":880,"ç¬¬":881,"çĶµå½±":882,"åīį":883,"é¸Ł":884,"åŀĭ":885,"æĻºèĥ½":886,"å£":887,"æ¼":888,"æļ":889,"å¤ı":890,"æĸĻ":891,"è¯·æıĲä¾Ľ":892,"å¦Ĥä½ķ":893,"å¿«":894,"çŁŃ":895,"çİ°åľ¨è¯·ä½ł":896,"å®ĥä»¬":897,"ä¹ĭéĹ´":898,"èįĲ":899,"é¢ĦæĬ¥":900,"æİ¨èįĲ":901,"åĮĹäº¬":902,"³°":903,"å³°":904,"æ£":905,"è¯¢":906,"å¤į":907,"åħ¨":908,"ä¸ªäºº":909,"ç»Ŀ":910,"è¦ģæ±Ĥ":911,"ä¸įåĲĮ":912,"ç§°":913,"æĬĢ":914,"åħ³éĶ":915,"ä¿Ŀ":916,"è¾¾":917,"æĸ°éĹ»":918,"èĩ´":919,"å¦ĤæŀľæĤ¨":920,"èĬĤ":921,"çĭĹ":922,"è¯ĹæŃĮ":923,"çĮ«":924,"ç´¢":925,"èĲ½":926,"éĥ¨":927,"æĢİä¹Ī":928,"åħ³éĶ®":929,"çģ":930,"çĹ":931,"çĻ":932,"éħ":933,"åı·":934,"ä¸Ģç§į":935,"åħĥ":936,"åĲ«":937,"åĩł":938,"å½¢":939,"ç§ĳ":940,"æŀĲ":941,"è§ī":942,"ï¼ģ<|":943,"é£ŀ":944,"ç±³":945,"åĪĨæŀĲ":946,"æĥħåĨµ":947,"éĺ³":948,"æĪĳä¼ļå°½":949,"ç¤º":950,"æĲľ":951,"10":952,"åĻ":953,"æ¦Ĥ":954,"çĬ":955,"çĸ":956,"ä¸Ģç¯ĩ":957,"æĺ¥":958,"æĪĳéľĢè¦ģ":959,"ä¹Ł":960,"åĽĽ":961,"æ°Ķæ¸©":962,"çİ¯":963,"éĢĤ":964,"æ³¨":965,"è¾ĵ":966,"æĪĸèĢħ":967,"æīĢæľī":968,"è°¢è°¢ä½ł":969,"åĲįç§°":970,"ä¸¤ä¸ª":971,"ç»ĵæŀľ":972,"äº§åĵģ":973,"ä¹īè¯į":974,"äºĶè¨Ģ":975,"ç¦»":976,"»è¯":977,"æ¢":978,"èĭ":979,"ħ§":980,"çļĦåı¥åŃĲ":981,"åı²":982,"æľ¯":983,"äºĳ":984,"å¤©çļĦ":985,"è®¾":986,"å¹¿":987,"æĢģ":988,"åİħ":989,"æµģ":990,"æ¬¡":991,"æĭ©":992,"æīĢåľ¨":993,"çľŁ":994,"ç®Ģ":995,"ç´ł":996,"èµ·æĿ¥":997,"Ġä¸ºä»Ģä¹Ī":998,"çĶ±äºİ":999,"éĢīæĭ©":1000,"è±¡":1001,"åĻ¨":1002,"»è¯ĳ":1003,"èº":1004,"æľį":1005,"å¤ľ":1006,"ä¹¦":1007,"åĪ¤":1008,"é¢Ĩ":1009,"æľīè¶£":1010,"åĽŃ":1011,"ä¸įå®¢æ°Ķ":1012,"äººå·¥":1013,"éĩĬ":1014,"é£ĺ":1015,"é£Ł":1016,"åĵªäºĽ":1017,"å¾Īå¥½":1018,"è¯Ńè¨Ģ":1019,"è¾¹":1020,"å±ķ":1021,"çĭ¬":1022,"æıĲåıĸåĩº":1023,"æ»¡":1024,"åĢ¼":1025,"èıľ":1026,"å¯¼èĩ´":1027,"æĢİä¹Īæł·":1028,"æĲľç´¢":1029,"äººå·¥æĻºèĥ½":1030,"å¡":1031,"å§":1032,"åĶ":1033,"ç¥":1034,"çļĦä¿¡æģ¯":1035,"ãĢĤ\"":1036,"æĪ·":1037,"åıĹ":1038,"æĺĵ":1039,"åħ±":1040,"åħī":1041,"æĺ¯çļĦ":1042,"åĪ©":1043,"å®ŀ":1044,"ç»Ħ":1045,"è¯·éļıæĹ¶":1046,"åĵį":1047,"ï¼ļâĢľ":1048,"çŃĶæ¡Ī":1049,"åľ°çĲĥ":1050,"å·²":1051,"æİ¥":1052,"æĶ¹":1053,"è¯·éĹ®ä½ł":1054,"ç¾İåĽ½":1055,"åĿĩ":1056,"åĮħæĭ¬":1057,"ç¼ĸ":1058,"å¹³åĿĩ":1059,"é¤Ĳåİħ":1060,"åĨħå®¹":1061,"æľĢé«ĺçļĦ":1062,"å®ĮæĪĲ":1063,"åİĨåı²":1064,"æīĢåľ¨çļĦ":1065,"ºä¹":1066,"åĦ":1067,"æĳ":1068,"çı":1069,"çħ§":1070,"èİ":1071,"éĴ":1072,"ä¸ĩ":1073,"åı¸":1074,"åıĬ":1075,"åĪ¶":1076,"åĬŁ":1077,"ä¼ł":1078,"è®º":1079,"ä¸įçĶ¨":1080,"æŀģ":1081,"äºĨè§£":1082,"çĶ¨ä¸Ģåı¥è¯Ŀ":1083,"æŃ¥":1084,"ç«Ļ":1085,"æĻļ":1086,"è½¬":1087,"çº¦":1088,"æĮģ":1089,"æĮī":1090,"è§£çŃĶ":1091,"åŁŁ":1092,"è¡¨è¾¾":1093,"åħ¬åı¸":1094,"é»Ħ":1095,"çĽ¸åħ³":1096,"å¢ĥ":1097,"ç¿»è¯ĳ":1098,"åħ³éĶ®è¯į":1099,"çĻ½":1100,"èº«":1101,"åĦ¿":1102,"éŁ":1103,"ĠéĿŀå¸¸":1104,"è¯Ħ":1105,"åıį":1106,"åĲ¸":1107,"è¿Ļé¦ĸ":1108,"é¢ĺçĽ®":1109,"èĥ½åĲ¦":1110,"åı¥è¯Ŀ":1111,"æīĵ":1112,"åįĩ":1113,"å¸®æĤ¨":1114,"å¼ł":1115,"éĢł":1116,"åĪ°äºĨ":1117,"æŃ¤":1118,"åİŁ":1119,"åľ°åĮº":1120,"æµĭ":1121,"ä»ĸä»¬":1122,"æĶ¯":1123,"é¦Ļ":1124,"è¿ĺæĺ¯":1125,"ä¸»è¦ģ":1126,"è´Ń":1127,"æĸ¹éĿ¢":1128,"åħ¬åĽŃ":1129,"æ´»":1130,"åĵªä¸ªåŁİå¸Ĥ":1131,"åĮħåĲ«":1132,"æ·±":1133,"ç½ĳ":1134,"åºĶè¯¥":1135,"é¡¹":1136,"èĻĳ":1137,"ç»Ŀåı¥":1138,"æ¢¦":1139,"¥¿":1140,"å²":1141,"èĮ":1142,"èĳ":1143,"è¥¿":1144,"é¥":1145,"Ġä»İ":1146,"åı¤":1147,"å¤´":1148,"å¤Ħ":1149,"åħĭ":1150,"å¥¹":1151,"ä¸ºä»Ģä¹Ī":1152,"åĵ¦":1153,"åĳ½":1154,"è®²":1155,"ä¸ŃåĽ½":1156,"ä¸įèĥ½":1157,"ä¸įéĶĻ":1158,"ç§¯":1159,"æīį":1160,"æĿ¡":1161,"åįİ":1162,"éĩĳ":1163,"æķħ":1164,"èĢĥ":1165,"æĦŁè°¢":1166,"æĦŁåĪ°":1167,"è§£åĨ³":1168,"æĸĩç«łä¸Ń":1169,"éĻį":1170,"çļĦå¤©æ°ĶæĥħåĨµ":1171,"å½±åĵį":1172,"æŁ¥è¯¢":1173,"éĢļè¿ĩ":1174,"å¢ŀ":1175,"ä»»åĬ¡":1176,"æĪĳä¼ļå°½åĬĽ":1177,"äºĶè¨Ģç»Ŀåı¥":1178,"åĪ¤æĸŃ":1179,"é¢ĨåŁŁ":1180,"å§ĭ":1181,"±¼":1182,"æ¤":1183,"ç¢":1184,"èĥ":1185,"é±¼":1186,"è¯Ĩ":1187,"åıĭ":1188,"äº¤":1189,"ä¸Ģæ®µ":1190,"åĪļ":1191,"å®ī":1192,"ç»¿":1193,"ç»Ł":1194,"çīĩ":1195,"åħ³ç³»":1196,"éĤ®":1197,"å·´":1198,"æĽ²":1199,"çļĦç¾İ":1200,"æ¯į":1201,"æĶ¶":1202,"æĶ¿":1203,"è¾ĥ":1204,"å±ŀ":1205,"éĻĦ":1206,"è´¨":1207,"è¶³":1208,"éĺŁ":1209,"èĩªçĦ¶":1210,"è·Ł":1211,"åĢĻ":1212,"ç½®":1213,"ä¸īä¸ª":1214,"ä»»ä½ķ":1215,"èĤī":1216,"æľªæĿ¥":1217,"æ¦Ĥæĭ¬":1218,"çĬ¶":1219,"å·²ç»ı":1220,"³åĬ¨çī©":1221,"æ¨":1222,"ç²":1223,"é¼":1224,"ĠçĶŁæĪĲ":1225,"ĠéĤ£ä¹Ī":1226,"Ġç»Ļå®ļ":1227,"ãĢĬ":1228,"ãĢĭ":1229,"è¯¯":1230,"æĪ¿":1231,"æľĹ":1232,"å¤ĸ":1233,"è¿Ĳ":1234,"æĺ¯å¤ļå°ĳ":1235,"éĹ¨":1236,"ä½łåı¯ä»¥":1237,"å¸¦":1238,"åĵºä¹":1239,"æĦī":1240,"æķ´":1241,"ä¾¿":1242,"åĪ°çļĦ":1243,"çļĦçŁ":1244,"æ¸¸":1245,"æĻ´":1246,"èĢģ":1247,"åħ¶ä¸Ń":1248,"æĦŁè§ī":1249,"èµĦ":1250,"å¯¹è¯Ŀ":1251,"è§£éĩĬ":1252,"åĨĻä¸Ģé¦ĸ":1253,"å¸®åĬ©æĤ¨":1254,"æŁĲ":1255,"æĸ¹å¼ı":1256,"èįī":1257,"ç»ĻæĪĳä¸Ģä¸ª":1258,"å®¹æĺĵ":1259,"è®¡ç®Ĺ":1260,"çĪ±æĥħ":1261,"æĢ»ç»ĵ":1262,"åĪĽä½ľ":1263,"ä½Ĩæĺ¯":1264,"ä¸ĸçķĮä¸Ĭ":1265,"çĥŃ":1266,"å¾Īé«ĺåħ´èĥ½å¤Ł":1267,"æļĸ":1268,"è¾ĵåħ¥":1269,"å¹¿åĳĬ":1270,"æľĢé«ĺçļĦå±±":1271,"æīĢåľ¨çļĦåŁİå¸Ĥ":1272,"éŁ³":1273,"åĵºä¹³åĬ¨çī©":1274,"00":1275,"æĴ":1276,"é©":1277,"éª":1278,"é¹":1279,"ĠæĪĳ":1280,"Ġè¯·éĹ®":1281,"Ġå¤ª":1282,"ĠçĶŁæĪĲä¸Ģä¸ª":1283,"çļĦæĸĩæľ¬":1284,"æĪĺ":1285,"ä¸Ģä»½":1286,"æĺ¯ä¸Ģç§į":1287,"åĪĴ":1288,"é¢ľ":1289,"éĹ®æĪĳ":1290,"è¿Ļæ®µ":1291,"æĤ¨éľĢè¦ģ":1292,"âĢĶ":1293,"åĨ°":1294,"ä¸Ģä¸ªæĸ°":1295,"åĩı":1296,"ä¸įæĺ¯":1297,"ä¸įçŁ¥éģĵ":1298,"åºĹ":1299,"éĹ®é¢ĺéľĢè¦ģ":1300,"åĮ»":1301,"è§Ħ":1302,"æį¢":1303,"å¿µ":1304,"çī©åĵģ":1305,"æĹ¶éĹ´":1306,"è¿Ļä¸ªåı¥åŃĲ":1307,"æķ°åŃ¦":1308,"æĥħæĦŁ":1309,"èµĽ":1310,"æ²Ļ":1311,"æĽ´åĬł":1312,"åĸĿ":1313,"åĨĻä¸Ģä¸ª":1314,"éļ¾":1315,"çļĦå¤©æ°Ķé¢ĦæĬ¥":1316,"è¡¨æł¼":1317,"åģ¥":1318,"æĬ¥åĳĬ":1319,"æ¯Ķè¾ĥ":1320,"è·¯":1321,"é¢Ħæµĭ":1322,"ä¸ºæĤ¨æıĲä¾Ľ":1323,"èĪŀ":1324,"çº¢èī²":1325,"åĪĹè¡¨":1326,"å£«":1327,"æĬĢæľ¯":1328,"è¯·éļıæĹ¶åĳĬè¯īæĪĳ":1329,"éĤ®ä»¶":1330,"å±ŀäºİ":1331,"éĻĦè¿ĳ":1332,"20":1333,"AI":1334,"æº":1335,"ç¾":1336,"éĨ":1337,"ĠéĤ£":1338,"ĠåĽŀçŃĶ":1339,"Ġå¦Ĥæŀľ":1340,"Ġå¸®æĪĳ":1341,"ĭåıĭ":1342,"Ŀç¦»":1343,"ä¸ľ":1344,"çļĦåĲį":1345,"ãĢĤâĢľ":1346,"è¯¦":1347,"ä»·":1348,"æľĭåıĭ":1349,"äºĮ":1350,"ä½İ":1351,"è¿İ":1352,"è¿ľ":1353,"æĪĳå°Ĩ":1354,"åĲ§":1355,"åĲĳ":1356,"ä¹°":1357,"ä¹ł":1358,"ä½łæľī":1359,"è¯·æĤ¨":1360,"æľīåħ³":1361,"è¿Ļåı¥è¯Ŀ":1362,"ä»¥ä¾¿":1363,"åĽ¾":1364,"æĤ¨å¥½":1365,"æĹ©":1366,"æĹħ":1367,"åĳĺ":1368,"ä¼ģ":1369,"ä¼ĺ":1370,"ä¸ĭæĸĩ":1371,"åĩĨ":1372,"åĩī":1373,"è°ĥ":1374,"åį°":1375,"çīĮ":1376,"éĢģ":1377,"éĢŁ":1378,"ä¸Ĭä¸ĭæĸĩ":1379,"ç«ĭ":1380,"å·±":1381,"å½ĵåľ°":1382,"çļĦçĭ":1383,"æĥ³è¦ģ":1384,"éģĩ":1385,"çº¿":1386,"éĻ¢":1387,"åĨĻä¸Ģç¯ĩ":1388,"ç±»åŀĭ":1389,"å®ĥçļĦ":1390,"çļĦå¤©æ°ĶæĢİä¹Īæł·":1391,"æł·çļĦ":1392,"ç¬ĳ":1393,"æĬ¥éģĵ":1394,"ç§ĭé£İ":1395,"æ¸©åº¦":1396,"èĩªå·±":1397,"è·Ŀç¦»":1398,"æĹ¥æľŁ":1399,"é»İ":1400,"åı£åı·":1401,"æľºåĻ¨":1402,"èģĬå¤©":1403,"æī¾åĪ°":1404,"Ġæł¹æį®ä»¥ä¸ĭ":1405,"è¿Ļç¯ĩæĸĩç«łçļĦ":1406,"æłĩé¢ĺ":1407,"è¯·éĹ®æĤ¨éľĢè¦ģ":1408,"æĺ¯åĵªéĩĮ":1409,"æ£Ĵ":1410,"å¦ĤæŀľæĤ¨è¿ĺæľīåħ¶ä»ĸ":1411,"çĹħ":1412,"è®¾è®¡":1413,"èĳĹ":1414,"æīįèĥ½":1415,"å·´é»İ":1416,"æ¨¡":1417,"æľĢé«ĺçļĦå±±å³°":1418,"é¢ľèī²":1419,"\"<|":1420,"´åĪ«":1421,"æ¥":1422,"çĵ":1423,"èĵ":1424,"éī":1425,"éĵ":1426,"Ġå¾Īå¥½":1427,"ħè¯»":1428,"ĸåķ":1429,"ï¼Ī":1430,"ï¼ī":1431,"çļĦå¤§":1432,"çļĦå¹³åĿĩ":1433,"äº«":1434,"ä¸Ģä½į":1435,"ä¸Ģæ¬¡":1436,"åĲ¹":1437,"æĺ¯åľ¨":1438,"å¥³":1439,"å®¤":1440,"è¯·æĬĬ":1441,"åľ¨äºİ":1442,"åľ¨åĵªä¸ªåŁİå¸Ĥ":1443,"åĴĸåķ":1444,"å°Ŀ":1445,"æĤ¨åı¯ä»¥":1446,"ä¸ºä½ł":1447,"æĹ¨":1448,"ä¼¼":1449,"è®°":1450,"æłĳ":1451,"è°ģ":1452,"ä¸įä¼ļ":1453,"å¾ħ":1454,"æĿ¯":1455,"åį³":1456,"äººä»¬":1457,"å¼º":1458,"æķ£":1459,"çĶŁçļĦ":1460,"æľĢå¤§":1461,"åĪ°å°ı":1462,"å¤©æ°Ķé¢ĦæĬ¥":1463,"çļĦç¬":1464,"æ¬¾":1465,"é¦Ĩ":1466,"çĽ´":1467,"æ²³":1468,"å¸®åĬ©ä½ł":1469,"éĶĢ":1470,"éĿ¢çļĦ":1471,"åĽłæŃ¤":1472,"ä½ľä¸º":1473,"éĺħè¯»":1474,"æ¬¢è¿İ":1475,"åıĳå±ķ":1476,"åĿĲ":1477,"åħ´è¶£":1478,"ç§ĭå¤©çļĦ":1479,"ç¤¼":1480,"å¤ªéĺ³":1481,"éķ¿åº¦":1482,"åŃĹæ¯į":1483,"åĸľæ¬¢åĲĥ":1484,"è®©æĪĳ":1485,"æŃ£ç¡®":1486,"èģĶ":1487,"éĩįè¦ģ":1488,"æľĢè¿ĳçļĦ":1489,"åĲ¬èµ·æĿ¥":1490,"è¿Ļæĺ¯ä¸Ģä¸ª":1491,"åı¯èĥ½æĺ¯":1492,"ãĢĤâĢĿ<|":1493,"ç¨ĭåºı":1494,"èĦĳ":1495,"å£°":1496,"çŁŃè¯Ń":1497,"æĸ°éĹ»æĬ¥éģĵ":1498,"çģ«":1499,"åĩłä¸ª":1500,"çİ¯ä¿Ŀ":1501,"å¡«":1502,"æĳĦ":1503,"çıł":1504,"èİ·":1505,"éĴŁ":1506,"æĮīçħ§":1507,"åĲ¸å¼ķ":1508,"æķħäºĭ":1509,"æ¤į":1510,"çļĦçŁŃ":1511,"éŁ³ä¹Ĳ":1512,"è¯¦ç»Ĩ":1513,"èĵĿ":1514,"éī´åĪ«":1515,"åĴĸåķ¡":1516,"48":1517,"å¦":1518,"åĹ":1519,"æħ":1520,"èĽ":1521,"é²":1522,"Ġåı¯ä»¥":1523,"Ġè°¢è°¢":1524,"çļĩ":1525,"çļĦåĲĹ":1526,"çļĦè¯Ŀ":1527,"çļĦé¤Ĳåİħ":1528,"ä¸Ģå®ļ":1529,"ä¸Ģç»Ħ":1530,"æĪĳæľĢè¿ĳ":1531,"åħĪ":1532,"åĲ¯":1533,"å¥ĩ":1534,"å¥ĭ":1535,"ç»Ń":1536,"æ°ı":1537,"å°ģ":1538,"åŃ©":1539,"åĳ¨":1540,"å¾®":1541,"æĿ¾":1542,"æĿĲ":1543,"éľĢæ±Ĥ":1544,"è§Ĥ":1545,"çİĩ":1546,"çİĽ":1547,"æľĢåĲİ":1548,"åľ°æĸ¹":1549,"å¿Ļ":1550,"å½ĵåīį":1551,"æĿ¥çļĦ":1552,"æ¸Ĳ":1553,"è¯ŃæĢģ":1554,"ä¿®":1555,"æĦŁåıĹ":1556,"çŁ³":1557,"åĬ¨è¯ŃæĢģ":1558,"è§£è¯»":1559,"ä¸»æĹ¨":1560,"æīĢä»¥":1561,"è´¹":1562,"è´Ł":1563,"åĵģçīĮ":1564,"è¶Ĭ":1565,"çŃīçŃī":1566,"åħ¬éĩĮ":1567,"ç§ĭå¤©":1568,"æŃĮæĽ²":1569,"ä½įç½®":1570,"ä»Ĭå¤©å¤©æ°Ķ":1571,"åī©":1572,"æ»©":1573,"æĪĳåı¯ä»¥ä¸ºæĤ¨":1574,"ç©ºæ°Ķ":1575,"è¢«åĬ¨è¯ŃæĢģ":1576,"èģĬ":1577,"ç¡®å®ļ":1578,"çī¹çĤ¹":1579,"æ¶Ī":1580,"æ¼Ķ":1581,"åħ¨çĲĥ":1582,"éħį":1583,"ç§ĳæĬĢ":1584,"ç®Ģåįķ":1585,"åĬŁèĥ½":1586,"æĦīå¿«":1587,"é©¬":1588,"çļĦçĭĹ":1589,"æľºåĻ¨äºº":1590,"å°Ŀè¯ķ":1591,"¦èĻĳ":1592,"§åħĭ":1593,"«åı¶":1594,"å©":1595,"åĥ":1596,"èħ":1597,"Ġå¯¹":1598,"Ġå°Ĩ":1599,"Ġç»Ļåĩº":1600,"ĠåĨĻä¸Ģé¦ĸ":1601,"ĨæľĹ":1602,"çļĦæĺ¯":1603,"çļĦåį":1604,"çļĦå°ı":1605,"çļĦä¸»é¢ĺ":1606,"ä»¤":1607,"åı¦":1608,"åı°":1609,"æľĿ":1610,"å¤±":1611,"å¤ĩ":1612,"æĪĳä¸įçŁ¥éģĵ":1613,"æĺ¯ä¸Ģä¸ª":1614,"æĸ¯":1615,"æĸ½":1616,"ç»ª":1617,"å¸Ŀ":1618,"æ°§":1619,"åĽ¢":1620,"æĤ¦":1621,"åŃ£":1622,"åĵĪ":1623,"èĥ½åĳĬè¯īæĪĳ":1624,"èĥ½å¸®æĪĳ":1625,"æ°ĶåĢĻ":1626,"çŃ¾":1627,"å¾Ħ":1628,"åºľ":1629,"æŀ«åı¶":1630,"æıĲåĪ°çļĦ":1631,"éĩĩ":1632,"æĪĲåĬŁ":1633,"éľĢè¦ģæĪĳ":1634,"å¸®åĪ°":1635,"å¸®å¿Ļ":1636,"çĶŁåĳ½":1637,"è§Ĩ":1638,"çĶ¨äºİ":1639,"æ³¢":1640,"âĢĿãĢĤ":1641,"å·§åħĭ":1642,"å¾Īå¤ļ":1643,"çĦ¦èĻĳ":1644,"æİī":1645,"æķ°åŃĹ":1646,"éģį":1647,"è½¯":1648,"èĩ³":1649,"çĤİ":1650,"åŁº":1651,"æŁĵ":1652,"è¿ĳä¹īè¯į":1653,"æ¡ĥ":1654,"ç©ĨæľĹ":1655,"ç¬¦":1656,"çĮİ":1657,"ä½įäºİ":1658,"ä»Ĭå¤©çļĦå¤©æ°Ķ":1659,"ä»Ĭå¤©åĮĹäº¬":1660,"å¼Ģå§ĭ":1661,"èĲ¥":1662,"ç¤¾":1663,"éĥ½æĺ¯":1664,"è®¡åĪĴ":1665,"åºĶçĶ¨":1666,"æŁ¥ä¸Ģä¸ĭ":1667,"éĢļå¸¸":1668,"é¡º":1669,"è¿Ļç¯ĩæĸĩç«łä¸Ń":1670,"ç»ĨèĬĤ":1671,"æĢĿæĥ³":1672,"éĶĻè¯¯":1673,"ä½łèĥ½å¸®æĪĳ":1674,"æİĴåºı":1675,"çĹĽ":1676,"åħĥç´ł":1677,"çĸĳ":1678,"çİ¯å¢ĥ":1679,"éĢĤåĲĪ":1680,"æ³¨æĦı":1681,"è¾ĵåĩº":1682,"æľįåĬ¡":1683,"ç¥ŀ":1684,"ä¸įçĶ¨è°¢":1685,"æŀģçļĦ":1686,"ĠéĿŀå¸¸å¥½":1687,"èĢĥèĻĳ":1688,"æĦŁè°¢ä½łçļĦ":1689,"å®īåħ¨":1690,"çļĦç¾İå¥½":1691,"è·ŁæĪĳ":1692,"é¹ħ":1693,"ä¸ºæĤ¨æıĲä¾Ľå¸®åĬ©":1694,"æºĲ":1695,"æĹ©ä¸Ĭ":1696,"ä¼ģé¹ħ":1697,"èĳĹåĲį":1698,"æ¨¡åŀĭ":1699,"èİ·å¾Ĺ":1700,"æ¤įçī©":1701,"çļĩå¸Ŀ":1702,"æ°ıåº¦":1703,"çİĽå³°":1704,"åĥı":1705,"å·§åħĭåĬĽ":1706,"ç©ĨæľĹçİĽå³°":1707,"50":1708,"848":1709,"¡æŁĵ":1710,"Â·":1711,"å¨":1712,"æ½":1713,"æĵ":1714,"è£":1715,"Ġå¥½":1716,"Ġç»ĻæĪĳ":1717,"Ġèĥ½åĲ¦":1718,"çļĦæ°´":1719,"çļĦçĶµå½±":1720,"çļĦçŃĶæ¡Ī":1721,"äºī":1722,"äºĴ":1723,"ä½³":1724,"ä½Ļ":1725,"æĪĳå·²ç»ı":1726,"æĪĳå¾Īé«ĺåħ´èĥ½å¤Ł":1727,"åĲĦ":1728,"ï¼ŁâĢĿ":1729,"ä½łå¯¹":1730,"åĪĻ":1731,"å®£":1732,"å®ĩ":1733,"å®Ŀ":1734,"åľ¨åħ¬åĽŃ":1735,"æľīæĦı":1736,"ä»¥åıĬ":1737,"æĤ²":1738,"å°¼":1739,"åŃ¤":1740,"æĤ¨æĥ³è¦ģ":1741,"ä¸ºæĪĳ":1742,"ä¸ºä¸»é¢ĺ":1743,"åĨ·":1744,"åĨľ":1745,"ä¸Ģä¸ªéĹ®é¢ĺ":1746,"èĥ½ä¸įèĥ½":1747,"ä¼´":1748,"è®¢":1749,"è®¸":1750,"ä¸Ńå¿ĥ":1751,"æĸĩåŃ¦":1752,"ç§Ģ":1753,"åº·":1754,"åįģ":1755,"æŀĹ":1756,"æıĲé«ĺ":1757,"è¡£":1758,"éľĢè¦ģå¸®åĬ©":1759,"éľĢè¦ģæĽ´å¤ļ":1760,"å¼Ĥ":1761,"æķĪ":1762,"å¯»":1763,"å¯Ĵ":1764,"ä¾Ŀ":1765,"æľĢåĸľæ¬¢":1766,"éĿĻ":1767,"åĵªç§į":1768,"åĵªéĩĮ":1769,"å¿ħ":1770,"å·®":1771,"å·ŀ":1772,"çļĦçĽ":1773,"æİª":1774,"è¯Ńæ°Ķ":1775,"æĻ¨":1776,"è¿Ļä¸ªéĹ®é¢ĺ":1777,"è¾ĳ":1778,"æĦŁåħ´è¶£":1779,"æıĲä¾Ľä¸Ģä¸ª":1780,"æģ¶":1781,"æ±ĩ":1782,"æ±¡æŁĵ":1783,"éĻ¤":1784,"éĻħ":1785,"ç®¡":1786,"ç®±":1787,"ä»İèĢĮ":1788,"ä½ľçĶ¨":1789,"æł·ä¾ĭ":1790,"æ¡£":1791,"é£İæł¼":1792,"ç¬Ķ":1793,"åĿļ":1794,"ä¹ĭä¸Ģ":1795,"çĮª":1796,"æ´ģ":1797,"åħ´å¥ĭ":1798,"æ¯Ķå¦Ĥ":1799,"æ¯ĶèµĽ":1800,"æŃĮè¯į":1801,"æĪĳåı¯ä»¥å¸®æĤ¨":1802,"ç¼ĵ":1803,"ä¸Ģé¦ĸäºĶè¨Ģç»Ŀåı¥":1804,"é»ĳ":1805,"åı£åĳ³":1806,"äºĭæĥħ":1807,"äºĭä»¶":1808,"æĪĳä»¬çļĦ":1809,"æĹłæ³ķåĽŀçŃĶ":1810,"ä¾ĭåŃĲ":1811,"èıĮ":1812,"åıĺåĮĸ":1813,"åľºæĻ¯":1814,"åĪĽéĢł":1815,"æłĩè¯Ń":1816,"ç¦ı":1817,"èĤ¯":1818,"åķĨ":1819,"å¼ķè¿°":1820,"è°¢è°¢ä½łçļĦå»ºè®®":1821,"å¾Īé«ĺåħ´èĥ½":1822,"å¤ıæĹ¥":1823,"ä¹ĭéĹ´çļĦ":1824,"æ£Ģ":1825,"çģ¯":1826,"éħĴ":1827,"ç§ĳåŃ¦":1828,"çľŁçļĦ":1829,"çľŁå¥½":1830,"é£Łçī©":1831,"è¯Ńè¨Ģæ¨¡åŀĭ":1832,"ç¼ĸç¨ĭ":1833,"åĪ¶ä½ľ":1834,"ä¼łæĴ":1835,"ä¸įçĶ¨å®¢æ°Ķ":1836,"è½¬æį¢":1837,"åıįä¹īè¯į":1838,"åºĶè¯¥æĺ¯":1839,"æ¢¦æĥ³":1840,"ç¢§":1841,"æĶ¿åºľ":1842,"è´¨éĩı":1843,"æĪ¿éĹ´":1844,"ä¸ĸçķĮä¸ĬæľĢé«ĺçļĦå±±å³°":1845,"åģ¥åº·":1846,"åĩĨç¡®":1847,"éĢŁåº¦":1848,"æ¥¼":1849,"èģĶç³»":1850,"çıłç©ĨæľĹçİĽå³°":1851,"ç¬¦åĲĪ":1852,"é¡ºåºı":1853,"ä¼łæĴŃ":1854,"15":1855,"16":1856,"§ç»Ń":1857,"®åŃĲ":1858,"¹æŀľ":1859,"»è¾ĳ":1860,"¼åĲ¸":1861,"½åŃĲ":1862,"½çĦ¶":1863,"åł":1864,"æĩ":1865,"çĳ":1866,"èĶ":1867,"ĥçļĦ":1868,"ħæ»¡":1869,"Īè¿°":1870,"ĭç»":1871,"ĳè¯Ŀ":1872,"ĳæĪĺ":1873,"ĺç±³":1874,"ä¸½":1875,"ä¸ĥ":1876,"çļĦåħ·ä½ĵ":1877,"çļĦå»ºè®®":1878,"çļĦåĨħå®¹":1879,"ä»ĭç»":1880,"åıĪ":1881,"äº®":1882,"ä¸Ģå¹´":1883,"ä¸Ģèµ·":1884,"ä¸ĢæŃ¥":1885,"ä¸Ģå¼ł":1886,"æĺ¨":1887,"æĪĳæľī":1888,"åħį":1889,"æĺ¯ä¸Ģ":1890,"æĺ¯åħ³äºİ":1891,"æĺ¯æĺŁ":1892,"ä¸ªæķ°":1893,"ä½łä¼ļ":1894,"åĪ»":1895,"å®Ļ":1896,"ç»ķ":1897,"ç»ľ":1898,"ç»§ç»Ń":1899,"åĬ±":1900,"å¥½äºĨ":1901,"éĹ®åı¥":1902,"æľīä»»ä½ķ":1903,"è¿Ļæľ¬":1904,"è¿Ļéģĵ":1905,"è¿ĻéĩĮ":1906,"è¿Ļæł·":1907,"è¿Ļä¸¤ä¸ª":1908,"æĤ¨çļĦéĹ®é¢ĺ":1909,"åĳ¼åĲ¸":1910,"ä¸Ģä¸ªäºº":1911,"è®¿":1912,"ä¸Ńæĸĩ":1913,"ä¸įéľĢè¦ģ":1914,"å¾·":1915,"ç§ĺ":1916,"åºķ":1917,"æĿİ":1918,"åį¡":1919,"åį«":1920,"åįĹ":1921,"å¹²":1922,"æĦ¿":1923,"æŀĦ":1924,"äººç±»":1925,"æıĲéĹ®":1926,"æıĲåĩº":1927,"è¡Ĺ":1928,"æĪĲä¸º":1929,"å¯Ĩ":1930,"å¯Į":1931,"çĶŁæ´»":1932,"çİĭ":1933,"éĢ»è¾ĳ":1934,"åĩºçĶŁ":1935,"åĩºçİ°":1936,"ä¼ļè®®":1937,"æĬĹ":1938,"ç«¯":1939,"âĢĿãĢĤ<|":1940,"åİĺç±³":1941,"åľ°çĤ¹":1942,"æµª":1943,"å¤ļäºĳ":1944,"è¯įæ±ĩ":1945,"ç±į":1946,"éĤ£è¯·ä½ł":1947,"æĭ¥":1948,"æĭ¿":1949,"æĭĤ":1950,"æĭī":1951,"æĭĶ":1952,"åĽŀçŃĶæĤ¨çļĦéĹ®é¢ĺ":1953,"åĪĨåĪ«":1954,"èµŀ":1955,"è¡Įä¸º":1956,"æ²¹":1957,"åĳĬè¯īæĪĳä½ł":1958,"æĽ´åħ·ä½ĵçļĦ":1959,"æĮĳæĪĺ":1960,"æ±½":1961,"æ±ī":1962,"èī¯":1963,"éĻĪè¿°":1964,"åĸĦ":1965,"çİ°åľ¨è¯·":1966,"çİ°åľ¨æĪĳæĥ³":1967,"åĬĽéĩı":1968,"ç±»åĪ«":1969,"å¦Ĥæŀľä½łæľī":1970,"éĿ¢ç§¯":1971,"åħ·æľī":1972,"èī²çļĦ":1973,"Ġè¯·ä»İ":1974,"ä»¥ä¸ĭåı¥åŃĲ":1975,"åģĩ":1976,"åģı":1977,"åģľ":1978,"ç§įç±»":1979,"åħ¶ä»ĸéĹ®é¢ĺ":1980,"å¹¶ä¸":1981,"æ¡¶":1982,"ç¾İåĳ³":1983,"çĭ®åŃĲ":1984,"å¿ĥæĥħ":1985,"çŁ¥è¯Ĩ":1986,"æ´Ĺ":1987,"æ´Ľ":1988,"çĶµèĦĳ":1989,"åĲĮä¹īè¯į":1990,"å¼ĢæĶ¾":1991,"äº§çĶŁ":1992,"å®¢æĪ·":1993,"è¿ĺæľīä»Ģä¹Ī":1994,"è¿Ľè¡ĮåĪĨæŀĲ":1995,"éĥ½åı¯ä»¥":1996,"æŃ£åľ¨":1997,"ä¸»é¢ĺæĺ¯":1998,"éĩįå¤į":1999,"æŁ¥æī¾":2000,"ç³ķ":2001,"æĪĳä»¬åı¯ä»¥":2002,"èĪį":2003,"ä¾ĭå¦Ĥ":2004,"æĢ»æĺ¯":2005,"ç»Ļå®ļçļĦ":2006,"è¯ķè¯ķ":2007,"è¿Ļæĺ¯ç¬¬":2008,"çī¹å®ļ":2009,"åķĬ":2010,"ç»ĨèıĮ":2011,"ä»£çłģæł·ä¾ĭ":2012,"èĻ½çĦ¶":2013,"åĳ³éģĵ":2014,"èĦī":2015,"è½»è½»":2016,"é¸Łç±»":2017,"æ¼«":2018,"èĲ½åı¶":2019,"å½¢çļĦ":2020,"åĲįç§°åĴĮ":2021,"èĭ±":2022,"èĭ¹æŀľ":2023,"çĶ±äºİæ²¡æľī":2024,"æľīè¶£çļĦ":2025,"çĭ¬ç«ĭ":2026,"æ»¡è¶³":2027,"ç¥Ŀ":2028,"åħ±æľī":2029,"æİ¥ä¸ĭ":2030,"éĴĪ":2031,"åħ¬åı¸çļĦ":2032,"é»Ħèī²":2033,"è¯Ħè®º":2034,"è¿Ļé¦ĸè¯ĹæŃĮ":2035,"è´Ńçī©":2036,"æ´»åĬ¨":2037,"æ·±æµ·":2038,"ç½ĳç»ľ":2039,"èĮĥ":2040,"æĿ¡ä»¶":2041,"è§£åĨ³éĹ®é¢ĺ":2042,"æĸĩç«łä¸ŃæıĲåıĸåĩº":2043,"å¢ŀåĬł":2044,"èĥĮ":2045,"èĥľ":2046,"è¿ĲåĬ¨":2047,"è®¡ç®Ĺæľº":2048,"æīĢåľ¨çļĦåŁİå¸Ĥæĺ¯åĵªéĩĮ":2049,"éĹ®æĪĳåĵ¦":2050,"è¿Ļæ®µæĸĩæľ¬":2051,"âĢĶâĢĶ":2052,"ä¸Ģä¸ªæĸ°äº§åĵģ":2053,"åĩıå°ĳ":2054,"éĨĴ":2055,"çļĦåĲįåŃĹ":2056,"è®¾è®¡ä¸Ģä¸ª":2057,"å®¤åĨħ":2058,"çļĦç¬ĳè¯Ŀ":2059,"åĲ¬èµ·æĿ¥å¾Ī":2060,"æĳĦæ°ıåº¦":2061,"è¯¦ç»ĨçļĦ":2062,"èĽĭ":2063,"é²¸":2064,"è½¯ä»¶":2065,"å®ĩå®Ļ":2066,"åŃ¤çĭ¬":2067,"çļĦçĽ¸":2068,"èĤ¯å®ļ":2069,"ä»ĭç»į":2070,"æĺ¯æĺŁæľŁ":2071,"18":2072,"µå£«":2073,"ºè¯":2074,"½æķ°":2075,"¾çĹħ":2076,"¿çļĦ":2077,"âĦ":2078,"åĤ":2079,"æ¹":2080,"æ¿":2081,"çª":2082,"çĨ":2083,"é¾":2084,"éŃ":2085,"Ġ\"":2086,"Ġåľ¨":2087,"Ġè¿Ļä¸ª":2088,"ĩçĬ¶":2089,"īçŁ":2090,"ĬæĸŃ":2091,"ĲĨ":2092,"ĳæĸĻ":2093,"ĶéĽ":2094,"ľè¯Ń":2095,"ä¸´":2096,"ä¸¾":2097,"çļĦæĹ¶":2098,"çļĦè½¦":2099,"çļĦè¯ĹæŃĮ":2100,"çļĦè·Ŀç¦»":2101,"çļĦé£Łçī©":2102,"è¯ĬæĸŃ":2103,"ä»ħ":2104,"æĪı":2105,"æľ¨":2106,"ä½ı":2107,"ä¸Ģéĥ¨":2108,"ä¸Ģéģį":2109,"è¿½":2110,"è¿ŀ":2111,"æĺł":2112,"æĪĳå¾Ī":2113,"åħ°":2114,"æĺ¯æĮĩ":2115,"æĺ¯çıłç©ĨæľĹçİĽå³°":2116,"ä¹İ":2117,"ä½łéľĢè¦ģ":2118,"åĪĩ":2119,"çĶ»":2120,"å®¿":2121,"å®ľ":2122,"ç»©":2123,"åĬ¿":2124,"åľ¨è¿Ļä¸ª":2125,"åľ¨æ°´":2126,"åľ¨åĮ»":2127,"åľ¨åĵªéĩĮ":2128,"æľīåĵªäºĽ":2129,"æ°¸":2130,"æ°ĳ":2131,"æ°Ľ":2132,"åĽ´":2133,"æĤł":2134,"å°¾":2135,"åŃĶéĽ":2136,"åĵ¥":2137,"åĵĩ":2138,"ä¸Ģä¸ªåı¥åŃĲ":2139,"ä¼¤":2140,"ä¼¦":2141,"ä¼Ĺ":2142,"åĩ½æķ°":2143,"è°ľè¯Ń":2144,"ä¸įè¦ģ":2145,"ä¸įå¤ª":2146,"å¾Ģ":2147,"å¾ĭ":2148,"æĸĩæ¡£":2149,"å½©":2150,"å½Ĵ":2151,"æī¬":2152,"æĿĤ":2153,"æĿīçŁ":2154,"åįĥ":2155,"åįĬ":2156,"åįı":2157,"äººçļĦ":2158,"äºĨä»Ģä¹Ī":2159,"å¸®ä½ł":2160,"è§ģ":2161,"è§Ĵ":2162,"çİ©":2163,"éĢĶ":2164,"åĩºéĹ¨":2165,"æľĢä½³":2166,"çĶ¨æĪ·":2167,"éĿ©":2168,"éĿĴ":2169,"ä¸Ĭæµ·":2170,"æĬ¤":2171,"åĪ°å¤§":2172,"ï¼ģ\"<|":2173,"ç»Ļä½ł":2174,"ç«¥":2175,"æįķ":2176,"æ³Ľ":2177,"âĢĿï¼Į":2178,"åľ°åĽ¾":2179,"æĽ¿":2180,"å½ĵæĪĳ":2181,"æµ®":2182,"æµİ":2183,"çļĦçĲĨ":2184,"çī©ä½ĵ":2185,"æİ§":2186,"å¤ļæł·":2187,"è¯įè¯Ń":2188,"æ¬ºè¯":2189,"åĽŀçŃĶéĹ®é¢ĺ":2190,"åĪĨæĪĲ":2191,"è¯·éĹ®æľīä»Ģä¹Ī":2192,"æĥħç»ª":2193,"æıĲä¾Ľåħ·ä½ĵçļĦ":2194,"è¡ĮçļĦ":2195,"æ²»":2196,"æĽ´å®¹æĺĵ":2197,"çº³":2198,"çº·":2199,"æģĴ":2200,"çĤĴ":2201,"ä¸Ģä¸ĭåĲĹ":2202,"ä¸Ģä¸ĭæĺİå¤©":2203,"æ±Ł":2204,"èīº":2205,"æĺİçĻ½":2206,"çĶŁæĪĲä¸Ģé¦ĸ":2207,"æ³ķåĴĮ":2208,"å®ĥæĺ¯":2209,"å°ıçĲĥ":2210,"å°ıåĪ°å¤§":2211,"æŁ³":2212,"è´¢":2213,"éļĲ":2214,"çľģ":2215,"Ġè¯·å¸®æĪĳ":2216,"Ġè¯·æıĲåıĸ":2217,"åĽłç´ł":2218,"ä»¥ä¸ĭæĸĩæľ¬":2219,"ä»İå°ıåĪ°å¤§":2220,"ä½ľåĵģ":2221,"éĽª":2222,"éĽħ":2223,"åĽ½éĻħ":2224,"åŃ¦ä¼ļ":2225,"åŃ¦ä¹ł":2226,"ç¾İæĻ¯":2227,"åıĳçİ°":2228,"è¿Ľä¸ĢæŃ¥":2229,"çĪ½":2230,"çĪµå£«":2231,"æııè¿°ä¸Ģä¸ĭ":2232,"çļĦéĹ®é¢ĺåĲĹ":2233,"éĤ£ä¹Īè¯·ä½ł":2234,"åĬłä¸Ĭ":2235,"åĬłåħ¥":2236,"æ´ĭ":2237,"çĶµåŃĲ":2238,"æµ·æĭĶ":2239,"æµ·æ´ĭ":2240,"æ¸©æļĸ":2241,"èĩªçĶ±":2242,"è·ĳ":2243,"å¹´çļĦ":2244,"å¼Ģå¿ĥ":2245,"æ²¡éĹ®é¢ĺ":2246,"ç©ºæł¼":2247,"å°½åĬĽ":2248,"å¹³æĸ¹":2249,"åİ»åħ¬åĽŃ":2250,"é¸£":2251,"åĲĪçĲĨ":2252,"åĨįç»ĻæĪĳä¸Ģä¸ª":2253,"è®©ä½ł":2254,"è®©äºº":2255,"éĩįæĸ°":2256,"éĩįåĬĽ":2257,"èĪ¬":2258,"æīĭè¡¨":2259,"æīĭæľº":2260,"ç»Ļå®ļçļĦæĸĩæľ¬":2261,"åĲ¬åĪ°":2262,"è½¦åľº":2263,"è¯´æĺİ":2264,"åı¯èĥ½ä¼ļ":2265,"å°±æĺ¯":2266,"æłĩçŃ¾":2267,"éĢīé¡¹":2268,"æ¯ıå¤©":2269,"æ¸ħåįķ":2270,"æ¸ħæĻ¨":2271,"çľĭèµ·æĿ¥":2272,"ç»ıæµİ":2273,"æľªçŁ¥":2274,"ä¸ĢäºĽåħ³äºİ":2275,"å¸ĮæľĽæĤ¨":2276,"æĢĿèĢĥ":2277,"ä»£çłģçļĦ":2278,"æ¶ī":2279,"å®Įæķ´":2280,"è°¢è°¢ä½łçļĦåĽŀçŃĶ":2281,"ç³»ç»Ł":2282,"æİĴåĪĹ":2283,"ç¬¬ä¸Ģä½į":2284,"åīįè¡Į":2285,"é¸ŁåĦ¿":2286,"æ¼ł":2287,"æļĹ":2288,"å¤ıå¤©":2289,"å¤ıå¤©çļĦ":2290,"è¯·æıĲä¾ĽæĽ´å¤ļ":2291,"çİ°åľ¨è¯·ä½łå°Ĩ":2292,"çİ°åľ¨è¯·ä½łçĶ¨ä¸Ģåı¥è¯Ŀ":2293,"è¯¢éĹ®":2294,"å¤įæĿĤ":2295,"ä¸įåĲĮçļĦ":2296,"ä¿ĿæĮģ":2297,"éĥ¨åĪĨ":2298,"å½¢å¼ı":2299,"è§īå¾Ĺ":2300,"éĺ³åħī":2301,"100":2302,"æ¦Ĥå¿µ":2303,"æ°Ķæ¸©ä¸º":2304,"æ³¨éĩĬ":2305,"é£Łåĵģ":2306,"å¡ĳæĸĻ":2307,"ç»ĦæĪĲ":2308,"ç¾İåĽ½çĭ¬ç«ĭ":2309,"åİĨåı²äºĭä»¶":2310,"çıį":2311,"èİĵ":2312,"è¡¨è¾¾äºĨ":2313,"ç¿»è¯ĳæĪĲ":2314,"èº«ä½ĵ":2315,"åĦ¿ç«¥":2316,"æīĵå¼Ģ":2317,"åİŁåĽł":2318,"ç½ĳç«Ļ":2319,"é¡¹çĽ®":2320,"å²Ľ":2321,"é¥®":2322,"è®²ä¸Ģä¸ª":2323,"ç§¯æŀģçļĦ":2324,"æĦŁåĪ°éĿŀå¸¸":2325,"éĻįéĽ¨":2326,"å¢ŀéķ¿":2327,"åĪļåĪļ":2328,"è¶³çĲĥ":2329,"é¼ł":2330,"å¸¦æĿ¥çļĦ":2331,"æĻ´æľĹ":2332,"æŁĲä¸ª":2333,"æŁĲäºĽ":2334,"èįīèİĵ":2335,"å¾Īé«ĺåħ´èĥ½å¤Łå¸®åĪ°":2336,"è§ĦèĮĥ":2337,"æ²Ļæ»©":2338,"æ²Ļæ¼ł":2339,"åģ¥èº«":2340,"æĬ¥åĳĬä¸Ń":2341,"éĨī":2342,"ä¸ľè¥¿":2343,"çļĦåĲįè¨Ģ":2344,"ä»¥ä¾¿æĪĳ":2345,"æĹħè¡Į":2346,"ä¼ĺç§Ģ":2347,"ç±»åŀĭçļĦ":2348,"æ£ĴäºĨ":2349,"éĵģ":2350,"ä¸ºä½łæıĲä¾Ľ":2351,"æľĢå¤§çļĦ":2352,"åŃĹæ¯įé¡ºåºı":2353,"å¡«åĨĻ":2354,"æĮīçħ§åŃĹæ¯įé¡ºåºı":2355,"èĵĿèī²":2356,"åĴĸåķ¡åºĹ":2357,"åĲ¯åıĳ":2358,"åŃ©åŃĲ":2359,"æĿĲæĸĻ":2360,"ä¿®æĶ¹":2361,"è´ŁéĿ¢":2362,"ä»Ĭå¤©å¤©æ°ĶçľŁå¥½":2363,"åī©ä½Ļ":2364,"åĽ¢éĺŁ":2365,"èĲ¥éĶĢ":2366,"èİ·å¾ĹäºĨ":2367,"å¼ķè¿°ä¸Ģåı¥":2368,"çľŁçļĦå¾Ī":2369,"èĶ¬":2370,"æĺ¨å¤©":2371,"è¿Ļæľ¬ä¹¦":2372,"æĭ¥æľī":2373,"åģıå¥½":2374,"åģľè½¦åľº":2375,"å¹¶ä¸Ķ":2376,"æ´ĽæĿīçŁ":2377,"éĴĪå¯¹":2378,"é²¸é±¼":2379,"âĦĥ":2380,"çĨĬ":2381,"åŃĶéĽĢ":2382,"æ¬ºè¯Ī":2383,"æĺİçĻ½äºĨ":2384,"æ´ĽæĿīçŁ¶":2385,"12":2386,"19":2387,"21":2388,"23":2389,"30":2390,"8848":2391,"¡è§ī":2392,"¥åľ":2393,"«èĲ":2394,"²çļĦ":2395,"¹ģ":2396,"¹éĴŁ":2397,"½çº¦":2398,"åª":2399,"åĭ":2400,"æ©":2401,"çĩ":2402,"ç¹ģ":2403,"èĸ":2404,"èľ":2405,"èĿ":2406,"Ġä½ł":2407,"ĠâĢľ":2408,"ĠæıĲåıĸ":2409,"ĠåĹ":2410,"Ġè§£è¯»":2411,"Ġåĵĩ":2412,"ĥåľ":2413,"ĩæ·":2414,"ĭåĬ¿":2415,"Į«":2416,"ĵè¯Ń":2417,"ĵåĬ±":2418,"Ĺä½į":2419,"ļçī©":2420,"ï¼Ľ":2421,"çļĦä½ĵ":2422,"çļĦæĦı":2423,"çļĦåĬ¨çī©":2424,"çļĦåįķè¯į":2425,"çļĦåħ¬åı¸":2426,"çļĦä¸»è¦ģ":2427,"çļĦé¢ĨåŁŁ":2428,"çļĦä¸īä¸ª":2429,"çļĦé¢ľèī²":2430,"çļĦéĩįè¦ģ":2431,"çļĦåľ°æĸ¹":2432,"çļĦåĵģçīĮ":2433,"çļĦåıĺåĮĸ":2434,"ï¼ĮâĢľ":2435,"ä»ĺ":2436,"åı¹":2437,"äºļ":2438,"ä¸Ģå¤©":2439,"ä¸Ģæľ¬":2440,"ä¸Ģåľº":2441,"ä¸Ģåıª":2442,"ä¸ĢæĿ¡":2443,"ä¸Ģæ¬¾":2444,"ä¸ĢçĽ´":2445,"ä¸Ģåħ±æľī":2446,"ä¸ĢèĪ¬":2447,"è¿ª":2448,"è¿Ķ":2449,"æĪĳæĺ¯":2450,"æĪĳçİ°åľ¨":2451,"æĪĳéļıæĹ¶":2452,"æĪĳæĹłæ³ķ":2453,"æĪĳæŃ£åľ¨":2454,"åħ¸":2455,"åħħæ»¡":2456,"æĺ¯è°ģ":2457,"ä¸ªå°ı":2458,"éĹ¹éĴŁ":2459,"ä½łèģĬå¤©":2460,"å¥¥":2461,"å¥¶":2462,"å¥Ĺ":2463,"çĶ·":2464,"çĶľ":2465,"å®Ī":2466,"ç»ĥ":2467,"å¥½åľ°":2468,"é¢Ŀ":2469,"å¸Ī":2470,"åľ¨çº¿":2471,"æľīçĶ¨":2472,"æľīå¤ļ":2473,"æľīäºĽ":2474,"æľīåħ¶ä»ĸ":2475,"è¿Ļç§į":2476,"è¿Ļéĥ¨":2477,"åĽ°":2478,"å¤©åľ°":2479,"å¤©ç©º":2480,"å°Ķ":2481,"åĴĮåı¥åŃĲ":2482,"åĴĮçī¹çĤ¹":2483,"åŃĺ":2484,"æĤ¨çļĦç":2485,"æĤ¨æīĢåľ¨çļĦåŁİå¸Ĥ":2486,"åĵ²":2487,"åĨ¬":2488,"èĥ½åĬĽ":2489,"è®¨":2490,"ä¸ĭéĽ¨":2491,"ä¸ŃæĢ§":2492,"æ°ĶçĲĥ":2493,"è°±":2494,"è°·":2495,"è°ĵè¯Ń":2496,"ä¸įä¸Ģ":2497,"ä¸įä¸Ģå®ļ":2498,"çŃĳ":2499,"å¾ģ":2500,"å¾Ĳ":2501,"æĥĬ":2502,"ç§»":2503,"ç§ģ":2504,"åº§":2505,"åºĵ":2506,"åį´":2507,"åįĪ":2508,"åįī":2509,"æŀĿ":2510,"äººå¿ĥ":2511,"éĹ®é¢ĺåĴĮ":2512,"éľĢè¦ģæıĲä¾Ľ":2513,"éľĢè¦ģåħ¶ä»ĸ":2514,"æķĻ":2515,"ä»Ģä¹Īæł·çļĦ":2516,"å¯Ĥ":2517,"çĶŁäºº":2518,"åĮĨ":2519,"åĩºæĿ¥":2520,"å¦ĤæŃ¤":2521,"æľĢå¤ļ":2522,"æľĢæĸ°":2523,"æľĢä½İ":2524,"ä¸ĬéĿ¢çļĦ":2525,"æĬµ":2526,"æĬ«èĲ":2527,"ï¼ģâĢĿ":2528,"ç»ĻæĤ¨":2529,"æ³¥åľ":2530,"æĿ¥åĪ°":2531,"æĿ¥æııè¿°":2532,"æµĵ":2533,"çļĦç¿":2534,"çļĦçĮ«":2535,"æ¯«":2536,"æ¯Ĵ":2537,"æ¯Ľ":2538,"å¤§åľ°":2539,"å¤§æµ·":2540,"å¤§åĪ©":2541,"å¤§çĨĬ":2542,"æĹ¶æľŁ":2543,"æİ¢":2544,"è¿Ļä¸ªæĹ¥æľŁ":2545,"è¿Ļä¸ªçŁŃè¯Ń":2546,"çĦ¶åĲİ":2547,"æķ°çĤ¹":2548,"æķ°çłģ":2549,"éĤ£è¯·éĹ®":2550,"æĥ³äºĨè§£":2551,"åĽŀçŃĶä½łçļĦ":2552,"è¾Ĩ":2553,"äºĽä»Ģä¹Ī":2554,"åı¥åŃĲG":2555,"æ²ī":2556,"æ²Ł":2557,"æľ¬åĳ¨":2558,"æĽ´å¥½åľ°":2559,"çº½çº¦":2560,"æĮ¥":2561,"å±Ĥ":2562,"åĬ¨çļĦ":2563,"éĻª":2564,"éĻĲ":2565,"åĨĻä¸ĭ":2566,"çİ°åľ¨è¯·æĬĬ":2567,"å°ĨæĿ¥":2568,"å°Ĩåħ¶":2569,"æīĢç»Ļ":2570,"æ³ķåĽ½":2571,"æł¹æį®è¡¨æł¼":2572,"åĲįåŃĹ":2573,"å¦Ĥæŀľä½ł":2574,"éĿ¢ä¸´":2575,"é¦ĸéĥ½":2576,"çľ¼":2577,"Ġè¯·åĽŀçŃĶ":2578,"åĽłæĸ¯":2579,"ä¿¡å¿µ":2580,"è¶ĭåĬ¿":2581,"éĽ¶":2582,"éĽ¾":2583,"åıĳéĢģ":2584,"çŃīå¾ħ":2585,"çŃīåĽłç´ł":2586,"ç©¿":2587,"é£İåĲ¹":2588,"é£İæĭĤ":2589,"åĸľæĤ¦":2590,"å»ºçŃĳ":2591,"çļĦéĹ®é¢ĺæĪĸèĢħ":2592,"è¯Ĺåı¥":2593,"æ°´æŀľ":2594,"åĿ¦":2595,"åĿĹ":2596,"çĮľ":2597,"ç§ĭæĹ¥":2598,"ç§ĭåı¶":2599,"æµ·æ»©":2600,"èį«":2601,"å¼ıçļĦ":2602,"å¼ıéĹ®é¢ĺ":2603,"çķħ":2604,"åħ¥åĪ°å°ı":2605,"ç»ĵæŀĦ":2606,"åī§":2607,"è¯¥åľ°åĮº":2608,"è¿ĩåİ»":2609,"åĵªä¸ªé¢ĨåŁŁ":2610,"çĿ¡è§ī":2611,"ç¼ºä¹":2612,"Ġä¸ºä¸Ģä¸ªæĸ°äº§åĵģ":2613,"åı£æĦŁ":2614,"å¾ĹåĪ°çļĦ":2615,"å¹³éĿĻ":2616,"è¿Ľè¡ĮåĪĨç±»":2617,"è¿Ľè¡Įéī´åĪ«":2618,"æ·»":2619,"æ·ĩæ·":2620,"åĨįåĬłä¸Ĭ":2621,"æĮĩä»£":2622,"æĮĩç¤º":2623,"æĮĩçļĦæĺ¯":2624,"æĮĩä»¤":2625,"ä¸»é¢ĺçļĦ":2626,"çĪ±çļĦ":2627,"çĪ±åĽłæĸ¯":2628,"äºĭçī©":2629,"æł¼è¨Ģ":2630,"æĺİå¤©çļĦ":2631,"èĪª":2632,"èĪ¹":2633,"ä¸īè§Ĵ":2634,"åŀĥåľ":2635,"äºĶåħ¥åĪ°å°ı":2636,"æľĢé«ĺå³°":2637,"è½¦ä½į":2638,"é¡¿":2639,"åıĺå¾Ĺ":2640,"æĪĳæĥ³çŁ¥éģĵ":2641,"æĻ¯çĤ¹":2642,"æĻ¯è±¡":2643,"çĲĨè§£":2644,"æľŁå¾ħ":2645,"ç»Ļåĩºåħ·ä½ĵçļĦ":2646,"æ¯ıä¸ªäºº":2647,"è¯·éĹ®æĤ¨æīĢåľ¨çļĦåŁİå¸Ĥæĺ¯åĵªéĩĮ":2648,"çľĭåĪ°":2649,"çŁ¥éģĵæĤ¨":2650,"ä¹ĲæĦı":2651,"åĮĹæŀģ":2652,"æ¡Īä»¶":2653,"åıªçĮ«":2654,"æĪĳçļĦå»ºè®®":2655,"å¸ĮæľĽæĪĳçļĦå»ºè®®":2656,"æ¶¦":2657,"æĬĬè¿Ļä¸ª":2658,"è°¢è°¢ä½łçļĦæİ¨èįĲ":2659,"èĬ±å¼Ģ":2660,"èĬ±åįī":2661,"ä½łèĥ½åĳĬè¯īæĪĳ":2662,"åĪĨç±»ä¸º":2663,"ä¸İä¹ĭ":2664,"æĺ¯åĵªåº§":2665,"è¿ĻäºĽçĶµå½±":2666,"ç¬¬äºĮ":2667,"æĻºèĥ½æīĭè¡¨":2668,"å¿«éĢŁ":2669,"çİ°åľ¨è¯·ä½łçĶ¨":2670,"è¦ģæ±ĤçļĦ":2671,"å½¢è±¡":2672,"æĪĳä¼ļå°½å¿«":2673,"çĬ¬":2674,"çĸĹ":2675,"ä¹Łæĺ¯":2676,"åĽĽå¤§":2677,"åĽĽèĪį":2678,"æ°Ķæ¸©åľ¨":2679,"æīĢæľīçļĦ":2680,"ä¸¤ä¸ªåįķè¯į":2681,"äºĶè¨Ģè¯Ĺ":2682,"æµģæ°´":2683,"å¤ľæĻļ":2684,"é£ĺèĲ½":2685,"æĲľç´¢ä¸Ģä¸ĭ":2686,"åĶ®":2687,"ç¥¨":2688,"ãĢĤ\"<|":2689,"å®ŀæĸ½":2690,"è¯·éļıæĹ¶èģĶç³»":2691,"æĶ¹æĪĲ":2692,"ç¼ĸåĨĻä¸Ģä¸ª":2693,"çº¦ä¸º":2694,"çĽ¸åħ³çļĦ":2695,"æīĵç®Ĺ":2696,"æīĵåį°":2697,"åįĩçļĦæ°´":2698,"è´Ńä¹°":2699,"æĸ¹éĿ¢çļĦ":2700,"å²Ĺä½į":2701,"é¥Ń":2702,"åı¤ä»£":2703,"å¤ĦçĲĨ":2704,"è®²ç¨":2705,"åįİä¸º":2706,"å¢ŀå¼º":2707,"åĪ¤æĸŃé¢ĺ":2708,"ç»Łè®¡":2709,"æĶ¶åħ¥":2710,"çĬ¶åĨµ":2711,"ç²®":2712,"ç²ī":2713,"é¼»":2714,"é¼ĵåĬ±":2715,"ĠçĶŁæĪĲä¸Ģé¦ĸ":2716,"Ġç»Ļå®ļä¸Ģç»Ħ":2717,"ãĢĭï¼Į":2718,"ä½łåı¯ä»¥åĳĬè¯īæĪĳä½ł":2719,"æ¸¸æĪı":2720,"èµĦäº§":2721,"éªĮ":2722,"Ġå¤ªå¥½äºĨ":2723,"åĨ°æ·ĩæ·":2724,"æĹ¶éĹ´åĴĮ":2725,"è·¯å¾Ħ":2726,"çº¢èī²çļĦ":2727,"çº¢èī²åĴĮ":2728,"åĪĹè¡¨ä¸ŃçļĦ":2729,"ç¾½":2730,"æĪĳå°Ĩå°½åĬĽ":2731,"åį°åº¦":2732,"å½ĵåľ°æĶ¿åºľ":2733,"éģĩåĪ°äºĨ":2734,"ç¬ĳè¯Ŀ":2735,"èĩªå·±çļĦ":2736,"å¦ĤæŀľæĤ¨è¿ĺæľīåħ¶ä»ĸéĹ®é¢ĺ":2737,"çĵ¶":2738,"çĵľ":2739,"äº«åıĹ":2740,"å¥³åŃ©":2741,"åľ¨äºİè¿ĲåĬ¨":2742,"æķ£æĸĩ":2743,"çļĦç¬¬":2744,"çĽ´æİ¥":2745,"éķ¿åº¦ä¸º":2746,"çģ«è½¦":2747,"çļĦçŁŃè¯Ń":2748,"æĪĳæľĢè¿ĳæĦŁåĪ°":2749,"æ¼Ķè®²ç¨":2750,"Ġç»Ļåĩºä¸Ģä¸ª":2751,"ä»¤äºº":2752,"æ°§æ°Ķ":2753,"å¸®å¿ĻçļĦåĲĹ":2754,"çĤİçĥŃ":2755,"åŁºäºİ":2756,"çĮİçī©":2757,"ç¤¾ä¼ļ":2758,"è·ŁæĪĳèģĬ":2759,"å¨ģ":2760,"å®£ä¼ł":2761,"åľ¨åħ¬åĽŃéĩĮ":2762,"æľīæĦıä¹ī":2763,"æĤ²ä¼¤":2764,"è®¢è´Ń":2765,"è®¸å¤ļ":2766,"è¡£æľį":2767,"æķĪçİĩ":2768,"å¿ħè¦ģ":2769,"æİªæĸ½":2770,"ç®¡çĲĨ":2771,"åĿļæĮģ":2772,"æ£ĢæŁ¥ä¸Ģä¸ĭ":2773,"åį«æĺŁ":2774,"æĦ¿æĦı":2775,"åİĺç±³éķ¿":2776,"æĽ´åħ·ä½ĵçļĦä¿¡æģ¯":2777,"æ±½è½¦":2778,"ç±»åĪ«æłĩçŃ¾":2779,"è¿Ľè¡ĮåĪĨæŀĲåĴĮ":2780,"æ»¡è¶³æĤ¨çļĦ":2781,"æİ¥ä¸ĭæĿ¥":2782,"é»Ħèī²å°ıçĲĥ":2783,"èĽĭç³ķ":2784,"çļĦçĽ¸åħ³":2785,"æ¿Ģ":2786,"æĪĳå¾Īä¹ĲæĦı":2787,"å½Ĵçº³":2788,"æİ§åĪ¶":2789,"è·ĳæŃ¥":2790,"å²Ľä¸Ĭ":2791,"æĮīçħ§åŃĹæ¯įé¡ºåºıæİĴåºı":2792,"åĲ¯åıĳæĢ§":2793,"è´ŁéĿ¢å½±åĵį":2794,"åī©ä½Ļè½¦ä½į":2795,"èĶ¬èıľ":2796,"ļçī©é¦Ĩ":2797,"ä¸ªå°ıæľĭåıĭ":2798,"è¿Ļéĥ¨çĶµå½±":2799,"æĬ«èĲ¨":2800,"æ³¥åľŁ":2801,"å¤§çĨĬçĮ«":2802,"æķ°çĤ¹åĲİ":2803,"é£İæĭĤéĿ¢":2804,"ç¼ºä¹ı":2805,"çĪ±åĽłæĸ¯åĿ¦":2806,"åŀĥåľ¾":2807,"äºĶåħ¥åĪ°å°ıæķ°çĤ¹åĲİ":2808,"åĽĽèĪįäºĶåħ¥åĪ°å°ıæķ°çĤ¹åĲİ":2809,"åĨ°æ·ĩæ·ĭ":2810,"14":2811,"25":2812,"EçļĦ":2813,"og":2814,"¦æ°Ķ":2815,"¨ĭ":2816,"¨è¯¢":2817,"©çĮİ":2818,"³åĹ":2819,"·åĲĪ":2820,"º¦":2821,"»çĤ":2822,"»å±±":2823,"¾ç¤º":2824,"Â°":2825,"èķ":2826,"èĹ":2827,"èŀ":2828,"éº¦":2829,"Ġ-":2830,"Ġå¾Ī":2831,"ĠåĨĻ":2832,"Ġæııè¿°":2833,"Ġå¦Ĥä½ķ":2834,"Ġè°¢è°¢ä½ł":2835,"Ġè¿Ļé¦ĸ":2836,"Ġè§£éĩĬ":2837,"Ġéī´åĪ«":2838,"Ġèĥ½ä¸įèĥ½":2839,"ĠåĪĽéĢł":2840,"ĠåĲ¬èµ·æĿ¥å¾Ī":2841,"Ġå¼ķè¿°ä¸Ģåı¥":2842,"ģæľĪ":2843,"ħä¸Ĭ":2844,"Īæľ¬":2845,"Ĭåĩı":2846,"įçŃī":2847,"Ĳå¿ĥ":2848,"Ĳä»£":2849,"ĳæģ¯":2850,"ĵå±ķ":2851,"Ķç»Ĩ":2852,"ĺéĤ":2853,"ļç¤¼":2854,"Ľèĭ":2855,"Ŀåį":2856,"ŀäºī":2857,"łèıľ":2858,"Ńç¤º":2859,"çļ®":2860,"çļĦä¸Ģ":2861,"çļĦä¸Ģä¸ª":2862,"çļĦä¸ĭ":2863,"çļĦäºº":2864,"çļĦåĽŀçŃĶ":2865,"çļĦæĸĩç«ł":2866,"çļĦæııè¿°":2867,"çļĦæĺ¯ä»Ģä¹Ī":2868,"çļĦåİ»":2869,"çļĦå½¢":2870,"çļĦäº§åĵģ":2871,"çļĦå½±åĵį":2872,"çļĦåħ³ç³»":2873,"çļĦè§£éĩĬ":2874,"çļĦæĸ¹å¼ı":2875,"çļĦæłĩé¢ĺ":2876,"çļĦåıĳå±ķ":2877,"çļĦä½įç½®":2878,"çļĦè¢«åĬ¨è¯ŃæĢģ":2879,"çļĦçī¹çĤ¹":2880,"çļĦåºĶçĶ¨":2881,"çļĦè¯Ńæ°Ķ":2882,"çļĦä½ľçĶ¨":2883,"çļĦäºĭæĥħ":2884,"çļĦä¾ĭåŃĲ":2885,"çļĦè´¨éĩı":2886,"çļĦç§ĺ":2887,"çļĦè¯įæ±ĩ":2888,"çļĦè´Ńçī©":2889,"çļĦæ´»åĬ¨":2890,"ä»°":2891,"ä»Ĭ":2892,"ä»Ķç»Ĩ":2893,"æĪ´":2894,"åı«":2895,"åıĤ":2896,"åıĮ":2897,"æľµ":2898,"ä¸ĢçĽ":2899,"ä¸ĢåĲį":2900,"ä¸Ģå®¶":2901,"ä¸Ģè¾¹":2902,"ä¸ĢæĶ¯":2903,"ä¸Ģåı°":2904,"æĺ¾ç¤º":2905,"æĪĳåľ¨":2906,"æĪĳèĥ½":2907,"æĪĳä»Ĭå¤©":2908,"æĪĳåĸľæ¬¢":2909,"æĪĳçĪ±":2910,"æĪĳåıª":2911,"æĪĳè§£çŃĶ":2912,"æĪĳå¸®æĤ¨":2913,"æĪĳçļĦçĭĹ":2914,"æĪĳåıĳçİ°":2915,"æĪĳåĪļåĪļ":2916,"åħ»":2917,"æĺ¯ä»İ":2918,"æĺ¯æĪĳçļĦ":2919,"æĺ¯åľ°çĲĥ":2920,"æĺ¯ç¾İåĽ½":2921,"æĺ¯åĵºä¹³åĬ¨çī©":2922,"æĺ¯ä¸įæĺ¯":2923,"æĺ¯ç§¯æŀģçļĦ":2924,"ä¸ªæľĭåıĭ":2925,"ä¸ªå·ŀ":2926,"ä¸ªèĭ¹æŀľ":2927,"ä¹¡":2928,"ä¹±":2929,"ä¹ĺ":2930,"ä¹Ŀ":2931,"éĹ²":2932,"éĹŃ":2933,"ä½łæĥ³":2934,"ä½łçİ°åľ¨":2935,"ä½łä»İ":2936,"ä½łæľīä»Ģä¹Ī":2937,"ä½łè§īå¾Ĺ":2938,"æĸĹ":2939,"æĸľ":2940,"åĪĿ":2941,"åĪĺéĤ":2942,"å¥ı":2943,"å¥ĸ":2944,"å®³":2945,"å®ĺ":2946,"ç»´":2947,"ç»ĩ":2948,"åĬ£":2949,"åĬŀ":2950,"è¯·å°Ĩ":2951,"è¯·åĨį":2952,"é¢ĳ":2953,"å¸ķ":2954,"åľ¨è¿Ļ":2955,"åľ¨äºĨ":2956,"åľ¨ä¸Ģèµ·":2957,"åľ¨å®ĩå®Ļ":2958,"éĹ®çŃĶ":2959,"æľīéľĢè¦ģ":2960,"æľīå¸®åĬ©":2961,"æľīçĤ¹":2962,"æľīä¸ī":2963,"æľīæ²¡æľī":2964,"æľīåı¯èĥ½":2965,"æľīå¤ļå°ĳ":2966,"æľīå¾Īå¤ļ":2967,"æľīå¿ħè¦ģ":2968,"è¿Ļå®¶":2969,"è¿ĻæĶ¯":2970,"æ°¦æ°Ķ":2971,"åĴ¨è¯¢":2972,"åĴ³åĹ":2973,"å°Ħ":2974,"å°Ĭ":2975,"åĴĮæĪĳ":2976,"åĴĮéĹ®é¢ĺ":2977,"åĴĮæľĢ":2978,"åĴĮåħ¶ä»ĸ":2979,"åĴĮä½łèģĬå¤©":2980,"è¦ģåĸĿ":2981,"æĤ¨æľīä»Ģä¹Ī":2982,"é¢ĺåĲĹ":2983,"åı¯æĮģ":2984,"âĢ¦":2985,"ä¸Ģä¸ªç®Ģåįķ":2986,"ä¸Ģä¸ªåħĥç´ł":2987,"ä¸Ģä¸ªçº¢èī²çļĦ":2988,"æıŃç¤º":2989,"ä¼°":2990,"ä¼ĳæģ¯":2991,"è®¤":2992,"ä¸ĭéĿ¢":2993,"ä¸ĭåĪĹ":2994,"ä¸ĭéĻį":2995,"ä¸ĭéĿ¢çļĦ":2996,"ä¸ŃéĢī":2997,"æ°Ķè±¡":2998,"æł¡":2999,"æł¸":3000,"è°Ĳ":3001,"ä¸įè¿ĩ":3002,"ä¸įåºĶè¯¥":3003,"ä¸įèī¯":3004,"çŃĸ":3005,"æĥ¯":3006,"æĥľ":3007,"æĸĩæĺİ":3008,"æĸĩåŃĹ":3009,"æĸĩåĮĸ":3010,"åı¯ä»¥çĶ¨":3011,"åı¯ä»¥å¸®åĬ©":3012,"åı¯ä»¥æıĲé«ĺ":3013,"åı¯ä»¥ç»§ç»Ń":3014,"å½ķ":3015,"åºŃ":3016,"æī¹":3017,"æĿ¨":3018,"æĿĥçļĦ":3019,"åį±":3020,"åį·":3021,"å¹½":3022,"å¹ķ":3023,"çīĪæľ¬":3024,"äººæ¬¢":3025,"äººåĳĺ":3026,"æıĲç¤º":3027,"éĩİ":3028,"å¥½çļĦé¤Ĳåİħ":3029,"äºĨè¿Ļ":3030,"æĪĲè¯Ń":3031,"æĪĲæľ¬":3032,"å¼ĥ":3033,"æķ¦":3034,"ä»Ģä¹Īæĺ¯":3035,"çĶŁçī©":3036,"çĶŁæĢģ":3037,"è§Ī":3038,"åŃĲçļĦ":3039,"åŃĲä¸Ĭ":3040,"å¦Ĥæ°´":3041,"å¦ĤçĶ»":3042,"çĶ¨åį¡":3043,"çĶ¨éĢĶ":3044,"ä¼ļæľī":3045,"ä¼ļé£ŀ":3046,"ä¼ļå¯¼èĩ´":3047,"ä¸ĬéĶ":3048,"ä¸Ĭåįĩ":3049,"åĪ°å¤ªéĺ³":3050,"æŃ¢":3051,"ç«¹":3052,"ç«ŀäºī":3053,"åİĭ":3054,"å¤©æ°Ķå¦Ĥä½ķ":3055,"æĿ¥è¶Ĭ":3056,"çļĦçĸ":3057,"çļĦçĹ":3058,"çļĦç¨ĭ":3059,"çī©ç§į":3060,"æ¯ķ":3061,"å¾ĪæľīæĦı":3062,"å¤§æĺİ":3063,"å¤§å°ı":3064,"å¤§çº¦":3065,"å¤§æĪĺ":3066,"æĹ¶åĮº":3067,"æĹ¶åĢĻ":3068,"æĹ¶åĪ»":3069,"åĽŀå¤į":3070,"è¯Ńæ³ķ":3071,"è¯Ńå¢ĥ":3072,"å¤ļç§į":3073,"èĢĲå¿ĥ":3074,"ä»ĸäºº":3075,"è¿Ļä¸ªäºº":3076,"è¿Ļä¸ªä»»åĬ¡":3077,"è¿Ļä¸ªçī©åĵģ":3078,"åħ¶å®ĥ":3079,"æķ°éĩı":3080,"éĤ£ä¸ª":3081,"æĥ³ä¸Ģä¸ª":3082,"æ¬£":3083,"æĭĵå±ķ":3084,"åĪĨå¸":3085,"åĪĨäº«":3086,"æĦŁåı¹":3087,"åĳĬè¯īä½ł":3088,"æĥħèĬĤ":3089,"æĥħå¢ĥ":3090,"è¡Įé©":3091,"å¯¹è±¡":3092,"æĸ°æĸĩæľ¬":3093,"ä½ĵåŀĭ":3094,"çº§":3095,"æĮº":3096,"æĸĩç«łä¸ŃçļĦ":3097,"éĻĮ":3098,"æĺİæľĪ":3099,"è¿ĺåī©":3100,"åĨĻä¸Ģåı¥è¯Ŀ":3101,"åº¦è¿ĩ":3102,"åº¦åģĩ":3103,"çİ°åľ¨ç»ĻæĪĳ":3104,"æ³ķè§Ħ":3105,"æ³ķéĻ¢":3106,"éĶ»çĤ":3107,"å°ıæĹ¶":3108,"å°ıè¯´":3109,"åĲįè¨Ģ":3110,"è´§":3111,"å¦Ĥæŀľè¿ĺæľīåħ¶ä»ĸ":3112,"çľł":3113,"èĬ¬":3114,"èĬ³":3115,"èĬĴ":3116,"Ġè¯·çĶ¨":3117,"Ġè¯·åĳĬè¯īæĪĳ":3118,"Ġè¯·ç»ĻæĪĳ":3119,"Ġè¯·ä¸ºæĪĳ":3120,"Ġè¯·ä½łä»İ":3121,"æĸ¹åĲĳ":3122,"æĸ¹æ³ķåĴĮ":3123,"ä»¥ä¸ĭéĹ®é¢ĺ":3124,"ä»¥ä¸ĭä¸īä¸ª":3125,"æĦıä¹ī":3126,"æĦıå¤§åĪ©":3127,"ä¿¡çĶ¨åį¡":3128,"ä½ľèĢħ":3129,"åħ¶ä»ĸçļĦ":3130,"å»¶":3131,"åĽ½ç±į":3132,"åŃ¦æł¡":3133,"æĹłéĻĲ":3134,"å¹¶æĢ»ç»ĵ":3135,"å¹¶è¾ĵåĩº":3136,"ç¾İä¸½":3137,"åıĳçĶŁçļĦ":3138,"åıĳæĮ¥":3139,"è¿Ľåı£":3140,"çĪĨ":3141,"åħ¬äº¤":3142,"é£İæĻ¯":3143,"é£İè½»è½»":3144,"çĲĥéĺŁ":3145,"åĸľçĪ±":3146,"åĸľé©¬":3147,"è¯Ĺè¯į":3148,"éĤ£ä¹ĪæĪĳ":3149,"éĤ£ä¹Īè¿Ļä¸ª":3150,"åĿı":3151,"ä¹ĭåĲİ":3152,"çĮ®":3153,"è¢ĭ":3154,"è¢Ń":3155,"æ´Ĵ":3156,"ç´«":3157,"æµ·æĬ¥":3158,"æµ·æµª":3159,"æ¯Ķåľ¨":3160,"æ¯Ķä¾ĭ":3161,"èĩªæĪĳ":3162,"èĩªåĬ¨":3163,"è·³":3164,"èį£":3165,"æĪĳä¼ļåľ¨":3166,"æĪĳä¼ļèĢĥèĻĳ":3167,"å¹´è½»":3168,"èµ·ä¹ī":3169,"åĲĮæĹ¶":3170,"å¼Ģåıĳ":3171,"å¼ĢåĲ¯":3172,"éĿŀå¸¸æĦŁ":3173,"èĲ§":3174,"èĲĿåį":3175,"æĺ¯ä»Ģä¹Īæł·çļĦ":3176,"é¢Ħç®Ĺ":3177,"éļıçĿĢ":3178,"éķľ":3179,"æıĲåıĸä¸Ģä¸ĭ":3180,"ç»ĻæĪĳæİ¨èįĲ":3181,"ç»ĻæĪĳä¸¾":3182,"åīĬåĩı":3183,"è¯¥åı¥åŃĲ":3184,"è¯¥æĢİä¹Ī":3185,"è¿ĩç¨ĭ":3186,"æ®Ĭ":3187,"äº§çĶŁçļĦ":3188,"å±±èĦī":3189,"æ»ĭ":3190,"æ»ĳ":3191,"æ»ļ":3192,"æĪĳåı¯ä»¥åĽŀçŃĶ":3193,"æĪĳåı¯ä»¥å¸®åĬ©æĤ¨":3194,"æĪĳåı¯ä»¥å°Ŀè¯ķ":3195,"æĪĳåı¯ä»¥åĳĬè¯īä½ł":3196,"å®¢æľį":3197,"æĢ§åĴĮ":3198,"å»ºè®®åĲĹ":3199,"éķ¿æ¤":3200,"ç¼º":3201,"Ġä¸ºä»¥ä¸ĭ":3202,"åİ»æī¾":3203,"çĽ¸åºĶ":3204,"çĶŁæĪĲä¸Ģä¸ªåı¥åŃĲ":3205,"æ·¡":3206,"æ··åĲĪ":3207,"éĥ½åĸľæ¬¢åĲĥ":3208,"åĲĪéĢĤ":3209,"è®©æĪĳä»¬":3210,"æŃ£éĿ¢":3211,"æŃ£å¸¸":3212,"ä¸»é¢ĺæĺ¯ä»Ģä¹Ī":3213,"éļıæĹ¶åı¯ä»¥":3214,"éļıæĹ¶æĿ¥":3215,"éļıæĹ¶åĳĬè¯īæĪĳ":3216,"éļıæĹ¶éĥ½åı¯ä»¥":3217,"æł¼å¼ı":3218,"å·¥åħ·":3219,"å·¥ä½ľ":3220,"å·¥èµĦ":3221,"åĮĸä¸º":3222,"åĮĸåĲĪ":3223,"éĢļçŁ¥":3224,"æĺİå¤©çļĦå¤©æ°Ķ":3225,"æĺİå¤©çļĦå¤©æ°ĶæĥħåĨµ":3226,"æĺİå¤©æĹ©ä¸Ĭ":3227,"é¤ĲçĤ¹":3228,"æīĭå¥Ĺ":3229,"æīĭå¸ķ":3230,"ä¾ĭåı¥":3231,"æľĢè¿ĳçļĦå¤©æ°ĶæĥħåĨµ":3232,"æĶ¾æĿ¾":3233,"èıłèıľ":3234,"æľĪä»½":3235,"æľĪåħī":3236,"æĢ»æķ°":3237,"ç¡®ä¿Ŀ":3238,"Ġæł¹æį®ç»Ļå®ļ":3239,"Ġæł¹æį®è¾ĵåħ¥":3240,"äºĶç»Ŀ":3241,"åĲ¬åĲ¬":3242,"åºıåĪĹ":3243,"æİ¨æĸŃ":3244,"çº¢èĲĿåį":3245,"åıĺéĿ©":3246,"æĪĳæĥ³è¦ģ":3247,"åľºæ¯ĶèµĽ":3248,"åĪĽæĸ°":3249,"åĪĽå»º":3250,"çī¹å¾ģ":3251,"çī¹æ®Ĭ":3252,"çĲĨæĥ³":3253,"åĽłä¸ºå®ĥä»¬":3254,"åįķè¯įçļĦ":3255,"ç¿©":3256,"ç¿ł":3257,"å°±åİ»":3258,"å°±ä¸ļ":3259,"ç»ĻåĩºçļĦ":3260,"æ¯ıåıªçĮ«":3261,"æ¸ħæĸ°":3262,"è¯·éĹ®æĤ¨æľīä»Ģä¹Ī":3263,"è¯·éĹ®æĤ¨åľ¨åĵªä¸ªåŁİå¸Ĥ":3264,"çľĭçĶµå½±":3265,"ä½¿çĶ¨G":3266,"èĢĮå¼Ĥ":3267,"æ¡Īä¾ĭ":3268,"ä¸ĸçķĮæĿ¯":3269,"ãĢĤâĢĿâĢĶâĢĶ":3270,"è¯»æĢ§":3271,"åıªå°¾":3272,"æĢĿç»ª":3273,"æķ°æį®åĪĨæŀĲ":3274,"ä»£çłģéĢ»è¾ĳ":3275,"èĻİ":3276,"å¼ķæĵ":3277,"è°¢è°¢ä½łçļĦå¸®åĬ©":3278,"çĥ§":3279,"çĥĪ":3280,"è±Ĩ":3281,"ä¸ļåĬ¡":3282,"æĺŁæĺŁ":3283,"è¯·åĳĬè¯īæĪĳæĤ¨":3284,"å¾Īé«ĺåħ´æĪĳçļĦ":3285,"æİĴæĶ¾":3286,"æİĴéĺŁ":3287,"è½»æĿ¾":3288,"æĽ´å¤ļçļĦä¿¡æģ¯":3289,"åģļåĩº":3290,"ç¬¬ä¸Ģä¸ª":3291,"ç¬¬åĽĽ":3292,"æ¼Ĥ":3293,"è¯·æıĲä¾Ľåħ·ä½ĵçļĦ":3294,"å¦Ĥä½ķä½¿çĶ¨":3295,"å¿«ä¹Ĳ":3296,"çŁŃçļĦ":3297,"åĮĹäº¬çļĦå¤©æ°ĶæĢİä¹Īæł·":3298,"ä¿ĿæĬ¤":3299,"æĸ°éĹ»æłĩé¢ĺ":3300,"èĬĤæĹ¥":3301,"çĭĹç²®":3302,"çĹĩçĬ¶":3303,"çĻ¾":3304,"éħ±":3305,"é£ŀèĪŀ":3306,"çĸ«":3307,"çĸ¾çĹħ":3308,"ä¸Ģç¯ĩæĸ°éĹ»æĬ¥éģĵ":3309,"æĺ¥å¤©":3310,"æĪĳéľĢè¦ģå¸®åĬ©":3311,"æĪĳéľĢè¦ģæĽ´å¤ļçļĦä¿¡æģ¯":3312,"ä¹Łä¼ļ":3313,"åĽĽè¡Į":3314,"åĽĽåŃ£":3315,"éĢĤå½ĵ":3316,"éĢĤåºĶ":3317,"éĢĤå®ľ":3318,"äº§åĵģæĪĸ":3319,"å¤©çļĦæ°Ķæ¸©":3320,"è®¾ç½®":3321,"è®¾å¤ĩ":3322,"å¹¿æ³Ľ":3323,"ç®Ģæ´ģ":3324,"ç´łæķ°":3325,"Ġä¸ºä»Ģä¹ĪæŁĲäºĽ":3326,"ä¹¦ç±į":3327,"å±ķè§Ī":3328,"æĲľç´¢å¼ķæĵ":3329,"äººå·¥æĻºèĥ½åľ¨åĮ»":3330,"åĶ¯":3331,"åĶĲä»£":3332,"åıĹæ¬¢è¿İ":3333,"åľ°çĲĥåĪ°å¤ªéĺ³":3334,"æĶ¹ä¸º":3335,"ç¼ĸåĨĻä¸Ģç¯ĩ":3336,"å¹³åĿĩæķ°":3337,"å¹³åĿĩåĢ¼":3338,"åİĨåı²éĹ®é¢ĺ":3339,"åİĨåı²ä¸Ĭ":3340,"åİĨåı²çļĦéĹ®é¢ĺ":3341,"æīĢåľ¨çļĦä½įç½®":3342,"æĳĩ":3343,"æĳĺ":3344,"ä¸ĩéĩĮ":3345,"æŀģç«¯":3346,"äºĨè§£ä¸Ģä¸ĭ":3347,"æĻļä¸Ĭ":3348,"æĻļé¤Ĳ":3349,"è½¬åĮĸä¸º":3350,"æĮīä½ĵåŀĭ":3351,"è§£çŃĶåĲĹ":3352,"çĽ¸åħ³çļĦéĹ®é¢ĺ":3353,"åħ³éĶ®è¯įåĨĻä¸Ģç¯ĩ":3354,"çĻ½äºĳ":3355,"ĠéĿŀå¸¸æĦŁè°¢ä½łçļĦ":3356,"è¯Ħä¼°":3357,"åıįåºĶ":3358,"é¢ĺçĽ®æĺ¯":3359,"åįĩèµ·":3360,"åįĩçº§":3361,"éĢłæĪĲ":3362,"åİŁå§ĭ":3363,"æµĭè¯ķ":3364,"æĶ¯æĮģ":3365,"æĶ¯ä»ĺ":3366,"é¦Ļæ°Ķ":3367,"æĸ¹éĿ¢çļĦéĹ®é¢ĺ":3368,"å²¸":3369,"å²ģæľĪ":3370,"èĮ«":3371,"é¥°":3372,"Ġä»İä»¥ä¸ĭ":3373,"Ġä»İè¿Ļç¯ĩæĸĩç«łä¸Ń":3374,"åı¤åħ¸":3375,"å¤´çĹĽ":3376,"åĳ½é¢ĺ":3377,"æķħä¹¡":3378,"æĸĩç«łä¸ŃæıĲåĪ°çļĦ":3379,"éĻįæ°´":3380,"éĻįä½İ":3381,"çļĦå¤©æ°ĶæĥħåĨµåĳ¢":3382,"æŁ¥è¯¢å¤©æ°Ķé¢ĦæĬ¥":3383,"æĪĳä¼ļå°½åĬĽå¸®åĬ©ä½ł":3384,"æĪĳä¼ļå°½åĬĽåĽŀçŃĶä½łçļĦ":3385,"è¯ĨåĪ«":3386,"äº¤éĢļ":3387,"äº¤äºĴ":3388,"åĪļæīį":3389,"ç»¿èī²":3390,"ç»¿æłĳ":3391,"èĩªçĦ¶è¯Ńè¨Ģ":3392,"èĩªçĦ¶ç¾İæĻ¯":3393,"æľªæĿ¥äººå·¥æĻºèĥ½":3394,"æ¦Ĥæĭ¬åĩº":3395,"ç²¾":3396,"ĠçĶŁæĪĲä¸Ģé¦ĸäºĶè¨Ģç»Ŀåı¥":3397,"å¸¦æĿ¥":3398,"æĦīæĤ¦":3399,"æķ´çĲĨ":3400,"æĻ´å¤©":3401,"èĢģèĻİ":3402,"æĦŁè§īå¾Ī":3403,"èµĦæĸĻ":3404,"èµĦæºĲ":3405,"åĪĽä½ľä¸Ģä¸ª":3406,"åĪĽä½ľä¸Ģé¦ĸ":3407,"å¹¿åĳĬæµ·æĬ¥":3408,"000":3409,"éªĹ":3410,"Ġå¤ªæ£ĴäºĨ":3411,"è¿Ļæ®µè¯Ŀ":3412,"åĨ°ç®±":3413,"éĹ®é¢ĺéľĢè¦ģåĴ¨è¯¢":3414,"è§ĦåĪĻ":3415,"æĥħæĦŁåĪĨç±»":3416,"éĻĦè¿ĳçļĦ":3417,"AIè¯Ńè¨Ģæ¨¡åŀĭ":3418,"ç¾¤":3419,"ç¾Ĭ":3420,"Ġå¸®æĪĳæĲľç´¢ä¸Ģä¸ĭ":3421,"è¿ľæĸ¹":3422,"ä¹łæĥ¯":3423,"åĳĺå·¥":3424,"ä¼ģä¸ļ":3425,"ä¼ĺåĮĸ":3426,"èģĬå¤©æľºåĻ¨äºº":3427,"æī¾åĪ°æľĢè¿ĳçļĦ":3428,"è¿Ļç¯ĩæĸĩç«łçļĦä¸»æĹ¨":3429,"çĹħæ¯Ĵ":3430,"æ¥ļ":3431,"çļĦå¤§å°ı":3432,"æĿ¯æ°´":3433,"æķ£æŃ¥":3434,"åĪ°å°ıåŃ¦":3435,"æ²³æµģ":3436,"éĶĢåĶ®":3437,"åŃĹæ¯įæĢ»æķ°":3438,"åĲ¬èµ·æĿ¥ä¸įéĶĻ":3439,"å¦Ļ":3440,"æħ¢":3441,"æħĮ":3442,"é²ľ":3443,"Ġè°¢è°¢æĤ¨çļĦ":3444,"ç»Ńåıĳå±ķ":3445,"å°ģéĹŃ":3446,"è§ĤçĤ¹":3447,"æľĢåĲİä¸Ģä¸ªåħĥç´ł":3448,"ä¿®é¥°":3449,"è¶ĬæĿ¥è¶Ĭ":3450,"åħ¨çĲĥæľĢé«ĺçļĦå±±å³°":3451,"éħįæĸĻ":3452,"å©ļç¤¼":3453,"çļĦå°ıè¯´":3454,"çļĦä¸»é¢ĺæĢĿæĥ³":3455,"åı¦å¤ĸ":3456,"æ°§åĮĸ":3457,"åĵĪåĪ©":3458,"æ°ĶåĢĻåıĺåĮĸ":3459,"çŃ¾ç½":3460,"éĩĩè®¿":3461,"æİīåľ¨äºĨ":3462,"èĩ³å°ĳ":3463,"æ¡ĥèĬ±":3464,"éĢļå¸¸åľ¨":3465,"çĸĳéĹ®":3466,"çĸĳéĹ®åı¥":3467,"çİ¯å¢ĥæ±¡æŁĵ":3468,"æ³¨æĦıåĬĽ":3469,"ç¥ŀç§ĺ":3470,"çļĦç¾İå¥½åĴĮ":3471,"ä¼ģé¹ħæĺ¯ä¸Ģç§į":3472,"æ½®":3473,"è£ħ":3474,"æĪĳå·²ç»ıå°Ĩ":3475,"æĪĳå¾Īé«ĺåħ´èĥ½å¤Łå¸®åĬ©æĤ¨":3476,"åĲĦç§į":3477,"å®£è¨Ģ":3478,"å®ĿçŁ³":3479,"åĨľåİĨ":3480,"ä¸Ńå¿ĥæĢĿæĥ³":3481,"åįģåĪĨ":3482,"å¯»æī¾":3483,"å·®å¼Ĥ":3484,"æģ¶åĬ£":3485,"æ£ĢæŁ¥":3486,"éħĴåºĹ":3487,"è½¬æį¢æĪĲ":3488,"ç¢§ç©º":3489,"ä¸ĸçķĮä¸ĬæľĢé«ĺçļĦå±±å³°æĺ¯çıłç©ĨæľĹçİĽå³°":3490,"åĩĨç¡®æĢ§":3491,"æĩĤ":3492,"çĳŁ":3493,"æĪĳæľīä¸Ģä¸ªéĹ®é¢ĺ":3494,"åħįè´¹":3495,"ä½łä¼ļåĸľæ¬¢":3496,"è¿Ļæł·æĪĳ":3497,"è®¿éĹ®":3498,"å¾·åĽ½":3499,"åįĹçĵľ":3500,"æĭīéĽħ":3501,"çĶ±äºİæ²¡æľīåħ·ä½ĵçļĦ":3502,"ç¥Ŀç¦ı":3503,"è¿Ļé¦ĸè¯ĹæŃĮçļĦ":3504,"èĥĮæĻ¯":3505,"åŃ¤çĭ¬çļĦ":3506,"åĤ¨":3507,"æ¹¿":3508,"é¾Ļ":3509,"éŃĶ":3510,"çļĦæĹ¶åħī":3511,"ä½ıå®¿":3512,"è¿½æ±Ĥ":3513,"è¿ŀæİ¥":3514,"æĺłçļĦçĶµå½±":3515,"æ°¸è¿ľ":3516,"æ°ĽåĽ´":3517,"ä¼¦æķ¦":3518,"ä¸įå¤ªå¥½":3519,"æĸĩæ¡£åºĵ":3520,"å½©ç¤¼":3521,"åįĥåħĭ":3522,"å¸®ä½łæŁ¥è¯¢":3523,"æĽ¿æį¢":3524,"çļĦçĲĨæĥ³":3525,"çī©ä½ĵçļĦè´¨éĩı":3526,"åĪĨæĪĲä¸¤ä¸ª":3527,"æģĴæĺŁ":3528,"æ±Łå±±":3529,"èīºæľ¯":3530,"è´¢ç»ı":3531,"éļĲç§ģ":3532,"çĪµå£«ä¹Ĳ":3533,"æııè¿°ä¸Ģä¸ĭä½ł":3534,"çĶµåŃĲäºĳ":3535,"åİ»åħ¬åĽŃæķ£æŃ¥":3536,"å¸ĮæľĽæĤ¨èĥ½":3537,"æ¶īåıĬ":3538,"ç¬¬ä¸Ģä½įçļĩå¸Ŀ":3539,"ç¾İåĽ½çĭ¬ç«ĭå®£è¨Ģ":3540,"çıįæĥľ":3541,"é¥®æĸĻ":3542,"æĦŁåĪ°éĿŀå¸¸åħ´å¥ĭ":3543,"å¸¦æĿ¥çļĦæĮĳæĪĺ":3544,"å¾Īé«ĺåħ´èĥ½å¤Łå¸®åĪ°ä½ł":3545,"éĵģæ¡¶":3546,"ä¸ºä½łæıĲä¾Ľå¸®åĬ©":3547,"èĿī":3548,"çļĦæĦıæĢĿ":3549,"çļĦéĩįè¦ģæĢ§":3550,"çļĦåĵģçīĮåĲįç§°":3551,"è¿ĶåĽŀ":3552,"åħħæ»¡äºĨ":3553,"åĽ°éļ¾":3554,"åĴĮåı¥åŃĲH":3555,"è®¨è®º":3556,"çļĦç¿»è¯ĳ":3557,"æİ¢ç´¢":3558,"è¿Ļä¸ªçŁŃè¯ŃçļĦ":3559,"è¾Ĩåħ¬äº¤":3560,"åı¥åŃĲGåĴĮåı¥åŃĲH":3561,"æ²ŁéĢļ":3562,"éĻªä¼´":3563,"æīĢç»ĻçļĦ":3564,"Ġä¸ºä¸Ģä¸ªæĸ°äº§åĵģè®¾è®¡ä¸Ģä¸ª":3565,"æ·»åĬł":3566,"åĨįåĬłä¸Ĭä¸Ģåı¥":3567,"ä¸īè§Ĵå½¢çļĦ":3568,"è¯·éļıæĹ¶èģĶç³»æĪĳ":3569,"å²Ĺä½įçļĦ":3570,"çģ«è½¦æĹ¶åĪ»":3571,"è®¢è´Ńä¸Ģä»½":3572,"åĲ¯åıĳæĢ§çļĦåĲįè¨Ģ":3573,"èĹı":3574,"çļĦè¢«åĬ¨è¯ŃæĢģæĺ¯":3575,"ä¸ĢçĽı":3576,"åĪĺéĤ¦":3577,"åĴ³åĹ½":3578,"åı¯æĮģç»Ńåıĳå±ķ":3579,"ä¸ĬéĶģ":3580,"çļĦç¨ĭåºı":3581,"å¤§çº¦æĺ¯":3582,"æĦŁåı¹åı¥":3583,"è¡Įé©¶":3584,"éĶ»çĤ¼":3585,"åĸľé©¬æĭīéĽħ":3586,"éķ¿æ¤ħä¸Ĭ":3587,"çº¢èĲĿåįľ":3588,"åıªå°¾å·´":3589,"ç¬¬åĽĽä¸ªæķ°":3590,"æĲľç´¢å¼ķæĵİ":3591,"åľ°çĲĥåĪ°å¤ªéĺ³çļĦè·Ŀç¦»":3592,"åħ³éĶ®è¯įåĨĻä¸Ģç¯ĩæĸĩç«ł":3593,"ĠéĿŀå¸¸æĦŁè°¢ä½łçļĦåĽŀçŃĶ":3594,"è¾Ĩåħ¬äº¤è½¦":3595,"åĸľé©¬æĭīéĽħå±±èĦī":3596,"\"ãĢĤ":3597,"..":3598,"17":3599,"22":3600,"27":3601,"28":3602,"38":3603,"40":3604,"63":3605,"76":3606,":âĢľ":3607,"AæĢ»":3608,"BçļĦ":3609,"BAæĢ»":3610,"DF":3611,"DåĪ°":3612,"Ma":3613,"NBAæĢ»":3614,"PDF":3615,"__":3616,"cm":3617,"le":3618,"oog":3619,"ry":3620,"¡¬":3621,"¡åºĹ":3622,"¢äºĨ":3623,"¢å¤į":3624,"¢èµ·ä¹ī":3625,"£ä»»":3626,"£æ¯į":3627,"¤ä¿":3628,"¤éģĵ":3629,"¤ç¦»":3630,"¥çļ":3631,"¦´":3632,"¦åı":3633,"¦æĪ·":3634,"¦é¹":3635,"¨å¤´":3636,"ªåĬĽ":3637,"«Į":3638,"«æĪ":3639,"®Ģ":3640,"®åħ¬åĽŃ":3641,"¯çī¹":3642,"°æŀľ":3643,"°åĽ½":3644,"°åĨĻä¸Ģç¯ĩ":3645,"±ä¹Ĳ":3646,"±èĬ±":3647,"±èĮ":3648,"²äºº":3649,"²èħ":3650,"´å¦Ĥ":3651,"´åĿı":3652,"¶æķ°":3653,"¸åį³":3654,"¹é¤Ĳ":3655,"¹é¥":3656,"ºè¡¨":3657,"ºè½¬":3658,"ºäº§çĶŁçļĦ":3659,"¼è¦ģ":3660,"¼è°·":3661,"½ĳ":3662,"½å®¹":3663,"¾Ĭ":3664,"¾è¯Ń":3665,"¾ç»ı":3666,"¾æ¶":3667,"¿è½¦":3668,"¿åħ¬éĩĮ":3669,"¿çģ¯":3670,"¿åħį":3671,"å´":3672,"åĺ":3673,"å«Į":3674,"æ¾":3675,"æħ§":3676,"æ¦´":3677,"çħ":3678,"èª":3679,"éŀ":3680,"Ġä»¥":3681,"Ġç»Ļ":3682,"ĠåĳĬè¯īæĪĳ":3683,"ĠæĪĳæĥ³":3684,"Ġè°¢è°¢ä½łçļĦ":3685,"ĠåĪĨç±»":3686,"Ġåģļ":3687,"ĠæĪĳéľĢè¦ģ":3688,"ĠçĶ¨ä¸Ģåı¥è¯Ŀ":3689,"Ġåĵ¦":3690,"Ġä¸įéĶĻ":3691,"ĠéĢļè¿ĩ":3692,"Ġç»ĻæĪĳä¸Ģä¸ª":3693,"ĠåĪĽä½ľ":3694,"Ġä½Ĩæĺ¯":3695,"ĠåĮ»":3696,"Ġè¿Ļä¸ªåı¥åŃĲ":3697,"Ġéĺħè¯»":3698,"Ġè¿Ļæĺ¯ä¸Ģä¸ª":3699,"Ġä¸įéľĢè¦ģ":3700,"Ġè°¢è°¢ä½łçļĦåĽŀçŃĶ":3701,"Ġæīĵå¼Ģ":3702,"ĠçľŁçļĦå¾Ī":3703,"ĠæĮĩç¤º":3704,"Ġå½Ĵçº³":3705,"ĠæıŃç¤º":3706,"Ġçİ°åľ¨ç»ĻæĪĳ":3707,"ĠåĪĽå»º":3708,"ĠåĲ¬èµ·æĿ¥ä¸įéĶĻ":3709,"Ģåľ¨äºİ":3710,"ĢèµĦäº§":3711,"Ĥ¹é¤Ĳ":3712,"ĥŃ":3713,"ĥè¿Ľ":3714,"ĥåĮº":3715,"Ħé»Ħ":3716,"ħçļĦ":3717,"ħåĬĽ":3718,"ħç¬Ķ":3719,"ĩæķ":3720,"īåĴ":3721,"īè½¬":3722,"ĭéĺ³":3723,"ĭæ¯Ķè¾ĥ":3724,"Įä¸ļ":3725,"ĮåŃĲä¸Ĭ":3726,"įæĻļ":3727,"Ĳè¿°":3728,"Ĳé¾Ļ":3729,"ĳå¥½":3730,"ĳæ°Ķ":3731,"ĳé¼»":3732,"Ĵä½ĵ":3733,"ĵåĲį":3734,"ķåľ°":3735,"ķéĺ³":3736,"ĹæĪ·":3737,"ĺæīĭ":3738,"ĺèĽ":3739,"ĺå®Ŀ":3740,"Ļäºº":3741,"ļè¯Ń":3742,"ĽçĽ":3743,"ľçĦ¶":3744,"ĿåĬł":3745,"ŀèĪ¹":3746,"Łåĳ³":3747,"Łéĩĳ":3748,"Łç³ķ":3749,"łåĨ":3750,"łçī©":3751,"łéĻ¤":3752,"Ńçī":3753,"Ńéģĩ":3754,"ä¸²":3755,"ä¸ĵ":3756,"ä¸Ŀ":3757,"çļĦå®ļ":3758,"çļĦå¸®åĬ©":3759,"çļĦè´":3760,"çļĦæł·":3761,"çļĦä¸¤":3762,"çļĦæľĪ":3763,"çļĦæĺ¯åĵª":3764,"çļĦåĪĨæŀĲ":3765,"çļĦåĲįç§°":3766,"çļĦç»ĵæŀľ":3767,"çļĦä¹¦":3768,"çļĦèıľ":3769,"çļĦè¡¨è¾¾":3770,"çļĦæĦŁè§ī":3771,"çļĦçī©åĵģ":3772,"çļĦæĹ¶éĹ´":3773,"çļĦé¢Ħæµĭ":3774,"çļĦåĽ¾":3775,"çļĦåı£åı·":3776,"çļĦæķħäºĭ":3777,"çļĦéŁ³ä¹Ĳ":3778,"çļĦéľĢæ±Ĥ":3779,"çļĦä¸»æĹ¨":3780,"çļĦåĬŁèĥ½":3781,"çļĦåħĥç´ł":3782,"çļĦçļĩå¸Ŀ":3783,"çļĦæŃĮè¯į":3784,"çļĦåģ¥åº·":3785,"çļĦä¼łæĴŃ":3786,"çļĦéĹ®åı¥":3787,"çļĦè¡Ĺ":3788,"çļĦæĮĳæĪĺ":3789,"çļĦåĬĽéĩı":3790,"çļĦåĲįç§°åĴĮ":3791,"çļĦæĿ¡ä»¶":3792,"çļĦä½ľåĵģ":3793,"çļĦæ¦Ĥå¿µ":3794,"çļĦåİŁåĽł":3795,"çļĦåģľè½¦åľº":3796,"çļĦçĶ·":3797,"çļĦæķĻ":3798,"çļĦé¦ĸéĥ½":3799,"çļĦæł¼è¨Ģ":3800,"çļĦèĬ±åįī":3801,"çļĦå¿«éĢŁ":3802,"çļĦæĭĵå±ķ":3803,"çļĦåĪĨå¸":3804,"çļĦé£İæĻ¯":3805,"çļĦåİĨåı²éĹ®é¢ĺ":3806,"çļĦåŃĹæ¯įæĢ»æķ°":3807,"çļĦæľĢåĲİä¸Ģä¸ªåħĥç´ł":3808,"çļĦå©ļç¤¼":3809,"çļĦä½ıå®¿":3810,"çļĦæĸĩæ¡£åºĵ":3811,"è¯ģ":3812,"è¯Ģåľ¨äºİ":3813,"ä»ª":3814,"ä»Ļäºº":3815,"äº¿åħ¬éĩĮ":3816,"å¤®åħ¬åĽŃ":3817,"å¤ķéĺ³":3818,"ä¸Ģäºº":3819,"ä¸Ģéģĵ":3820,"ä¸ĢçĤ¹":3821,"ä¸ĢåĲĮ":3822,"ä¸Ģä»¶":3823,"ä¸ĢåįĬ":3824,"ä¸ĢåĿĹ":3825,"æĪĳè¦ģ":3826,"æĪĳå¿":3827,"æĪĳæĺ¯ä»Ģä¹Ī":3828,"æĪĳæ²¡æľī":3829,"æĪĳçŁ¥éģĵ":3830,"æĪĳèĥ½å¤Ł":3831,"æĪĳå®ĮæĪĲ":3832,"æĪĳæĦŁè§ī":3833,"æĪĳä¸Ģå®ļ":3834,"æĪĳæĺ¯ä¸Ģä¸ª":3835,"æĪĳæľĢåĸľæ¬¢":3836,"æĪĳå¾Īé«ĺåħ´èĥ½":3837,"æĪĳåŃ¦ä¼ļ":3838,"æĪĳè§īå¾Ĺ":3839,"æĪĳæīĵç®Ĺ":3840,"æĪĳéģĩåĪ°äºĨ":3841,"æĪĳæĦŁåĪ°éĿŀå¸¸åħ´å¥ĭ":3842,"æĪĳçļĦç¨ĭåºı":3843,"åħħ":3844,"åħ«æĪ":3845,"åĲĽ":3846,"æĺ¯è¦ģ":3847,"æĺ¯æ³":3848,"æĺ¯åĵªä¸ª":3849,"æĺ¯çĶ±":3850,"æĺ¯æ¯ı":3851,"æĺ¯ç¬¬":3852,"æĺ¯åĩł":3853,"æĺ¯è¿ĳä¹īè¯į":3854,"æĺ¯åıįä¹īè¯į":3855,"æĺ¯èĭ±":3856,"æĺ¯åį°åº¦":3857,"æĺ¯Ma":3858,"ä¸ªå¤©":3859,"ä¸ªæĸ°":3860,"ä¸ªåįķè¯į":3861,"ä¸ªåħĥç´ł":3862,"ä¸ªåĨľ":3863,"ä¸ªçľģ":3864,"åľĪ":3865,"åľ£æ¯į":3866,"ä½łå¾Ī":3867,"ä½łæĽ´":3868,"ä½łå°Ĩ":3869,"ä½łåĳ¢":3870,"ä½łçľŁ":3871,"æĸĳ":3872,"åĪº":3873,"åĪłéĻ¤":3874,"çĶ°":3875,"å®ģ":3876,"å®½å®¹":3877,"å®¾è¯Ń":3878,"å®łçī©":3879,"ç»µ":3880,"åĬªåĬĽ":3881,"å¥½çĶ¨":3882,"å¥½åĪ°":3883,"å¥½äºĭ":3884,"å¥½åĲĥ":3885,"è¯·åĽŀçŃĶ":3886,"è¯·ä»İ":3887,"è¯·æıĲåıĸ":3888,"è¯·ç¨":3889,"è¯·çĶ¨ä¸Ģåı¥è¯Ŀ":3890,"è¯·è®©æĪĳ":3891,"é¢Ĺ":3892,"å¸ģ":3893,"å¸½åŃĲ":3894,"åľ¨ä¸Ģä¸ª":3895,"åľ¨åħ¬":3896,"åľ¨æ·":3897,"åľ¨é£ŀ":3898,"åľ¨æĲľ":3899,"åľ¨å¹¿":3900,"åľ¨è¥¿":3901,"åľ¨è¿Ļä¸ªåı¥åŃĲ":3902,"åľ¨ä¸ľ":3903,"åľ¨å·´é»İ":3904,"åľ¨è¿ĻéĩĮ":3905,"åľ¨ä¼ļè®®":3906,"åľ¨å®¤åĨħ":3907,"åľ¨æ²Ļæ»©":3908,"åľ¨åģľè½¦åľº":3909,"åľ¨çŃīå¾ħ":3910,"åľ¨å¤ľæĻļ":3911,"éĹ®ä½ł":3912,"æľīåĬ©":3913,"æľīåĬĽ":3914,"æľīéĽ¨":3915,"æľīè¯¯":3916,"è¿Ļä»¶":3917,"è¿Ļä¸īä¸ª":3918,"è¿Ļåĩłä¸ª":3919,"è¿Ļåľºæ¯ĶèµĽ":3920,"è¿Ļè¾Ĩåħ¬äº¤è½¦":3921,"ä»¥ä¸Ĭ":3922,"ä»¥åħ¥":3923,"ä»¥åĨħ":3924,"åĽº":3925,"å¤©èĬ±":3926,"å¤©è¾¹":3927,"å¤©çļĦå¤©æ°ĶæĥħåĨµ":3928,"å¤©æĺ¯æĺŁæľŁ":3929,"å¤©çĻ½äºĳ":3930,"æĤ£":3931,"åĴĮå»ºè®®":3932,"åĴĮæĶ¾":3933,"åĴĮæķ°æį®":3934,"åĴĮä»£çłģ":3935,"åĴĮé¦Ļ":3936,"åĴĮé¡¹":3937,"åĴĮèĢģ":3938,"åĴĮæĸ¹å¼ı":3939,"åĴĮéĺħè¯»":3940,"åĴĮæĦŁåıĹ":3941,"åĴĮå¤±":3942,"åĴĮæľįåĬ¡":3943,"åĴĮåģ¥åº·":3944,"åĴĮåįı":3945,"åĴĮéĻįéĽ¨":3946,"åĴĮè°Ĳ":3947,"åĴĮè¯Ńå¢ĥ":3948,"åĴĮèĬĴ":3949,"åĴĮè§ĦåĪĻ":3950,"åĴĮèīºæľ¯":3951,"åŃľçĦ¶":3952,"æĤ¨è¦ģ":3953,"æĤ¨æĥ³":3954,"æĤ¨å¯¹":3955,"æĤ¨è¿ĺæľīåħ¶ä»ĸ":3956,"æĤ¨åľ¨åĵªä¸ªåŁİå¸Ĥ":3957,"æĤ¨è¦ģæ±ĤçļĦ":3958,"æĤ¨æīĵç®Ĺ":3959,"ä¸ºäºĨ":3960,"ä¸ºæĪĳæĥ³":3961,"ä¸ºæ¯ı":3962,"ä¸ºå¤ļäºĳ":3963,"ä¸ºåĲĮä¹īè¯į":3964,"ä¸ºæ¸©æļĸ":3965,"ä¸ºPDF":3966,"åı¯èĢ":3967,"åı¯ä¹Ĳ":3968,"åı¯çĪ±çļĦ":3969,"åı¯è¯»æĢ§":3970,"æĹ±":3971,"æĹı":3972,"åĨ²":3973,"åĨłåĨ":3974,"ä¸Ģä¸ªæŃ£":3975,"ä¸Ģä¸ªæľĪ":3976,"ä¸Ģä¸ªåı¯èĥ½":3977,"ä¸Ģä¸ªä¾ĭåŃĲ":3978,"ä¸Ģä¸ªæľīæĦıä¹ī":3979,"ä¸Ģä¸ªå°ģéĹŃ":3980,"èĥ½æıĲä¾Ľ":3981,"èĥ½å¸®åĬ©ä½ł":3982,"èĥ½åĿĲ":3983,"ä¼į":3984,"ä¼ŀ":3985,"ä¸ĭè½":3986,"ä¸ĭå¤ļå°ĳ":3987,"ä¸Ńåı¯ä»¥":3988,"ä¸Ńåı·":3989,"ä¸Ńåħ±":3990,"ä¸Ńæķ°åŃ¦":3991,"ä¸Ńæī¾åĪ°":3992,"ä¸ŃæıĲåĪ°çļĦ":3993,"ä¸ŃåĬłåħ¥":3994,"ä¸Ńå¡«åĨĻ":3995,"ä¸ŃçļĦçĮ«":3996,"ä¸Ńæ¼Ĥ":3997,"ä¸Ńå¤®åħ¬åĽŃ":3998,"æ°Ķä½ĵ":3999,"æ°Ķæ°Ľ":4000,"æ°ĶåĤ¨":4001,"åĩĿ":4002,"åĩ¯çī¹":4003,"åĩĢèµĦäº§":4004,"è°ļè¯Ń":4005,"ä¸įåı¯":4006,"ä¸įæĸŃ":4007,"ä¸įæĺ¯çļĦ":4008,"ä¸įåł":4009,"ä¸įæĩ":4010,"ä¸įæŃ¢":4011,"æĥĳ":4012,"æĸĩåįķ":4013,"æĸĩçĮ®":4014,"åı¯ä»¥æĺ¯":4015,"åı¯ä»¥åľ¨":4016,"åı¯ä»¥åĪĨ":4017,"åı¯ä»¥æıĲä¾Ľ":4018,"åı¯ä»¥åĳĬè¯īæĪĳ":4019,"åı¯ä»¥å¸®æĪĳ":4020,"åı¯ä»¥è¢«":4021,"åı¯ä»¥ä½¿çĶ¨":4022,"åı¯ä»¥éĢļè¿ĩ":4023,"åı¯ä»¥åĿĲ":4024,"åı¯ä»¥åľ¨æ°´":4025,"ç§Łéĩĳ":4026,"åºĻ":4027,"æī§":4028,"æī¼è¦ģ":4029,"æīĳé¼»":4030,"æĿĳ":4031,"æĿľ":4032,"æĿ¿çģ¯":4033,"åįĸ":4034,"åįļ":4035,"åįİå¸Ĥ":4036,"åįļçī©é¦Ĩ":4037,"éľ²":4038,"å¹¸":4039,"å¹¼":4040,"å¹ħ":4041,"çīĽ":4042,"æĦģ":4043,"æŀ¯":4044,"äººæĸĩ":4045,"äººçī©":4046,"äººåĲį":4047,"äººåħ¥":4048,"äººå£«":4049,"äººåĿĲ":4050,"äººç¾¤":4051,"éĹ®é¢ĺåĳ¢":4052,"éĹ®é¢ĺçļĦä¸īä¸ª":4053,"æıĲåıĬ":4054,"æıĲåĪ°äºĨ":4055,"æıĲéĨĴ":4056,"è¡Ģ":4057,"å¥½çļĦå»ºè®®":4058,"äºĨæĪĳ":4059,"äºĨåĵªäºĽ":4060,"äºĨäººå·¥æĻºèĥ½":4061,"äºĨæ¸¸":4062,"äºĨè®¸å¤ļ":4063,"æĪĲéķ¿":4064,"æĪĲæŃ£":4065,"æĪĲä¸Ģåı¥è¯Ŀ":4066,"æĪĲç«ĭ":4067,"æĪĲåıĮ":4068,"éľĢè¦ģæĤ¨":4069,"éľĢè¦ģå°Ĩ":4070,"éľĢè¦ģåĲĥ":4071,"éľĢè¦ģä¸Ĭä¸ĭæĸĩ":4072,"éľĢè¦ģçĿ¡è§ī":4073,"éľĢè¦ģå¸®å¿ĻçļĦåĲĹ":4074,"éľĢè¦ģåīĬåĩı":4075,"å¸®å¸®æĪĳ":4076,"æķĮ":4077,"æĢ¡":4078,"æĢ¥":4079,"ä»Ģä¹Īç±»åŀĭ":4080,"ä»Ģä¹Īç±»åŀĭçļĦ":4081,"å¯ŀ":4082,"çĶŁæĦı":4083,"çĶŁéķ¿":4084,"çĶŁç´ł":4085,"çĶŁåĦ¿":4086,"çĶŁçĹħ":4087,"çĶŁæĺ¯æĪĳçļĦ":4088,"è§¦":4089,"çİī":4090,"éĢĴ":4091,"åĩºçļĦ":4092,"åĩºä¸Ģä¸ª":4093,"åĩºäºĨ":4094,"åĩºä¸īä¸ª":4095,"åĩºç¾İåĳ³":4096,"åĩºä¸ºPDF":4097,"å¦Ĥæĺ¥":4098,"å¦ĤèĮ":4099,"å¦Ĥçģ«":4100,"å¦Ĥè¡Ģ":4101,"æľĢå°ı":4102,"æľĢçĪ±":4103,"æľĢçŁŃ":4104,"æľĢéĩįè¦ģ":4105,"æľĢç¹ģ":4106,"æľĢåıĹæ¬¢è¿İ":4107,"çĶ¨æĿ¥":4108,"éĿł":4109,"ä¸Ĭæľī":4110,"ä¸Ĭç½ĳ":4111,"ä¸ĬæĦıå¤§åĪ©":4112,"æĬ½":4113,"åĪ°æĪĳ":4114,"åĪ°çļĦéĹ®é¢ĺ":4115,"äºİåĵªä¸ªåŁİå¸Ĥ":4116,"æįī":4117,"æįŀèĪ¹":4118,"æ³¡":4119,"æ³³":4120,"é£Ĵ":4121,"åĵªä½į":4122,"åĵªä»½":4123,"åĵªä¸Ģå¹´":4124,"åľ°ä½į":4125,"åľ°è¡¨è¾¾":4126,"åľ°é»Ħ":4127,"åľ°åĲ¹":4128,"åľ°åĲ¸å¼ķ":4129,"å¿Ĺ":4130,"å··":4131,"å·¢èµ·ä¹ī":4132,"å·¦åı":4133,"æĽ¼è°·":4134,"æĽ¾ç»ı":4135,"å¤©æ°Ķå¾Ī":4136,"å¤©æ°Ķæ¸©":4137,"å¤©æ°Ķä¿¡æģ¯":4138,"å¤©æ°ĶæĥħåĨµ":4139,"å¤©æ°ĶæĢİä¹Īæł·":4140,"å¤©æ°Ķæģ¶åĬ£":4141,"æĿ¥æºĲ":4142,"æĿ¥å¸®ä½ł":4143,"æµħ":4144,"çļĦç±":4145,"çļĦç´":4146,"çļĦçº":4147,"çļĦçı":4148,"çļĦç¡¬":4149,"çļĦç®Ģ":4150,"çļĦç¾Ĭ":4151,"çļĦçĥŃ":4152,"çī©è´¨":4153,"å¾Īæľīè¶£":4154,"å¾ĪæĦīå¿«":4155,"å¾ĪåĨ·":4156,"å¾ĪæĦ¿æĦı":4157,"å¤§æľ¬":4158,"å¤§å®¶":4159,"å¤§è±¡":4160,"å¤§çīĩ":4161,"å¤§åĪ°å°ı":4162,"å¤§èĦĳ":4163,"å¤§è¶ĭåĬ¿":4164,"æĹ¶åĪĨ":4165,"æĹ¶ä»£":4166,"æĹ¶èĬĤ":4167,"æĹ¶æĶ¿":4168,"æİĮ":4169,"ä¿±":4170,"ä¿Ĺ":4171,"ä¿ĥè¿Ľ":4172,"è¯įåĩºçİ°":4173,"ä»ĸçļĦè½¦":4174,"ä»ĸä¸Ģå¤©":4175,"è¿Ļä¸ªæĸĩæľ¬":4176,"è¿Ļä¸ªåŁİå¸Ĥ":4177,"è¿Ļä¸ªåįķè¯į":4178,"è¿Ļä¸ªè®¢":4179,"è¿Ļä¸ªåĲįåŃĹ":4180,"è¿Ļä¸ªåĪĹè¡¨ä¸ŃçļĦ":4181,"è¿Ļä¸ªç¬ĳè¯Ŀ":4182,"è¿Ļä¸ªåĳ½é¢ĺ":4183,"è¿Ļä¸ªè¯įåĩºçİ°":4184,"æĶ»":4185,"åħ¶ä¸ŃçļĦ":4186,"æķ°åĪĹ":4187,"æķ°åĢ¼":4188,"æķ°è¿Ĳ":4189,"æķ°æľĢå¤ļ":4190,"éĤ£ç§į":4191,"éĤ£ä½łåı¯ä»¥":4192,"æĥ³éĹ®":4193,"æĥ³æī¾":4194,"æĥ³çŁ¥éģĵ":4195,"æĭį":4196,"æĭŁ":4197,"éģĹ":4198,"éģ¿åħį":4199,"éģŃéģĩ":4200,"è¯Ŀé¢ĺ":4201,"åĽŀçŃĶçĽ¸åħ³":4202,"åĪĨåŃĲ":4203,"åĪĨçŃīçŃī":4204,"è¯·éĹ®éľĢè¦ģ":4205,"è¯·éĹ®ä»Ĭå¤©åĮĹäº¬":4206,"æĦŁå®ĺ":4207,"é«ĺçļĦ":4208,"é«ĺåº¦":4209,"é«ĺå±±":4210,"é«ĺè¾¾":4211,"çĽĽ":4212,"çĽ²äºº":4213,"æıĲä¾ĽçĽ¸åħ³":4214,"æıĲä¾Ľè¯¦ç»ĨçļĦ":4215,"æıĲä¾ĽæľīçĶ¨":4216,"èµ°":4217,"èµı":4218,"èµĸ":4219,"èµ¢äºĨ":4220,"èµ¤éģĵ":4221,"åı¥åŃĲä¸ŃçļĦ":4222,"åı¥åŃĲçļĦè¢«åĬ¨è¯ŃæĢģæĺ¯":4223,"è¡ĮæĶ¿":4224,"è¡ĮéªĹ":4225,"å¯¹äºİ":4226,"å¯¹åº¦":4227,"å¯¹ä»¥ä¸ĭ":4228,"å¯¹åºĶ":4229,"å¯¹æĪĳä»¬":4230,"å¯¹æīĢæľī":4231,"å¯¹æĶ¿":4232,"å¯¹ä½łæľī":4233,"å¯¹éļĲç§ģ":4234,"æĸ°åı¥åŃĲ":4235,"æĸ°å¹´":4236,"æĸ°ä¸ĸçķĮ":4237,"æĸ°æĬĢ":4238,"æĸ°äº§åĵģ":4239,"æĸ°è¥¿":4240,"æĸ°çĶµèĦĳ":4241,"æĸ°çĶŁåĦ¿":4242,"åĳĬè¯īæĪĳæĤ¨æīĢåľ¨çļĦåŁİå¸Ĥ":4243,"è½¿è½¦":4244,"æľ¬èº«":4245,"ä½ĵçİ°":4246,"ä½ĵæ¸©":4247,"ä½ĵçļĦä½ĵ":4248,"æĽ´å¤§":4249,"æĽ´æŃ£":4250,"æĽ´æľīè¶£":4251,"æĽ´å¼º":4252,"çº±":4253,"çº¸":4254,"çºł":4255,"æģ¨":4256,"æģĭ":4257,"æģ¢å¤į":4258,"æģĲé¾Ļ":4259,"ä¸Ģä¸ĭæľĢè¿ĳ":4260,"æĸĩç«łåĨħå®¹":4261,"æĸĩç«łåĴĮè§ĦåĪĻ":4262,"æ±Ĺ":4263,"èī³":4264,"éĻ©":4265,"æĺİä¸İ":4266,"æĺİæľĿ":4267,"æĺİåª":4268,"æĺİæī¼è¦ģ":4269,"è¿°äºĨ":4270,"è¿ĺéľĢè¦ģ":4271,"è¿ĺä¸įéĶĻ":4272,"è¿ĺèĥ½åĿĲ":4273,"åĸīåĴ":4274,"åĨĻçļĦ":4275,"åĨĻäºĨ":4276,"åĨĻåĩº":4277,"åĨĻä½ľ":4278,"åĨĻå¾Ĺ":4279,"çĶŁæĪĲä¸Ģåı¥":4280,"ä¸»è¯Ń":4281,"ä¸»å¹²":4282,"çİ°åľ¨è¯·åĳĬè¯īæĪĳ":4283,"çİ°åľ¨æĺ¯åĩł":4284,"æĪĸåħ¶ä»ĸ":4285,"æĪĸæľ¯":4286,"æĪĸæµģ":4287,"æĪĸäºĭçī©":4288,"æĪĸçĸĳéĹ®":4289,"å°Ĩåľ¨":4290,"å°Ĩå®ĥä»¬":4291,"æīĢéľĢ":4292,"æīĢä¸įåĲĮ":4293,"è°¢è°¢æĤ¨çļĦ":4294,"æ³ķå¾ĭ":4295,"ç±»åĬ¨çī©":4296,"ç±»ä¼¼":4297,"æł¹æį®æıĲä¾Ľ":4298,"æł¹æį®ä»¥ä¸ĭ":4299,"æł¹æį®è¾ĵåħ¥":4300,"æł¹æį®æľĢæĸ°":4301,"å®ĥåı¯ä»¥":4302,"å®ĥæĺ¯åĲ¦":4303,"å°ıéĽ¨":4304,"å°ıçĭĹ":4305,"å°ıçĮª":4306,"åĲįèĳĹ":4307,"åĲįæįķ":4308,"æŁĶ":4309,"è´µ":4310,"è´¦æĪ·":4311,"å¦Ĥæŀľä»Ĭå¤©":4312,"å¦ĤæŀľæĪĳæĺ¯":4313,"éĿ¢åĮħ":4314,"é¦ĸåħĪ":4315,"èĬĿåĬł":4316,"çļĦå¤©æ°ĶåĲĹ":4317,"çļĦå¤©æ°ĶåºĶè¯¥æĺ¯":4318,"èī²è°ĥ":4319,"ç¯ĩæĸĩç«ł":4320,"Ġè¯·å°Ĩ":4321,"Ġè¯·æł¹æį®":4322,"Ġè¯·æıĲåıĸåĩº":4323,"Ġè¯·çĶ¨ä¸Ģåı¥è¯Ŀ":4324,"è¡¨çİ°":4325,"è¡¨ç¤º":4326,"è¿ĳæľŁ":4327,"æĸ¹ä½ĵçļĦä½ĵ":4328,"ä»¥ä¸ĭæĺ¯":4329,"ä»¥ä¸ĭåįķè¯į":4330,"æĦıåħ¥":4331,"æĦıæ¸Ĳ":4332,"ä¿¡ä»°":4333,"çĤ¹åĴĮ":4334,"çĤ¹æĸ°éĹ»":4335,"çĤ¹äºĭæĥħ":4336,"åģ·":4337,"åģ¶æķ°":4338,"ä»İDåĪ°":4339,"ä»İå¥½åĪ°":4340,"ä»İå¤§åĪ°å°ı":4341,"ä½ľä¸ļ":4342,"åĵģç§į":4343,"ç§įæ¤įçī©":4344,"åħ¶ä»ĸä»»åĬ¡":4345,"éĺ²":4346,"éĺ´":4347,"éĺ¿":4348,"éĺĲè¿°":4349,"éĽ·":4350,"éĽģ":4351,"éĽĨ":4352,"éĽĦé»Ħ":4353,"éĩĮæıĲåıĸåĩº":4354,"éĹ´çļĦçļĩå¸Ŀ":4355,"å¸Ĥåľº":4356,"åıĸçļĦ":4357,"åıĸåĴĮ":4358,"åıĸåĨ³":4359,"åĽ½æľĢå¤§çļĦ":4360,"åŃ¦å½±":4361,"åŃ¦éĻ¢":4362,"æĹłæİª":4363,"å¹¶åľ¨":4364,"å¹¶ä¸į":4365,"å¹¶æıĲä¾Ľ":4366,"å¹¶åĳĬè¯īæĪĳ":4367,"å¹¶å°Ĩåħ¶":4368,"å¹¶åıĳéĢģ":4369,"æ¡ĮåŃĲä¸Ĭ":4370,"ç¾İå¥½":4371,"ç¾İå¥½çļĦ":4372,"ç¾İåħĥ":4373,"ç¾İé£Ł":4374,"åıĳçĶŁ":4375,"åıĳæĺİ":4376,"åıĳçĥŃ":4377,"åıĳå°Ħ":4378,"è¿Ľåħ¥":4379,"çĪ¸":4380,"åħ¬ä¼Ĺ":4381,"é£İè½»":4382,"é£İéĢģ":4383,"çĲĥåľº":4384,"çĲĥåĳĺ":4385,"çĲĥèĪª":4386,"å»ºç«ĭ":4387,"æııè¿°ä¸Ģ":4388,"æııè¿°ä¸Ń":4389,"æııè¿°ç§ĭå¤©çļĦ":4390,"æııè¿°å¤ıæĹ¥":4391,"æııè¿°å¤ıå¤©çļĦ":4392,"æııè¿°ç§ĭæĹ¥":4393,"çĭ¼":4394,"çĭ©çĮİ":4395,"åįķä»·":4396,"å¿ĥåĴĮ":4397,"å¿ĥä¸Ń":4398,"å¿ĥçĶµ":4399,"å¿ĥèĦ":4400,"å¿ĥè§ĤçĤ¹":4401,"æ°´æĹ¶":4402,"éĤ£ä¹Īçİ°åľ¨":4403,"åħ·ä½ĵéĹ®é¢ĺéľĢè¦ģ":4404,"åħ·ä½ĵçļĦéĹ®é¢ĺæĪĸèĢħ":4405,"åĬłåĪ©":4406,"åĬłå¼º":4407,"åŁİå¸Ĥåı¯æĮģç»Ńåıĳå±ķ":4408,"çĮ©":4409,"è¢ħ":4410,"æ´²":4411,"æ´¾":4412,"ç´§":4413,"çĶµçģ¯":4414,"ç§ĭä¸ĩ":4415,"æµ·å¹³":4416,"æµ·åķ":4417,"æ¯ĶçļĦ":4418,"æ¯Ķç©ºæ°Ķ":4419,"æ¸©åĵ¥":4420,"èĩªè¡Į":4421,"ä¿¡æģ¯ä»¥ä¾¿æĪĳ":4422,"è·µ":4423,"æĪĳä¼ļä¸ºæĤ¨":4424,"æĪĳä¼ļè¯ķè¯ķ":4425,"å¹´åĲĮ":4426,"å¹´äº§":4427,"å¹´å¹³åĿĩ":4428,"å¹´é¾":4429,"å¹´éĹ´çļĦçļĩå¸Ŀ":4430,"æŃĮæīĭ":4431,"ä½įçļĩå¸Ŀ":4432,"è¯·ä½łçĶ¨":4433,"å½±å®¶":4434,"å½±çīĩ":4435,"èµ·äºĨ":4436,"ä»£è¡¨":4437,"ä»Ĭå¤©çļĦå¤©æ°ĶæĢİä¹Īæł·":4438,"ä»Ĭå¤©æĹ©ä¸Ĭ":4439,"åĲ¦å®ļ":4440,"åĲĮæŀĦ":4441,"åĲĮç±»åĬ¨çī©":4442,"å¼ĢæĶ¯":4443,"å¼Ģå¤´":4444,"éĿŀå¸¸æľīè¶£":4445,"éĿŀå¸¸æĦŁè°¢":4446,"éĿŀå¸¸æĦŁè°¢ä½łçļĦ":4447,"èĲ¦":4448,"ä»¶ç®±":4449,"æĺ¯ä»Ģä¹ĪæĹ¶åĢĻ":4450,"æĺ¯ä»Ģä¹ĪåĽ½ç±į":4451,"é¢Ħå®ļ":4452,"å¸®æĪĳæŁ¥ä¸Ģä¸ĭ":4453,"éļıæľº":4454,"çķ¥":4455,"çķĶ":4456,"çķĻ":4457,"ä¸¤ä½į":4458,"ä¸¤ä¸ªäºº":4459,"ä¸¤åı¥è¯Ŀ":4460,"ä¸¤ç¯ĩæĸĩç«ł":4461,"æıĲåıĸç»ĵæŀľ":4462,"ç»ĻæĪĳä¸ĢäºĽ":4463,"ç»ĻæĪĳè®²ä¸Ģä¸ª":4464,"åħ³äºİä¸ĸçķĮ":4465,"åħ³äºİçĪ±æĥħ":4466,"åħ³äºİäººå·¥æĻºèĥ½åľ¨åĮ»":4467,"è¯¥éĤ®ä»¶":4468,"è¯¥æĸĩçĮ®":4469,"è¿ĩå¹´çļĦ":4470,"æ®ĭéĺ³":4471,"Ġä½łå¥½åķĬ":4472,"åĵªä¸ªè¶³çĲĥ":4473,"å±±ä¸Ĭ":4474,"å±±æ°´":4475,"æ»Ķ":4476,"ä½¿åħ¶":4477,"ä½¿åı¥åŃĲ":4478,"ä½¿å®ĥä»¬":4479,"å¤ªç©º":4480,"å¤ªæ£ĴäºĨ":4481,"æĪĳåı¯ä»¥éĢļè¿ĩ":4482,"æĢ§åĮĸ":4483,"åĮħç²":4484,"ç©ºç¼º":4485,"ç©ºä¸ĩéĩĮ":4486,"è¢«ç¿»è¯ĳæĪĲ":4487,"è¢«æĽ´å¼º":4488,"åĢį":4489,"åĢºè¡¨":4490,"ç¼©":4491,"ç¼ĺ":4492,"Ġä¸ºæĪĳ":4493,"Ġä¸ºä»¥ä¸ĭåı¥åŃĲ":4494,"åĲİçļĦæĸĩæľ¬":4495,"åĲİå¤©æĺ¯æĺŁæľŁ":4496,"åĬ¨çī©ç§įç±»":4497,"è¿ĺæľīåħ¶å®ĥ":4498,"é»ĺ":4499,"åı£è¯Ń":4500,"åı£ç¢":4501,"æľºä¼ļ":4502,"æľºä¸Ĭ":4503,"æľºç¥¨":4504,"å®¹åĻ¨":4505,"ä¸ŃçļĦçĶŁçī©":4506,"å¾ĹåĪ°":4507,"å¹³åı°":4508,"å¹³æ·¡":4509,"åİ»å¹´åĲĮ":4510,"çĽ¸éģĩ":4511,"çĽ¸äºĴ":4512,"çĽ¸å®Ī":4513,"çĽ¸æ¯ĶçļĦ":4514,"çĶŁæĪĲä¸Ģä¸ªåħ³äºİ":4515,"çĶŁæĪĲä¸Ģä¸ªåĮħåĲ«":4516,"çĶŁæĪĲä¸Ģä¸ªä¸İä¹ĭ":4517,"è¿Ľè¡Įç¿»è¯ĳ":4518,"åĸľæ¬¢åľ¨":4519,"åĸľæ¬¢æĸĩåŃ¦":4520,"åĸľæ¬¢çļĦé¢ĨåŁŁ":4521,"é¸Ń":4522,"é¸½åŃĲ":4523,"éĥ½ä¼ļ":4524,"è¿Ļç¯ĩè¯ĹæŃĮ":4525,"åĨįæĿ¥":4526,"åĨįåĳĬè¯īæĪĳ":4527,"åĨįæĬĬ":4528,"åĨįåĨĻä¸Ģé¦ĸ":4529,"åĨįéĩįå¤į":4530,"åĨįçĶŁæĪĲä¸Ģé¦ĸ":4531,"è®©ä½łçļĦ":4532,"æŃ£åģ¶æķ°":4533,"æĮĩåĩº":4534,"æĮĩå®ļ":4535,"æĮĩæĺİ":4536,"æĮĩå¯¼":4537,"æĮĩåįĹ":4538,"æĮĩçļĦæĺ¯ä»Ģä¹Ī":4539,"ä¸»é¢ĺåĴĮ":4540,"ä¸»é¢ĺè¡Į":4541,"çĪ±å¥½":4542,"èģļ":4543,"èģĮä¸ļ":4544,"äºĭå®ŀ":4545,"äºĭæ¡Īä»¶":4546,"ä¸ºæĤ¨è§£çŃĶ":4547,"éĩįå¤§":4548,"æŁ¥æĶ¶":4549,"ç³Łç³ķ":4550,"èĢħçļĦ":4551,"æĺİå¤©ä¼ļ":4552,"æĺİå¤©çļĦå¤©æ°Ķé¢ĦæĬ¥":4553,"æĺİå¤©å·´é»İ":4554,"æĹłæ³ķå¯¹":4555,"æĹłæ³ķæıĲä¾Ľåħ·ä½ĵçļĦ":4556,"æ®µèĲ½":4557,"çĿĢä¸Ģ":4558,"çĿĢåľ¨":4559,"çĿĢäºº":4560,"çĿĢå¤©ç©º":4561,"é¤Ĳé¦Ĩ":4562,"ä¸īæ®µ":4563,"ä¸īæľĢåĸľæ¬¢":4564,"çĶ±åĴĮ":4565,"åĨħå®ĮæĪĲ":4566,"æī¾åĩº":4567,"æīĭå®¹æĺĵ":4568,"æľĢè¿ĳä¸ļ":4569,"æľĢè¿ĳä¸Ģæ¬¡":4570,"æĶ¾å¤§":4571,"æĶ¾å¿ĥ":4572,"æĶ¾åħ¥":4573,"èıĩ":4574,"èıĬ":4575,"æľĪçĲĥ":4576,"æĢ»ç»Ł":4577,"æĢ»åĨłåĨ":4578,"æ²¡æľīæıĲ":4579,"ç¡®å®ŀ":4580,"åŀĤ":4581,"åĲ¬çĿĢ":4582,"æľĢé«ĺæ°Ķæ¸©":4583,"æľĢé«ĺæ°Ķæ¸©ä¸º":4584,"æİ¨åĬ¨":4585,"çº¢èĬ±":4586,"çº¢æ¡ĥ":4587,"çº¢æ¥¼":4588,"çº¢å®ĿçŁ³":4589,"é¡»":4590,"è¯´è¯´":4591,"è¯´å·´é»İ":4592,"è¯ķéªĮ":4593,"åıĺæĪĲ":4594,"åıĺéĩı":4595,"åıĺæļĸ":4596,"åıĺåĨ·":4597,"æĪĳæĥ³äºĨè§£ä¸Ģä¸ĭ":4598,"åľºåľ°":4599,"åľºéĩĮ":4600,"åĪĽæĦı":4601,"åĪĽå§ĭ":4602,"è¿Ļæĺ¯åĽłä¸º":4603,"è¿Ļæĺ¯ä¸Ģç¯ĩ":4604,"è¿Ļæĺ¯çĶ±äºİ":4605,"è¿Ļæĺ¯ä¸Ģæ®µ":4606,"åĽłä¸ºå®ĥ":4607,"åĽłä¸ºæ²¡æľī":4608,"åĽłä¸ºè¿ĻäºĽ":4609,"åĽłä¸ºä»ĸä»¬":4610,"ç¿ħ":4611,"æľŁçĽ¸æ¯ĶçļĦ":4612,"åĲĥäºĨ":4613,"åĲĥæİī":4614,"åĪ«äºº":4615,"å°±è¯»":4616,"å°±æĺ¯åľ¨":4617,"æłĩå¿Ĺ":4618,"ç»Ļåĩºä¸Ģä¸ª":4619,"æ¯ıçīĩ":4620,"æ¯ıä¸ªæľĭåıĭ":4621,"æ¸ħåĩī":4622,"æ¸ħæ´ģ":4623,"æ¸ħæ¥ļ":4624,"æĻºæħ§":4625,"çľĭçļĦ":4626,"çľĭä¸Ģä¸ĭ":4627,"çľĭçľĭ":4628,"ä½¿çĶ¨çļĦ":4629,"èĤ²":4630,"èĤ¥çļ":4631,"åı¶èĲ½":4632,"ä½Ĩä»ĸ":4633,"ä½ĨæĪĳä¸įçŁ¥éģĵ":4634,"èĢĮåıĪ":4635,"æ¡Īé¦Ĩ":4636,"ä¸ĸçķĮåľ°åĽ¾":4637,"ä¸ĸçķĮå¤§æĪĺ":4638,"åķ¼":4639,"ãĢĤâĢĿâĢľ":4640,"åıªæľī":4641,"åıªç¾Ĭ":4642,"åıªå°ıçĮª":4643,"ä¸ĢäºĽçĪµå£«":4644,"å¸ĮæľĽä½ł":4645,"å¸ĮæľĽä½łèĥ½":4646,"å¸ĮæľĽè¿ĻäºĽ":4647,"å¸ĮæľĽä½łä¼ļåĸľæ¬¢":4648,"æķ°æį®æĺ¯åħ³äºİ":4649,"æķ°æį®åĴĮéĹ®é¢ĺ":4650,"çĽ®æłĩ":4651,"çĽ®åīį":4652,"ä»£çłģé£İæł¼":4653,"è¿ĺæľīåħ¶ä»ĸä»Ģä¹Ī":4654,"è¿ĺæľīåħ¶ä»ĸåı£åĳ³":4655,"æ¶ķ":4656,"æ¶Ľ":4657,"æľīä»Ģä¹Īåħ¶ä»ĸéĹ®é¢ĺ":4658,"æĤ¨çļĦè¦ģæ±Ĥ":4659,"æĤ¨çļĦæĮĩä»¤":4660,"èĥ½å¤Łæ»¡è¶³æĤ¨çļĦ":4661,"å¼ķäººåħ¥":4662,"åİĨæ³ķ":4663,"åİĨä¸ŃçļĦ":4664,"è°¢è°¢ä½łçļĦè§£çŃĶ":4665,"èĬ±é¦Ļ":4666,"éĽ¨å¤©":4667,"åħ·ä½ĵçļĦå®ŀ":4668,"ç¨ĭåº¦":4669,"èĦĤ":4670,"èĦĨ":4671,"èĦļ":4672,"ä½łèĥ½æİ¨èįĲ":4673,"ä½łèĥ½ä¸įèĥ½":4674,"å®¶çĮ«":4675,"åĪĨç±»éĢīé¡¹":4676,"ç®Ĺæ³ķ":4677,"æĲº":4678,"çĥ¹é¥":4679,"çĥŁåĳ³":4680,"ä¸İæĪĳä»¬":4681,"ä¸İæ°§æ°Ķ":4682,"ä¸İçī©ä½ĵçļĦè´¨éĩı":4683,"ä¸ļè®¡åĪĴ":4684,"ä¸ļçĶŁäºº":4685,"æĺ¯åĵªä¸Ģå¹´":4686,"æĺ¯åĲ¦éľĢè¦ģ":4687,"æĺ¯åĲ¦è¿ĺæľīåħ¶ä»ĸ":4688,"æĺ¯åĲ¦æľīå¿ħè¦ģ":4689,"è¯·åĳĬè¯īæĪĳæĤ¨éľĢè¦ģ":4690,"è¯·åĳĬè¯īæĪĳæĤ¨æĥ³è¦ģ":4691,"è¿ĻäºĽéĹ®é¢ĺ":4692,"è¿ĻäºĽåĬ¨çī©":4693,"è¿ĻäºĽæķ°æį®æĺ¯åħ³äºİ":4694,"åĨ³å®ļ":4695,"åĨ³èµĽ":4696,"å¯¼åĩºä¸ºPDF":4697,"æĽ´å¤ļçļĦ":4698,"æĽ´å¤ļåħ³äºİ":4699,"åģļçļĦåĲĹ":4700,"åģļäºĨä»Ģä¹Ī":4701,"åģļä½ľä¸ļ":4702,"é¸Łè¯Ń":4703,"é¸Łé¸£":4704,"é¸Łä¼ļé£ŀ":4705,"æļ´":4706,"æļĳæ°Ķ":4707,"å¤ıåŃ£":4708,"è¯·æıĲä¾ĽæĽ´åħ·ä½ĵçļĦä¿¡æģ¯":4709,"å¦Ĥä½ķåĲĹ":4710,"å¿«çļĦ":4711,"çİ°åľ¨è¯·ä½łæĬĬ":4712,"å®ĥä»¬ä¹ĭéĹ´çļĦ":4713,"ä¹ĭéĹ´åıĳçĶŁ":4714,"æİ¨èįĲä¸Ģæľ¬":4715,"åĮĹäº¬çļĦ":4716,"åĮĹäº¬çļĦå¤©æ°Ķ":4717,"åĮĹäº¬ä»Ĭå¤©":4718,"åĮĹäº¬çļĦå¹³åĿĩ":4719,"æ£®":4720,"æ£ĺæīĭ":4721,"å¤įè®®":4722,"åħ¨æĸ°äº§åĵģ":4723,"åħ¨åĽ½æľĢå¤§çļĦ":4724,"ä¸ªäººä¸Ń":4725,"ä¸ªäººä»½":4726,"è¦ģæ±ĤåĽŀçŃĶ":4727,"ä¿Ŀæļĸ":4728,"å¦ĤæŀľæĤ¨éľĢè¦ģ":4729,"å¦ĤæŀľæĤ¨æľīä»»ä½ķ":4730,"å¦ĤæŀľæĤ¨éľĢè¦ģåħ¶ä»ĸ":4731,"çĭĹåĴĮ":4732,"çĭĹé£Łåĵģ":4733,"çĮ«æĺ¯":4734,"çĮ«åĴĮèĢģ":4735,"èĲ½ä¸ĭ":4736,"åħ³éĶ®çĤ¹":4737,"åħ³éĶ®åŃĹ":4738,"çģµ":4739,"çģ¼":4740,"çĻ»å±±":4741,"éħ¸":4742,"åı·çº¿":4743,"ä¸Ģç§įåı£åı·":4744,"åħĥæľĿ":4745,"åĲ«æľī":4746,"åĩłä¹İ":4747,"ç§ĳåĬ¨çī©":4748,"ç§ĳæ¯Ķåľ¨":4749,"é£ŀçļĦ":4750,"æĥħåĨµä¸ĭ":4751,"æĪĳä¼ļå°½éĩı":4752,"ç¤ºä¾ĭ":4753,"10000":4754,"çĬ¯":4755,"æĺ¥å¤©çļĦ":4756,"æĺ¥æļĸ":4757,"æĪĳéľĢè¦ģæĭ¿":4758,"ä¹Łèĥ½":4759,"åĽĽæº":4760,"çİ¯çĲĥèĪª":4761,"æ³¨æĺİä¸İ":4762,"æĪĸèĢħéľĢè¦ģæĽ´å¤ļ":4763,"æīĢæľīæķ°åŃĹ":4764,"æīĢæľīéĶĢåĶ®":4765,"ä¸¤ä¸ªåĵģçīĮ":4766,"ä¸¤ä¸ªä¸įåĲĮçļĦ":4767,"ç»ĵæŀľæĺ¯":4768,"ç»ĵæŀľåĽĽèĪįäºĶåħ¥åĪ°å°ıæķ°çĤ¹åĲİ":4769,"ç¦»å¼Ģ":4770,"èĭı":4771,"çļĦåı¥åŃĲä¸º":4772,"æµģæ´¾":4773,"æ¬¡æķ°":4774,"æ¬¡æĸ¹":4775,"æ¬¡ä¸ĸçķĮå¤§æĪĺ":4776,"ç®Ģè¦ģ":4777,"ç®ĢçŁŃçļĦ":4778,"ç®Ģæĺİæī¼è¦ģ":4779,"Ġä¸ºä»Ģä¹Īè¿Ļä¸ª":4780,"Ġä¸ºä»Ģä¹ĪæĪĳçļĦç¨ĭåºı":4781,"çĶ±äºİé¢ĺçĽ®":4782,"çĶ±äºİæľªçŁ¥":4783,"éĢīæĭ©éĢĤå½ĵ":4784,"åĻ¨æĿĲ":4785,"åĻ¨æĹ¶ä»£":4786,"å¤ľç©º":4787,"å¤ľå¹ķ":4788,"åĪ¤åĨ³":4789,"é¢Ĩå¯¼":4790,"æľīè¶£çļĦç¬ĳè¯Ŀ":4791,"é£ĺéĽ¶":4792,"é£Łè°±":4793,"åĵªäºĽçī©åĵģ":4794,"åĵªäºĽæ¤įçī©":4795,"è¯Ńè¨ĢçļĦ":4796,"è¾¹éķ¿":4797,"çĭ¬èĩª":4798,"çĭ¬çī¹":4799,"æ»¡æĦı":4800,"åĢ¼æĺ¯":4801,"åĢ¼å¾Ĺ":4802,"åĢ¼çļĦä½įç½®":4803,"èıľåĵģ":4804,"æĲľç´¢éĻĦè¿ĳçļĦ":4805,"å§ĵåĲį":4806,"åĶ±":4807,"åĶĩ":4808,"åĶ¾æ¶":4809,"çļĦä¿¡æģ¯åĴĮ":4810,"æĪ·å¤ĸ":4811,"å®ŀçİ°":4812,"å®ŀè·µ":4813,"çŃĶæ¡Īæĺ¯":4814,"åľ°çĲĥçļĦå¹³åĿĩ":4815,"åľ°çĲĥçļĦåį":4816,"æİ¥è§¦":4817,"æĶ¹åĨĻ":4818,"æĶ¹åıĺ":4819,"è¯·éĹ®ä½łæľīä»Ģä¹Ī":4820,"è¯·éĹ®ä½łåľ¨åĵªä¸ªåŁİå¸Ĥ":4821,"è¯·éĹ®ä½łæīĢåľ¨çļĦåŁİå¸Ĥæĺ¯åĵªéĩĮ":4822,"è¯·éĹ®ä½łéģĩåĪ°äºĨ":4823,"ç¾İåĽ½æľĢå¤§":4824,"åĮħæĭ¬èĩªçĦ¶":4825,"ç¼ĸåĨĻ":4826,"æľĢé«ĺçļĦå»ºçŃĳ":4827,"æľĢé«ĺçļĦæľĪä»½":4828,"å®ĮæĪĲè¿Ļä¸ªä»»åĬ¡":4829,"çıŃçī":4830,"èİ«":4831,"ä¸ĩçī©":4832,"åĪ¶å®ļ":4833,"åĪ¶åĵģ":4834,"åĪ¶éĢł":4835,"è®ºæĸĩ":4836,"äºĨè§£ä»Ģä¹Ī":4837,"çĶ¨ä¸Ģåı¥è¯Ŀæ¦Ĥæĭ¬":4838,"æŃ¥éª":4839,"ç«Ļåľ¨":4840,"ç«Ļåľ°":4841,"è¡¨è¾¾å¯¹":4842,"åħ¬åı¸æľĢè¿ĳä¸ļ":4843,"é»Ħå·¢èµ·ä¹ī":4844,"çĻ½èī²":4845,"çĻ½å¤©çļĦæ°Ķæ¸©":4846,"éŁ§":4847,"ĠéĿŀå¸¸æĦŁè°¢":4848,"è¯ĦåĪĨ":4849,"è¯Ħå®ļ":4850,"åıįå¯¹åº¦":4851,"è¿Ļé¦ĸè¯Ĺ":4852,"è¿Ļé¦ĸæŃĮ":4853,"è¿Ļé¦ĸæŃĮæĽ²":4854,"èĥ½åĲ¦ç»ĻæĪĳæİ¨èįĲ":4855,"æīĵæįŀèĪ¹":4856,"å¼łå½¢è±¡":4857,"å¼łä¸īæľĢåĸľæ¬¢":4858,"åİŁåŃĲçļĦ":4859,"åľ°åĮºèĢĮå¼Ĥ":4860,"ä»ĸä»¬ä¹ĭéĹ´çļĦ":4861,"æĶ¯åĩº":4862,"é¦Ļåĳ³":4863,"é¦Ļèķ":4864,"è¿ĺæĺ¯ä¸ŃæĢ§":4865,"è¿ĺæĺ¯æĦŁåı¹åı¥":4866,"ä¸»è¦ģè®²":4867,"ä¸»è¦ģæĬĢæľ¯":4868,"æ´»åĬĽ":4869,"åĵªä¸ªåŁİå¸ĤçļĦå¤©æ°ĶæĥħåĨµåĳ¢":4870,"æ·±æĢĿ":4871,"ç½ĳä¸Ĭ":4872,"è¥¿çıŃçī":4873,"Ġä»İç»Ļå®ļçļĦ":4874,"Ġä»İæĸĩç«łä¸ŃæıĲåıĸåĩº":4875,"åı¤é£İ":4876,"åı¤åºĻ":4877,"å¤Ħäºİåĵªä¸ªåŁİå¸Ĥ":4878,"å¥¹çļĦ":4879,"å¥¹åĩºçĶŁ":4880,"å¥¹æĮĩçļĦæĺ¯":4881,"å¥¹åĸľæ¬¢æĸĩåŃ¦":4882,"åĳ½åĲį":4883,"ä¸ŃåĽ½åı¤ä»£":4884,"ä¸ŃåĽ½åİĨåı²ä¸Ĭ":4885,"æĿ¡è¾¹":4886,"æĿ¡æ¬¾":4887,"åįİæ°ıåº¦":4888,"åįİçļĦè¡Ĺ":4889,"éĩĳå±ŀ":4890,"éĩĳçīĮ":4891,"éĩĳé¢Ŀ":4892,"æĦŁåĪ°çĦ¦èĻĳ":4893,"æĦŁåĪ°æĦīæĤ¦":4894,"æĸĩç«łä¸ŃæıĲåıĸ":4895,"ä»»åĬ¡åĲĹ":4896,"ä»»åĬ¡éľĢè¦ģæĪĳ":4897,"æĪĳä¼ļå°½åĬĽä¸ºæĤ¨æıĲä¾Ľå¸®åĬ©":4898,"åĪ¤æĸŃåħ¶":4899,"ç¢³":4900,"äº¤åª":4901,"äº¤ç»ĩ":4902,"ä¸Ģæ®µæĸĩæľ¬":4903,"å®īæİĴ":4904,"å®īè£ħ":4905,"ç»¿åı¶":4906,"ç»Łæ²»":4907,"çīĩåĪ»":4908,"éĤ®ç®±":4909,"çļĦç¾İæĻ¯":4910,"æĶ¶ä»¶ç®±":4911,"è¶³å¤Ł":4912,"éĺŁä¼į":4913,"èĤīç±»":4914,"èĤīéħ±":4915,"èĤīä¸²":4916,"æľªæĿ¥åįģ":4917,"æľªæĿ¥å·¥ä½ľ":4918,"çĬ¶æĢģ":4919,"æ¨±èĬ±":4920,"ĠéĤ£ä¹Īè¯·":4921,"ĠéĤ£ä¹Īè¯·éĹ®":4922,"ĠéĤ£ä¹Īè¯·ä½ł":4923,"Ġç»Ļå®ļä¸Ģä¸ª":4924,"Ġç»Ļå®ļä¸Ģåı¥è¯Ŀ":4925,"å¤ĸçļĦ":4926,"è¿Ĳä¼ļ":4927,"ä½łåı¯ä»¥éĢļè¿ĩ":4928,"æķ´æķ°è¿Ĳ":4929,"ä¾¿åĪ©":4930,"çļĦçŁĽçĽ":4931,"æ¸¸æ³³":4932,"æĻ´ç©ºä¸ĩéĩĮ":4933,"èĢģå¸Ī":4934,"èĢģäººåĿĲ":4935,"åħ¶ä¸ŃåĮħæĭ¬":4936,"åħ¶ä¸ŃåĮħåĲ«":4937,"å¯¹è¯Ŀç³»ç»Ł":4938,"åĨĻä¸Ģé¦ĸä¸ĥ":4939,"å¸®åĬ©æĤ¨è§£åĨ³éĹ®é¢ĺ":4940,"æŁĲç§į":4941,"èįīå¦ĤèĮ":4942,"ç»ĻæĪĳä¸Ģä¸ªä¾ĭåı¥":4943,"è®¡ç®Ĺç»ĵæŀľåĽĽèĪįäºĶåħ¥åĪ°å°ıæķ°çĤ¹åĲİ":4944,"çĪ±æĥħçĶµå½±":4945,"æĢ»ç»ĵä¸Ģä¸ĭ":4946,"æĢ»ç»ĵè¿Ļç¯ĩæĸĩç«ł":4947,"ä½Ĩæĺ¯æĪĳ":4948,"ä¸ĸçķĮä¸ĬæľĢé«ĺçļĦå±±":4949,"çĥŃçĤ¹æĸ°éĹ»":4950,"è¾ĵåħ¥æķ°æį®":4951,"å¹¿åĳĬéĤ®ä»¶":4952,"å¹¿åĳĬæłĩè¯Ń":4953,"æīĢåľ¨çļĦåŁİå¸ĤåĲĹ":4954,"åĵºä¹³åĬ¨çī©çļĦä¾ĭåŃĲ":4955,"æĴ¤ç¦»":4956,"æĴ°åĨĻä¸Ģç¯ĩ":4957,"éª¨å¤´":4958,"é¹¦é¹":4959,"ĠæĪĳè¦ģ":4960,"Ġè¯·éĹ®è¿Ļ":4961,"Ġå¤ªéĺ³":4962,"è¿Ļæ®µæĸĩåŃĹ":4963,"åĨ°å±±":4964,"ä¸Ģä¸ªæĸ°çļĦåĵģçīĮåĲįç§°":4965,"ä¸įæĺ¯æīĢæľī":4966,"ä¸įæĺ¯ç´łæķ°":4967,"éĹ®é¢ĺéľĢè¦ģå¸®å¿Ļ":4968,"åĮ»éĻ¢":4969,"è¿Ļä¸ªåı¥åŃĲæĶ¹æĪĲ":4970,"æĽ´åĬłçĽ´æİ¥":4971,"åĸĿéĽĦé»Ħ":4972,"åĨĻä¸Ģä¸ªæłĩé¢ĺ":4973,"éļ¾é¢ĺ":4974,"éļ¾ä»¥åħ¥":4975,"è¡¨æł¼å¯¼åĩºä¸ºPDF":4976,"çº¢èī²è½¿è½¦":4977,"å±ŀäºİæ°´æŀľ":4978,"å±ŀäºİæŃ£éĿ¢":4979,"éĻĦè¿ĳæľīä»Ģä¹Ī":4980,"éĻĦè¿ĳçļĦçĭĹ":4981,"AIæľºåĻ¨äºº":4982,"ĠéĤ£å¦Ĥæŀľ":4983,"Ġå¦Ĥæŀľä¸Ģä¸ªäºº":4984,"ä¸ľçľģ":4985,"ä»·æł¼":4986,"ä»·æĢģ":4987,"ä»·åĢ¼":4988,"äºĮæ®µ":4989,"æĪĳå°Ĩä¸ºæĤ¨":4990,"ä¹°äºĨ":4991,"è¯·æĤ¨åĳĬè¯īæĪĳ":4992,"è¯·æĤ¨æıĲä¾Ľåħ·ä½ĵçļĦ":4993,"è¿Ļåı¥è¯Ŀæĺ¯ç§¯æŀģçļĦ":4994,"æĹ©é¤Ĳ":4995,"æĹħæ¸¸":4996,"ä¼ĺçĤ¹":4997,"åĩĨæĹ¶":4998,"åĩĨå¤ĩ":4999,"åĩīçĪ½":5000,"åĩīé£İè½»è½»":5001,"è°ĥæĸĻ":5002,"è°ĥçļ®":5003,"åį°è®°":5004,"éģĩåĪ°çļĦéĹ®é¢ĺ":5005,"å®ĥçļĦä½ĵæ¸©":5006,"ç§ĭé£İåĲ¹":5007,"æ¸©åº¦çº¦":5008,"æ¸©åº¦éĢĤå®ľ":5009,"æľºåĻ¨åŃ¦ä¹ł":5010,"èģĬå¤©åĲ§":5011,"Ġæł¹æį®ä»¥ä¸ĭåħ³éĶ®è¯įåĨĻä¸Ģç¯ĩæĸĩç«ł":5012,"è¯·éĹ®æĤ¨éľĢè¦ģæŁ¥è¯¢":5013,"å¦ĤæŀľæĤ¨è¿ĺæľīåħ¶ä»ĸéľĢè¦ģ":5014,"æīįèĥ½åĽŀçŃĶ":5015,"æīįèĥ½ç¡®å®ļ":5016,"å·´é»İåľ£æ¯į":5017,"æ¨¡å¼ı":5018,"çĵ¦":5019,"éĵºè½¬":5020,"éĵħç¬Ķ":5021,"ï¼īï¼Į":5022,"çļĦå¹³åĿĩåįķè¯į":5023,"çļĦå¹³åĿĩåĢ¼":5024,"å¥³æĢ§":5025,"å¥³çĶŁæĺ¯æĪĳçļĦ":5026,"åľ¨äºİæ¯ıä¸ªäºº":5027,"æĤ¨åı¯ä»¥éĢīæĭ©":5028,"æĤ¨åı¯ä»¥æĶ¾å¿ĥ":5029,"ä¸ºä½łè§£çŃĶ":5030,"è®°å¾Ĺ":5031,"è®°å½ķ":5032,"æłĳæľ¨":5033,"è°ģæĺ¯":5034,"ä¸įä¼ļä¸ĭéĽ¨":5035,"ä¸įä¼ļé£ŀçļĦ":5036,"æĿ¯åŃĲ":5037,"äººä»¬éľĢè¦ģçĿ¡è§ī":5038,"å¤©æ°Ķé¢ĦæĬ¥æľºåĻ¨äºº":5039,"æ²³é©¬":5040,"æ²³æĺ¯åį°åº¦":5041,"ä½ľä¸ºä¸Ģä¸ª":5042,"ä½ľä¸ºè¯Ńè¨Ģæ¨¡åŀĭ":5043,"ä½ľä¸ºAIè¯Ńè¨Ģæ¨¡åŀĭ":5044,"æ¬¢è¿İæĿ¥åĪ°":5045,"åıĳå±ķçļĦä¸¤":5046,"ç§ĭå¤©çļĦåĩīé£İè½»è½»":5047,"è®©æĪĳå¸®æĤ¨":5048,"æŃ£ç¡®çļĦ":5049,"èģĶèµĽ":5050,"æľĢè¿ĳçļĦæĸ°éĹ»":5051,"çİ¯ä¿Ŀä¸įåºĶè¯¥":5052,"å¡«ç©º":5053,"æĳĦå½±å®¶":5054,"æ¤įè¢«":5055,"è¯¦ç»ĨåĽŀçŃĶ":5056,"èĵĿå¤©çĻ½äºĳ":5057,"åĴĸåķ¡åİħ":5058,"å¦Ī":5059,"å¦ĥçļĦ":5060,"Ġåı¯ä»¥åĨįç»ĻæĪĳä¸Ģä¸ª":5061,"çļĦè¯Ŀé¢ĺåĲĹ":5062,"ä¸Ģç»Ħæķ°æį®":5063,"å¥ĩæķ°":5064,"å¥ĭæĸĹ":5065,"å°ģå¹¿åĳĬéĤ®ä»¶":5066,"åĳ¨éķ¿":5067,"å¾®ç¬ĳ":5068,"æĿ¾é¼ł":5069,"æ¸Ĳåıĺ":5070,"æ¸Ĳæ¸Ĳåıĺ":5071,"æĦŁåıĹåĴĮ":5072,"çŁ³çļĦé¢ľèī²":5073,"çŁ³æ¦´":5074,"çŁ³åĻ¨æĹ¶ä»£":5075,"ä¸»æĹ¨æĢĿæĥ³":5076,"è´¹çĶ¨":5077,"è´¹èĢħ":5078,"è´ŁåĢºè¡¨":5079,"åħ¬éĩĮçļĦ":5080,"ç§ĭå¤©çļĦç¾İæĻ¯":5081,"æŃĮæĽ²åĲįç§°åĴĮ":5082,"ä»Ĭå¤©å¤©æ°Ķå¾Īå¥½":5083,"æĪĳåı¯ä»¥ä¸ºæĤ¨æŁ¥æī¾":5084,"ç©ºæ°Ķæ¸ħæĸ°":5085,"æ¶Īæģ¯":5086,"æ¶ĪæŀģçļĦ":5087,"æ¶Īè´¹èĢħ":5088,"æ¼Ķå¥ı":5089,"åħ¨çĲĥæľĢå¤§çļĦ":5090,"åħ¨çĲĥåıĺæļĸ":5091,"éħįä¸ĬæĦıå¤§åĪ©":5092,"ç§ĳæĬĢåıĺéĿ©":5093,"ç§ĳæĬĢå¸¦æĿ¥çļĦæĮĳæĪĺ":5094,"æĦīå¿«çļĦæĹ¶åħī":5095,"å©īè½¬":5096,"èħ°æŀľ":5097,"Ġå°Ĩä»¥ä¸ĭåı¥åŃĲ":5098,"Ġå°Ĩä»¥ä¸ĭæĸĩæľ¬":5099,"ĠåĨĻä¸Ģé¦ĸäºĶè¨Ģç»Ŀåı¥":5100,"ĠåĨĻä¸Ģé¦ĸäºĶè¨Ģè¯Ĺ":5101,"çļĦåį±":5102,"çļĦåįļçī©é¦Ĩ":5103,"åı¦ä¸Ģè¾¹":5104,"å¤±åİ»":5105,"å¤±èĲ½":5106,"å¤ĩæ³¨":5107,"æĸ¯åį¡":5108,"åĽ¢ä½ĵ":5109,"åĵĪåĵĪ":5110,"èĥ½å¸®æĪĳåĩº":5111,"æŀ«åı¶çº¢":5112,"æıĲåĪ°çļĦä¸»è¦ģæĬĢæľ¯":5113,"éĩĩè´Ń":5114,"æĪĲåĬŁçļĦç§ĺ":5115,"æĪĲåĬŁæĴ¤ç¦»":5116,"å¸®åĪ°ä½ł":5117,"çĶŁåĳ½åľ¨äºİè¿ĲåĬ¨":5118,"è§Ĩé¢ĳ":5119,"æ³¢çī¹":5120,"æķ°åŃĹæ¡£":5121,"æķ°åŃĹè´§":5122,"çĤİçĤİ":5123,"ä½įäºİåĸľé©¬æĭīéĽħå±±èĦī":5124,"ä»Ĭå¤©çļĦå¤©æ°ĶæĻ´æľĹ":5125,"ä»Ĭå¤©åĮĹäº¬çļĦå¤©æ°Ķé¢ĦæĬ¥":5126,"èĲ¥åħ»":5127,"ç¤¾åĮº":5128,"ç¤¾äº¤åª":5129,"éĢļå¸¸æĺ¯":5130,"ç»ĨèĬĤéĥ¨åĪĨ":5131,"æ³¨æĦıçļĦ":5132,"æ³¨æĦıä¿Ŀæļĸ":5133,"ç¥ŀå¥ĩ":5134,"å®īåħ¨éĢłæĪĲ":5135,"å®īåħ¨éĹ®é¢ĺçļĦä¸īä¸ª":5136,"çļĦç¾İå¥½åį°è®°":5137,"èĳĹåĲįäººå£«":5138,"èĳĹåĲįçļĦåįļçī©é¦Ĩ":5139,"èİ·å¾ĹæĢ»åĨłåĨ":5140,"æ¤įçī©çķĮ":5141,"åĥıè¯ĬæĸŃ":5142,"å·§åħĭåĬĽèĽĭç³ķ":5143,"å¨±ä¹Ĳ":5144,"æ½º":5145,"æ½ľ":5146,"æĵ¦":5147,"è£ħæ»¡":5148,"çļĦçŃĶæ¡ĪåĴĮæķ°æį®":5149,"äºĴåĬ©":5150,"åĲĦä¸ª":5151,"ï¼ŁâĢĿ<|":5152,"åľ¨åħ¬åĽŃéķ¿æ¤ħä¸Ĭ":5153,"æĤ²æŃĮ":5154,"å°¼äºļ":5155,"åĨľä¸ļ":5156,"èĥ½ä¸įèĥ½åĨįåĬłä¸Ĭä¸Ģåı¥":5157,"è®¸å½ĵåľ°æĶ¿åºľ":5158,"æĸĩåŃ¦ä½ľåĵģ":5159,"æŀĹéĹ´":5160,"éľĢè¦ģå¸®åĬ©çļĦåľ°æĸ¹":5161,"ä¾Ŀæį®":5162,"ä¾Ŀèµĸ":5163,"åĵªç§įåĬ¨çī©":5164,"å·®æİĴåºı":5165,"è¿Ļä¸ªéĹ®é¢ĺçļĦçŃĶæ¡Ī":5166,"æĦŁåħ´è¶£åĳ¢":5167,"éĻ¤ä»¥":5168,"é£İæł¼åĴĮçī¹çĤ¹":5169,"åĿļéŁ§":5170,"ç¼ĵç¼ĵ":5171,"é»ĳæ¡ĥ":5172,"åĪĽéĢłä¸Ģä¸ª":5173,"ç¦ıå°¼äºļ":5174,"åķĨåºĹ":5175,"åķĨä¸ļè®¡åĪĴ":5176,"åķĨéĵºè½¬":5177,"å¼ķè¿°ä¸Ģæ®µ":5178,"å¾Īé«ĺåħ´èĥ½ä¸ºæĤ¨æıĲä¾Ľå¸®åĬ©":5179,"çģ¯çļĦé¢ľèī²":5180,"éħĴç²¾":5181,"ç¼ĸç¨ĭè§ĦèĮĥ":5182,"åĪ¶ä½ľæĸ¹æ³ķåĴĮ":5183,"åĪ¶ä½ľåĩºç¾İåĳ³":5184,"æĪ¿éĹ´éĩĮ":5185,"æĪ¿éĹ´çļĦæĿ¡ä»¶":5186,"ä¸ĸçķĮä¸ĬæľĢé«ĺçļĦå±±å³°æĺ¯ä»Ģä¹Ī":5187,"æ¥¼æĪ¿":5188,"çıłç©ĨæľĹçİĽå³°æĺ¯":5189,"ç¬¦åĲĪè¦ģæ±ĤçļĦ":5190,"ç¬¦åĲĪæĤ¨è¦ģæ±ĤçļĦ":5191,"åł¡åºĹ":5192,"çĳŀ":5193,"ä¸ĥçĤ¹":5194,"åĬ±äººå¿ĥ":5195,"è¿Ļéģĵé¢ĺ":5196,"è¿Ļéģĵèıľ":5197,"è¿Ļéģĵé¤ĲçĤ¹":5198,"è¿ĻéĩĮæĺ¯":5199,"è¿Ļæł·åı¯ä»¥":5200,"è¿Ļä¸¤ä¸ªè¯į":5201,"è¿Ļä¸¤ä¸ªåįķè¯į":5202,"åĳ¼åĲ¸æ°§æ°Ķ":5203,"ä¸įéľĢè¦ģåĳ¼åĲ¸æ°§æ°Ķ":5204,"åºķéĥ¨":5205,"æĿİçĻ½":5206,"æĿİåįİ":5207,"åį«çĶŁ":5208,"å¹²çĩ":5209,"å¹²æĹ±":5210,"æĪĲä¸ºä¸Ģç§įåı£åı·":5211,"å¯Ĩåº¦":5212,"å¯Įæľī":5213,"çİĭæĺİ":5214,"çİĭå¦ĥçļĦ":5215,"åĩºçĶŁåľ°":5216,"åĩºçĶŁä¸Ģä¸ªæľĪ":5217,"ä¼ļè®®å®¤":5218,"æĬĹçĶŁç´ł":5219,"ç«¯åįĪ":5220,"åĪĨåĪ«æĺ¯":5221,"èµŀè®¸å½ĵåľ°æĶ¿åºľ":5222,"æ²¹æ°ĶåĤ¨":5223,"æ²¹èĦĤ":5224,"æ±½æ°´":5225,"æ±īæľĿ":5226,"æ±īåł¡åºĹ":5227,"éĻĪè¿°åı¥":5228,"çİ°åľ¨æĪĳæĥ³è®©ä½ł":5229,"å¦Ĥæŀľä½łæľīåħ¶ä»ĸéĹ®é¢ĺ":5230,"Ġè¯·ä»İæĸĩç«łä¸ŃæıĲåıĸåĩº":5231,"Ġè¯·ä»İä¸ĬéĿ¢çļĦ":5232,"å¿ĥæĥħæĦīå¿«":5233,"å¿ĥæĥħå¾ĪæĦīå¿«":5234,"æ´Ĺæīĭ":5235,"å¼ĢæĶ¾å¼ıéĹ®é¢ĺ":5236,"å®¢æĪ·çļĦæĭĵå±ķ":5237,"è¿ĺæľīä»Ģä¹ĪéľĢè¦ģ":5238,"ä¸»é¢ĺæĺ¯çĪ±æĥħ":5239,"èĪįå¼ĥ":5240,"è¿Ļæĺ¯ç¬¬ä¸Ģæ®µ":5241,"è¿Ļæĺ¯ç¬¬ä¸īæ®µ":5242,"è¿Ļæĺ¯ç¬¬äºĮæ®µ":5243,"çī¹å®ļçļĦ":5244,"æ¼«å¤©":5245,"æ¼«æŃ¥":5246,"èĭ±æĸĩ":5247,"æľīè¶£çļĦè°ľè¯Ń":5248,"æİ¥ä¸ĭæĿ¥çļĦ":5249,"åħ¬åı¸çļĦåĩĢèµĦäº§":5250,"åħ¬åı¸çļĦæĪĲç«ĭ":5251,"æ·±æµ·ä¸ŃçļĦçĶŁçī©":5252,"æ·±æµ·æīĵæįŀèĪ¹":5253,"æ·±æµ·åºķéĥ¨":5254,"ç½ĳç»ľå®īåħ¨éĹ®é¢ĺçļĦä¸īä¸ª":5255,"èĥľåľ°":5256,"è®¡ç®Ĺæľºç¼ĸç¨ĭ":5257,"è¿Ļæ®µæĸĩæľ¬çļĦå¹³åĿĩåįķè¯į":5258,"åĲ¬èµ·æĿ¥å¾Īæ£Ĵ":5259,"æĳĦæ°ıåº¦ä¹ĭéĹ´":5260,"æĺ¯æĺŁæľŁä¸ī":5261,"185":5262,"åĤįæĻļ":5263,"çªģ":5264,"çªĹæĪ·":5265,"çļĦè½¦ä»·":5266,"ä»ħä»ħ":5267,"æĺ¯æĮĩåĵªäºĽ":5268,"å®ľäºº":5269,"ç»©æķĪ":5270,"ç»©ä¸įå¤ªå¥½":5271,"æ°ĳäºĭæ¡Īä»¶":5272,"æĤłçĦ¶":5273,"ä¸įå¤ªå¯¹":5274,"çİ©åħ·":5275,"æľĢä½³å½±çīĩ":5276,"éĿĴå±±":5277,"ä¸Ĭæµ·çļĦèĬ±åįī":5278,"æįķæįī":5279,"å½ĵæĪĳåĲ¬åĪ°":5280,"çļĦçĲĨçĶ±åĴĮ":5281,"å¤ļæł·æĢ§":5282,"è¯·éĹ®æľīä»Ģä¹ĪéľĢè¦ģå¸®åĬ©":5283,"æĽ´å®¹æĺĵçĶŁçĹħ":5284,"çº·æİī":5285,"çº·çº·æİī":5286,"æģĴæ²³æĺ¯åį°åº¦":5287,"æ±Łæ°´":5288,"éĽªç¢§":5289,"æµ·æ´ĭåŀĥåľ¾":5290,"å¹³æĸ¹æł¹":5291,"åİ»åħ¬åĽŃè·ĳæŃ¥":5292,"åĲĪçĲĨçļĦè§£éĩĬ":5293,"éĩįæĸ°ç»ĦæĪĲ":5294,"éĩįåĬĽæĺ¯ä¸Ģç§į":5295,"ç»Ļå®ļçļĦæĸĩæľ¬çĶŁæĪĲä¸Ģä¸ª":5296,"åı¯èĥ½ä¼ļå¯¹":5297,"éĢīé¡¹ä¸Ń":5298,"çľĭèµ·æĿ¥å¾Ī":5299,"ç»ıæµİçĬ¶åĨµ":5300,"æ¶īå«Į":5301,"å®Įæķ´åı¥åŃĲ":5302,"ç¬¬ä¸Ģä½įæĢ»ç»Ł":5303,"çİ°åľ¨è¯·ä½łå°Ĩè¿Ļä¸ªåı¥åŃĲ":5304,"çİ°åľ¨è¯·ä½łçĶ¨ä¸Ģåı¥è¯Ŀæııè¿°å¤ıå¤©çļĦ":5305,"å¤įæĿĤåº¦":5306,"å½¢å¼ıæĺ¯":5307,"éĺ³åħīæĺİåª":5308,"å¡ĳæĸĻæ¡¶":5309,"å¡ĳæĸĻåĪ¶åĵģ":5310,"ç¾İåĽ½çĭ¬ç«ĭæĹ¥":5311,"åĦ¿ç«¥æ¸¸æĪı":5312,"é¡¹çĽ®å»¶":5313,"å¢ŀéķ¿çİĩ":5314,"æŁĲä¸ªåŁİå¸Ĥ":5315,"å¾Īé«ĺåħ´èĥ½å¤Łå¸®åĪ°æĤ¨":5316,"æ²Ļæ¼łåĲįç§°":5317,"åģ¥èº«åĻ¨æĿĲ":5318,"æĬ¥åĳĬä¸Ńæ³¨æĺİä¸İ":5319,"æĬ¥åĳĬä¸ŃæıĲåĪ°çļĦä¸»è¦ģæĬĢæľ¯":5320,"éĨīæĦı":5321,"ä»¥ä¾¿æĪĳæĽ´å¥½åľ°":5322,"æĹħè¡ĮçļĦéĹ®é¢ĺ":5323,"åŃ©åŃĲå¼ĢæĶ¾":5324,"ä¿®æĶ¹å»ºè®®":5325,"èİ·å¾ĹäºĨå¥¥":5326,"æĭ¥æľīæĽ´":5327,"åģıå¥½åĲĹ":5328,"é²¸é±¼æĺ¯åĵºä¹³åĬ¨çī©":5329,"é²¸é±¼åĶ¾æ¶":5330,"åŃĶéĽĢèĪŀ":5331,"æ¬ºè¯ĪéĤ®ä»¶":5332,"æ¬ºè¯ĪçļĦåħ¬åı¸":5333,"åĭ¤ä¿":5334,"åĭĩæķ":5335,"æ©Ļ":5336,"çĩĥ":5337,"èĸĦ":5338,"èľĺèĽ":5339,"ĠåĹ¨":5340,"ĠåĹ¯":5341,"æĪĳçİ°åľ¨å°±åİ»":5342,"æĪĳæŃ£åľ¨åģļä½ľä¸ļ":5343,"éĹ¹éĴŁåĬŁèĥ½":5344,"å¥¥è¿Ĳä¼ļ":5345,"å¥¶ç²ī":5346,"çĶľçĤ¹":5347,"é¢Ŀå¤ĸçļĦ":5348,"æľīåħ¶ä»ĸéľĢè¦ģ":5349,"è¿Ļç§įé£Łåĵģ":5350,"å¤©åľ°éĹ´":5351,"åŃĺåľ¨":5352,"æĤ¨çļĦçĤ¹é¤Ĳ":5353,"åĵ²ä¼¦":5354,"åĨ¬å¤©æ°Ķæ¸©":5355,"ä¸įä¸Ģæł·":5356,"ä¸įä¸Ģèĩ´":5357,"æĥĬåĸľ":5358,"ç§»åĬ¨":5359,"éĹ®é¢ĺåĴĮä¸Ĭä¸ĭæĸĩ":5360,"å¯Ĥå¯ŀ":5361,"åĮĨåĮĨ":5362,"æľĢå¤ļçļĦåģľè½¦åľº":5363,"æľĢä½İæ°Ķæ¸©ä¸º":5364,"æĬµæĬĹ":5365,"æ¯«åįĩçļĦæ°´":5366,"è¿Ļä¸ªæĹ¥æľŁæĺ¯æĺŁæľŁ":5367,"è¿Ļä¸ªæĹ¥æľŁå¯¹åºĶ":5368,"æķ°çłģäº§åĵģ":5369,"æĥ³äºĨè§£åĵªä¸ª":5370,"äºĽä»Ģä¹Īåĳ¢":5371,"æ²īåºķ":5372,"æľ¬åĳ¨åĨħå®ĮæĪĲ":5373,"å°ĨæĿ¥è¢Ń":5374,"æ³ķåĽ½äºº":5375,"å¦Ĥæŀľä½łè¿ĺæľīåħ¶ä»ĸ":5376,"éĿ¢ä¸´çļĦæĮĳæĪĺ":5377,"çľ¼åīį":5378,"ç©¿è¶Ĭ":5379,"è¯¥åľ°åĮºæĺ¥":5380,"åĵªä¸ªé¢ĨåŁŁçļĦ":5381,"åı£æĦŁä»İå¥½åĪ°":5382,"å¾ĹåĪ°çļĦç»ĵæŀľæĺ¯":5383,"æĮĩä»£å¯¹è±¡":5384,"æĺİå¤©çļĦæ°Ķæ¸©":5385,"æĺİå¤©çļĦæ¸©åº¦":5386,"è¯·éĹ®æĤ¨æīĢåľ¨çļĦåŁİå¸Ĥæĺ¯åĵªéĩĮåĳ¢":5387,"æĬĬè¿Ļä¸ªå®¹åĻ¨":5388,"ç¬¬äºĮæ¬¡ä¸ĸçķĮå¤§æĪĺ":5389,"çĬ¬ç§ĳåĬ¨çī©":5390,"çĸĹåĴĮ":5391,"ä¹Łæĺ¯åħ¨åĽ½æľĢå¤§çļĦ":5392,"åĽĽå¤§åĲįæįķ":5393,"åĽĽå¤§åıĳæĺİ":5394,"æīĢæľīçļĦæŃ£åģ¶æķ°":5395,"æīĵåį°æľº":5396,"åįİä¸ºåħ¬åı¸çļĦæĪĲç«ĭ":5397,"ç»Łè®¡ä¸Ģä¸ĭ":5398,"ç»Łè®¡æķ°æį®":5399,"é¼»æ¶ķ":5400,"Ġç»Ļå®ļä¸Ģç»ĦéĹ®é¢ĺ":5401,"ä½łåı¯ä»¥åĳĬè¯īæĪĳä½łæīĢåľ¨çļĦåŁİå¸ĤåĲĹ":5402,"èµĦäº§è´ŁåĢºè¡¨":5403,"æĹ¶éĹ´åĴĮåľ°çĤ¹":5404,"çº¢èī²åĴĮç»¿èī²":5405,"ç¾½æ¯Ľ":5406,"ç¾½ä¹ĭéĹ´åıĳçĶŁ":5407,"èĩªå·±çļĦæ¢¦æĥ³":5408,"çĵ¶æ±½æ°´":5409,"æķ£æĸĩä¸Ń":5410,"æĪĳæľĢè¿ĳæĦŁåĪ°å¾Ī":5411,"æ¼Ķè®²ç¨¿":5412,"æ¼Ķè®²ç¨¿çļĦ":5413,"è·ŁæĪĳèģĬèģĬ":5414,"å®£ä¼łè¯Ń":5415,"åľ¨åħ¬åĽŃéĩĮåº¦è¿ĩ":5416,"è¡£æľįå¤ª":5417,"åĿļæĮģä¸įæĩ":5418,"è¿Ľè¡ĮåĪĨæŀĲåĴĮè§£è¯»":5419,"æİ¥ä¸ĭæĿ¥è¯·ä½ł":5420,"é»Ħèī²å°ıçĲĥæľī":5421,"çļĦçĽ¸åħ³åĨħå®¹":5422,"çļĦçĽ¸åħ³è¯įæ±ĩ":5423,"æ¿ĢåĬ±äººå¿ĥ":5424,"æİ§åĪ¶å·¥åħ·":5425,"è·ĳæŃ¥éŀ":5426,"åī©ä½Ļè½¦ä½įæľĢå¤ļçļĦåģľè½¦åľº":5427,"ä¸ªå°ıæľĭåıĭåľ¨":5428,"å¤§çĨĬçĮ«çļĦåĪĨå¸":5429,"çĪ±åĽłæĸ¯åĿ¦æĺ¯ä»Ģä¹ĪåĽ½ç±į":5430,"åĽĽèĪįäºĶåħ¥åĪ°å°ıæķ°çĤ¹åĲİä¸Ģä½į":5431,"EçļĦæľĢçŁŃ":5432,"èŀį":5433,"éº¦åĵ²ä¼¦":5434,"ĠåĲ¬èµ·æĿ¥å¾Īä¸įéĶĻ":5435,"Ġå¼ķè¿°ä¸Ģåı¥æ¿ĢåĬ±äººå¿ĥ":5436,"įçŃīçīĩåĪ»":5437,"Ľèĭ¦":5438,"çļĦåİ»å¤Ħ":5439,"çļĦå½¢æĢģ":5440,"çļĦåħ³ç³»æĺ¯ä»Ģä¹Ī":5441,"çļĦåºĶçĶ¨ç¨ĭåºı":5442,"çļĦè´Ńçī©åĪĹè¡¨":5443,"æĪ´å¸½åŃĲ":5444,"åıĤåĬł":5445,"ä¸ĢæĶ¯ç¬Ķ":5446,"ä¸Ģåı°æĸ°çĶµèĦĳ":5447,"æĪĳä»Ĭå¤©æĦŁè§īå¾Ī":5448,"æĪĳåĸľæ¬¢è¿Ļä¸ª":5449,"æĪĳçĪ±ä½ł":5450,"æĪĳåıªæĺ¯":5451,"æĺ¯åľ°çĲĥçļĦ":5452,"ä¹±æĹłæİª":5453,"ä¹Ŀåıª":5454,"ä½łçİ°åľ¨æĥ³":5455,"åĪĿä¸Ńæķ°åŃ¦":5456,"ç»´æĬ¤":5457,"åĬŀæ³ķ":5458,"åľ¨å®ĩå®Ļä¸Ń":5459,"æľīçĤ¹çĦ¦èĻĳ":5460,"æľīä¸īåıªå°¾å·´":5461,"è¿ĻæĶ¯éĵħç¬Ķ":5462,"æ°¦æ°Ķæ°ĶçĲĥ":5463,"å°Ĭéĩį":5464,"åĴĮæľĢèĳĹåĲįçļĦåįļçī©é¦Ĩ":5465,"ä¸Ģä¸ªç®ĢåįķçļĦè´Ńçī©åĪĹè¡¨":5466,"ä¸Ģä¸ªçº¢èī²çļĦæĿ¯åŃĲ":5467,"æł¸å¿ĥè§ĤçĤ¹":5468,"çŃĸBçļĦ":5469,"æī¹ç¤º":5470,"æĿ¨ç´«":5471,"æĿĥçļĦåķĨéĵºè½¬":5472,"çīĪæľ¬æİ§åĪ¶å·¥åħ·":5473,"çĶŁæĢģç³»ç»Ł":5474,"ç«¹æŀĹ":5475,"çļĦçĸ¾çĹħ":5476,"çļĦçĹĩçĬ¶":5477,"æ¯ķä¸ļçĶŁäºº":5478,"å¾ĪæľīæĦıæĢĿ":5479,"å¤§æĺİå¹´éĹ´çļĦçļĩå¸Ŀ":5480,"å¤§å°ıåĨĻ":5481,"è¯Ńæ³ķéĶĻè¯¯":5482,"èĢĲå¿ĥåĽŀçŃĶ":5483,"æ¬£åĸľ":5484,"éĻĮçĶŁäºº":5485,"åº¦åģĩèĥľåľ°":5486,"èĬ¬èĬ³":5487,"Ġè¯·ä½łä»İè¿Ļç¯ĩæĸĩç«łä¸Ń":5488,"çĪĨåıĳ":5489,"å¹´è½»äºº":5490,"å¼ĢåıĳèĢħ":5491,"éĿŀå¸¸æĦŁäººçļĦ":5492,"èĲ§çĳŁ":5493,"è¯¥æĢİä¹Īåģļ":5494,"æ»ĭåĳ³":5495,"éĥ½åĸľæ¬¢åĲĥèĤī":5496,"æŃ£å¸¸éĤ®ä»¶":5497,"éļıæĹ¶æĿ¥éĹ®æĪĳ":5498,"éļıæĹ¶éĥ½åı¯ä»¥éĹ®æĪĳåĵ¦":5499,"æł¼å¼ıå¹¶åıĳéĢģ":5500,"åĮĸåĲĪä»·æĢģ":5501,"æĺİå¤©æĹ©ä¸Ĭä¸ĥçĤ¹":5502,"äºĶç»Ŀè¯Ĺ":5503,"åĲ¬åĲ¬ä½łçļĦ":5504,"æİ¨æĸŃåĩº":5505,"çĲĨæĥ³çļĦåİ»å¤Ħ":5506,"å°±ä¸ļæľºä¼ļ":5507,"æ¯ıåıªçĮ«æľīä¸īåıªå°¾å·´":5508,"ä½¿çĶ¨Goog":5509,"ä¸ļåĬ¡æ¨¡å¼ı":5510,"å¾Īé«ĺåħ´æĪĳçļĦåĪĽä½ľ":5511,"è½»æĿ¾åľ°":5512,"çĸ«æĥħ":5513,"åĽĽåŃ£è±Ĩ":5514,"äº§åĵģæĪĸæľįåĬ¡":5515,"è®¾ç½®æĪĳçļĦ":5516,"å¹¿æ³ĽçļĦé¢ĨåŁŁ":5517,"ç®Ģæ´ģæľīåĬĽ":5518,"ä¹¦ç±įåĪĹè¡¨":5519,"å±ķè§Īä¼ļ":5520,"åĶ¯æľī":5521,"åĶĲä»£åıĳçĶŁçļĦ":5522,"å¹³åĿĩåĢ¼åĽĽèĪįäºĶåħ¥åĪ°å°ıæķ°çĤ¹åĲİä¸Ģä½į":5523,"æĳĺè¦ģ":5524,"æĮīä½ĵåŀĭä»İå¤§åĪ°å°ı":5525,"åıįåºĶçĶŁæĪĲ":5526,"åįĩçº§æĪ¿éĹ´çļĦæĿ¡ä»¶":5527,"åİŁå§ĭæĸĩæľ¬":5528,"åı¤åħ¸æĸĩåŃ¦ä½ľåĵģ":5529,"æĪĳä¼ļå°½åĬĽåĽŀçŃĶä½łçļĦéĹ®é¢ĺ":5530,"åĪļæīįçļĦ":5531,"æľªæĿ¥äººå·¥æĻºèĥ½åıĳå±ķçļĦä¸¤":5532,"è¿Ļæ®µè¯ĿçļĦåŃĹæ¯įæĢ»æķ°":5533,"åĨ°ç®±éĹ¨":5534,"æī¾åĪ°æľĢè¿ĳçļĦåĴĸåķ¡åºĹ":5535,"çĹħæ¯ĴçļĦä¼łæĴŃ":5536,"æħĮä¹±æĹłæİª":5537,"Ġè°¢è°¢æĤ¨çļĦæİ¨èįĲ":5538,"ä¿®é¥°åħ³ç³»":5539,"è¶ĬæĿ¥è¶Ĭå¥½":5540,"çŃ¾ç½²çļĦ":5541,"çĸĳéĹ®åı¥è¿ĺæĺ¯æĦŁåı¹åı¥":5542,"ä¼ģé¹ħæĺ¯ä¸Ģç§įé¸Ł":5543,"åĲĦç§įéĹ®é¢ĺ":5544,"åĨľåİĨæĸ°å¹´":5545,"è½¬æį¢æĪĲåįĥåħĭ":5546,"ç¢§ç©ºå¦Ĥ":5547,"åħįè´¹åįĩçº§æĪ¿éĹ´çļĦæĿ¡ä»¶":5548,"è¿Ļé¦ĸè¯ĹæŃĮçļĦä¸Ńå¿ĥæĢĿæĥ³":5549,"èĥĮæĻ¯ä¿¡æģ¯":5550,"åŃ¤çĭ¬çļĦèĢģäººåĿĲ":5551,"ä¼¦æķ¦å¤§æľ¬":5552,"æĽ¿æį¢ä¸º":5553,"çļĦçĲĨæĥ³åº¦åģĩèĥľåľ°":5554,"æ±Łå±±å¦ĤçĶ»":5555,"è´¢ç»ıæĸ°éĹ»æĬ¥éģĵ":5556,"çĪµå£«ä¹ĲæĽ²":5557,"çĶµåŃĲäºĳè¢«æĽ´å¼º":5558,"ç¾İåĽ½çĭ¬ç«ĭå®£è¨Ģæĺ¯åľ¨":5559,"é¥®æĸĻçļĦ":5560,"è®¨è®ºäºĨäººå·¥æĻºèĥ½":5561,"çļĦç¿»è¯ĳè½¯ä»¶":5562,"æİ¢ç´¢æĸ°ä¸ĸçķĮ":5563,"æīĢç»ĻçļĦèµĦæĸĻ":5564,"ä¸īè§Ĵå½¢çļĦåĳ¨éķ¿":5565,"å²Ĺä½įçļĦåĳĺå·¥":5566,"è®¢è´Ńä¸Ģä»½ä¸Ńåı·":5567,"ä¸ĢçĽıå¤©èĬ±":5568,"åĪĺéĤ¦åĴĮé¡¹":5569,"éĶ»çĤ¼èº«ä½ĵ":5570,"1776":5571,"NBAæĢ»åĨ³èµĽ":5572,"ryçļĦåħ¬åı¸":5573,"°åĽ½é¦ĸéĥ½":5574,"²èħºäº§çĶŁçļĦ":5575,"¸åį³å°ĨæĿ¥è¢Ń":5576,"½ĳç«Ļ":5577,"çħ®":5578,"Ġç»Ļä»¥ä¸ĭ":5579,"ĠåĪĽå»ºä¸Ģä¸ª":5580,"ĥåĮºåŁŁ":5581,"ĭæ¯Ķè¾ĥè¯ķéªĮ":5582,"ķåľ°éĿ¢ç§¯":5583,"ĺå®Ŀä¸Ĭ":5584,"çļĦå®ļä¹ī":5585,"çļĦåģ¥åº·åĴĮ":5586,"çļĦåİŁåĽłåĲĹ":5587,"çļĦæľĢåĲİä¸Ģä¸ªåħĥç´łæĺ¯":5588,"çļĦä½ıå®¿ç±»åŀĭ":5589,"æĪĳå¾Īé«ĺåħ´èĥ½ä¸ºä½łæıĲä¾Ľå¸®åĬ©":5590,"æĪĳåŃ¦ä¼ļäºĨè®¸å¤ļ":5591,"æĪĳæīĵç®Ĺåİ»åħ¬åĽŃæķ£æŃ¥":5592,"åħ«æĪĴ":5593,"æĺ¯æ³°åĽ½é¦ĸéĥ½":5594,"æĺ¯æ¯ıå¹´çļĦ":5595,"æĺ¯èĭ±åĽ½":5596,"æĺ¯MaryçļĦåħ¬åı¸":5597,"ä¸ªå¤©æĸĩåįķ":5598,"ä¸ªæĸ°å®¢æĪ·çļĦæĭĵå±ķ":5599,"ä¸ªåĨľåľºéĩĮ":5600,"ä¸ªçľģä»½":5601,"å¥½äºĭæĪĲåıĮ":5602,"å¥½åĲĥçļĦé¤Ĳåİħ":5603,"è¯·ç¨įçŃīçīĩåĪ»":5604,"åľ¨åħ¬åİĨä¸ŃçļĦ":5605,"åľ¨æ·ĺå®Ŀä¸Ĭ":5606,"åľ¨é£ŀæľºä¸Ĭ":5607,"åľ¨æĲľå¯»":5608,"åľ¨å¹¿ä¸ľçľģ":5609,"æľīåĬ©äºİ":5610,"è¿Ļä»¶è¡£æľįå¤ª":5611,"è¿Ļåĩłä¸ªåĬ¨çī©":5612,"åĴĮé¦Ļèıĩ":5613,"åĴĮèĬĴæŀľ":5614,"ä¸ºæ¸©æļĸèī²è°ĥ":5615,"åı¯èĢķåľ°éĿ¢ç§¯":5616,"ä¸Ģä¸ªæŃ£æĸ¹ä½ĵçļĦä½ĵ":5617,"ä¸Ģä¸ªåı¯èĥ½çļĦåįķè¯į":5618,"ä¸Ģä¸ªå°ģéĹŃå¼ıéĹ®é¢ĺ":5619,"ä¸ĭè½½":5620,"ä¸ŃåĬłåħ¥ä¸ĢäºĽçĪµå£«":5621,"ä¸Ńæ¼Ĥæµ®":5622,"åĩ¯çī¹çİĭå¦ĥçļĦ":5623,"ä¸įåłª":5624,"åı¯ä»¥åĪĨåĪ°":5625,"äººç¾¤å¯¹æĶ¿":5626,"äºĨæ¸¸å®¢":5627,"æĪĲæŃ£æ¯Ķ":5628,"éľĢè¦ģåīĬåĩıå¼ĢæĶ¯":5629,"å¸®å¸®æĪĳåĲĹ":5630,"ä»Ģä¹Īç±»åŀĭçļĦæķ°åŃ¦":5631,"çĶŁæĦıè¶ĬæĿ¥è¶Ĭå¥½":5632,"æľĢéĩįè¦ģçļĦ":5633,"æľĢç¹ģåįİçļĦè¡Ĺ":5634,"æľĢåıĹæ¬¢è¿İçļĦä½ıå®¿ç±»åŀĭ":5635,"åĵªä»½æĬ¥åĳĬ":5636,"åľ°åĲ¹çĿĢ":5637,"å·¦åı³":5638,"æĽ¼è°·æĺ¯æ³°åĽ½é¦ĸéĥ½":5639,"çļĦç¡¬åº¦":5640,"çļĦç¾ĬèĤīä¸²":5641,"å¤§çīĩä¸Ń":5642,"æĹ¶æĶ¿çĥŃçĤ¹æĸ°éĹ»":5643,"ä»ĸä¸Ģå¤©è¦ģåĸĿ":5644,"è¿Ļä¸ªè®¢åįķ":5645,"æĥ³æī¾çĤ¹äºĭæĥħ":5646,"åĽŀçŃĶçĽ¸åħ³éĹ®é¢ĺ":5647,"çĽ²äººæĳĦå½±å®¶":5648,"æıĲä¾Ľè¯¦ç»ĨçļĦåĽŀçŃĶ":5649,"è¡ĮæĶ¿å¤įè®®":5650,"å¯¹æīĢæľīåŃ©åŃĲå¼ĢæĶ¾":5651,"å¯¹éļĲç§ģçļĦå½±åĵį":5652,"æĸ°æĬĢèĥ½":5653,"æĸ°è¥¿åħ°":5654,"åĸīåĴĻ":5655,"çİ°åľ¨æĺ¯åĩłçĤ¹":5656,"æĪĸæľ¯è¯Ń":5657,"æĪĸæµģæĦŁ":5658,"å°ıçĭĹä»Ĭå¤©æĹ©ä¸Ĭ":5659,"åĲįèĳĹçļĦä¸»é¢ĺæĢĿæĥ³":5660,"è´¦æĪ·æľĢé«ĺçļĦæľĪä»½":5661,"å¦Ĥæŀľä»Ĭå¤©æĺ¯æĺŁæľŁä¸ī":5662,"å¦ĤæŀľæĪĳæĺ¯ä½ł":5663,"èĬĿåĬłåĵ¥":5664,"ä»İDåĪ°EçļĦæľĢçŁŃ":5665,"åĵģç§įçļĦçĭĹ":5666,"å¸ĤåľºèĲ¥éĶĢ":5667,"åıĸåĨ³äºİ":5668,"åŃ¦å½±åĥıè¯ĬæĸŃ":5669,"æ¡ĮåŃĲä¸ĬæĶ¾":5670,"åıĳå°Ħæĸ°":5671,"å»ºç«ĭäºĨ":5672,"åįķä»·æľĢé«ĺ":5673,"å¿ĥçĶµåĽ¾":5674,"å¿ĥèĦı":5675,"åĬłåĪ©ç¦ıå°¼äºļ":5676,"çĶµçģ¯æ³¡":5677,"ç§ĭä¸ĩæľ¨":5678,"æµ·åķ¸åį³å°ĨæĿ¥è¢Ń":5679,"æ¸©åĵ¥åįİå¸Ĥ":5680,"å¹´äº§æĿĥçļĦåķĨéĵºè½¬":5681,"å¹´é¾Ħ":5682,"éļıæľºéĢīæĭ©":5683,"ä¸¤ä¸ªäººçļĦåĲįåŃĹ":5684,"è¿ĩå¹´çļĦæĹ¥æľŁ":5685,"åĵªä¸ªè¶³çĲĥèģĶèµĽ":5686,"åĮħç²½åŃĲ":5687,"åı£ç¢ĳå¥½":5688,"åİ»å¹´åĲĮæľŁçĽ¸æ¯ĶçļĦ":5689,"æīĭå®¹æĺĵç¨ĭåº¦":5690,"æľĢè¿ĳä¸Ģæ¬¡è¡ĮæĶ¿å¤įè®®":5691,"çº¢æ¥¼æ¢¦":5692,"çº¢å®ĿçŁ³çļĦç¡¬åº¦":5693,"è¯´å·´é»İè¯Ŀ":5694,"åĪĽå§ĭäºº":5695,"æ¯ıçīĩçļĦå½¢æĢģ":5696,"æ¯ıä¸ªæľĭåıĭåı¯ä»¥åĪĨåĪ°":5697,"æĻºæħ§åľ¨äºİè¿ĲåĬ¨":5698,"èĤ¥çļĤ":5699,"åıªç¾Ĭåľ¨":5700,"åıªå°ıçĮªåĴĮ":5701,"ä»£çłģé£İæł¼è§ĦèĮĥ":5702,"è¿ĺæľīåħ¶ä»ĸåı£åĳ³çļĦèıľ":5703,"å¼ķäººåħ¥èĥľ":5704,"åħ·ä½ĵçļĦå®ŀä¾ĭ":5705,"ä½łèĥ½æİ¨èįĲä¸Ģä¸ĭåĲĹ":5706,"çĥ¹é¥ª":5707,"ä¸İæ°§æ°ĶåıįåºĶçĶŁæĪĲ":5708,"åĮĹäº¬çļĦå¹³åĿĩå·¥èµĦ":5709,"æ£ĺæīĭçļĦéĹ®é¢ĺ":5710,"çĮ«åĴĮèĢģé¼ł":5711,"åħĥæľĿæĹ¶æľŁ":5712,"ç§ĳæ¯Ķåľ¨NBAæĢ»åĨ³èµĽ":5713,"æĺ¥æļĸèĬ±å¼Ģ":5714,"æĪĳéľĢè¦ģæĭ¿åİ»":5715,"åĽĽæº¢":5716,"æīĢæľīéĶĢåĶ®äººåĳĺ":5717,"ä¸¤ä¸ªåĵģçīĮçļĦäº§åĵģ":5718,"çĶ±äºİé¢ĺçĽ®æ²¡æľī":5719,"éĢīæĭ©éĢĤå½ĵçļĦ":5720,"åĢ¼çļĦä½įç½®æĺ¯ç¬¬":5721,"è¯·éĹ®ä½łéģĩåĪ°äºĨä»Ģä¹Ī":5722,"ç¾İåĽ½æľĢå¤§åĴĮæľĢèĳĹåĲįçļĦåįļçī©é¦Ĩ":5723,"æŃ¥éª¤":5724,"åħ¬åı¸æľĢè¿ĳä¸ļç»©ä¸įå¤ªå¥½":5725,"åıįå¯¹åº¦æľĢé«ĺ":5726,"å¼łå½¢è±¡å¤§çīĩä¸Ń":5727,"å¼łä¸īæľĢåĸľæ¬¢çļĦé£Łçī©":5728,"é¦Ļèķī":5729,"è¥¿çıŃçīĻ":5730,"å¥¹åĩºçĶŁåľ¨å·´é»İ":5731,"å¥¹æĮĩçļĦæĺ¯è°ģ":5732,"å¥¹åĸľæ¬¢æĸĩåŃ¦åĴĮèīºæľ¯":5733,"ä¸ŃåĽ½åı¤ä»£åĽĽå¤§åıĳæĺİ":5734,"ä¸ŃåĽ½åİĨåı²ä¸Ĭç¬¬ä¸Ģä½įçļĩå¸Ŀ":5735,"åįİæ°ıåº¦è½¬æį¢":5736,"å®īè£ħä¸ĢçĽıå¤©èĬ±":5737,"èĤīéħ±åĴĮé¦Ļèıĩ":5738,"æľªæĿ¥åįģå¤©çļĦå¤©æ°ĶæĥħåĨµ":5739,"æľªæĿ¥å·¥ä½ľéĿ¢ä¸´çļĦæĮĳæĪĺ":5740,"æķ´æķ°è¿Ĳç®Ĺ":5741,"çļĦçŁĽçĽ¾":5742,"èįīå¦ĤèĮµ":5743,"è®¡ç®Ĺç»ĵæŀľåĽĽèĪįäºĶåħ¥åĪ°å°ıæķ°çĤ¹åĲİä¸¤ä½į":5744,"é¹¦é¹ī":5745,"æĽ´åĬłçĽ´æİ¥çļĦè¯Ńæ°Ķ":5746,"åĸĿéĽĦé»ĦéħĴ":5747,"éļ¾ä»¥åħ¥çľł":5748,"è¡¨æł¼å¯¼åĩºä¸ºPDFæł¼å¼ıå¹¶åıĳéĢģ":5749,"çº¢èī²è½¿è½¦çļĦè½¦ä»·":5750,"éĻĦè¿ĳçļĦçĭĹåĴĸåķ¡åİħ":5751,"å·´é»İåľ£æ¯įéĻ¢":5752,"å¥³çĶŁæĺ¯æĪĳçļĦæľĭåıĭ":5753,"åľ¨äºİæ¯ıä¸ªäººçļĦ":5754,"è®°å½ķä¸ĭ":5755,"æ¬¢è¿İæĿ¥åĪ°æĪĳä»¬çļĦ":5756,"ç§ĭå¤©çļĦåĩīé£İè½»è½»åľ°åĲ¹çĿĢ":5757,"çİ¯ä¿Ŀä¸įåºĶè¯¥ä»ħä»ħ":5758,"å¥ĭæĸĹä¸įæŃ¢":5759,"çŁ³æ¦´çŁ³çļĦé¢ľèī²":5760,"æ¼Ķå¥ıä¸ŃåĬłåħ¥ä¸ĢäºĽçĪµå£«":5761,"åħ¨çĲĥæľĢå¤§çļĦæ²Ļæ¼łåĲįç§°":5762,"éħįä¸ĬæĦıå¤§åĪ©èĤīéħ±åĴĮé¦Ļèıĩ":5763,"ç§ĳæĬĢåıĺéĿ©å¯¹éļĲç§ģçļĦå½±åĵį":5764,"èħ°æŀľåĴĮèĬĴæŀľ":5765,"æĸ¯åį¡æľĢä½³å½±çīĩ":5766,"æĪĲåĬŁçļĦç§ĺè¯Ģåľ¨äºİ":5767,"æĪĲåĬŁæĴ¤ç¦»äºĨæ¸¸å®¢":5768,"æķ°åŃĹæ¡£æ¡Īé¦Ĩ":5769,"æķ°åŃĹè´§å¸ģ":5770,"ç¤¾äº¤åªĴä½ĵ":5771,"èİ·å¾ĹæĢ»åĨłåĨĽ":5772,"è£ħæ»¡ä¸ĢåįĬ":5773,"çļĦçŃĶæ¡ĪåĴĮæķ°æį®æ¸ħåįķ":5774,"åķĨä¸ļè®¡åĪĴä¹¦":5775,"åĪ¶ä½ľæĸ¹æ³ķåĴĮéħįæĸĻ":5776,"è¿Ļéģĵé¤ĲçĤ¹éĢĤåĲĪ":5777,"å¹²çĩ¥":5778,"ç«¯åįĪèĬĤ":5779,"èµŀè®¸å½ĵåľ°æĶ¿åºľå®ŀæĸ½":5780,"æ²¹æ°ĶåĤ¨å±Ĥ":5781,"å¦Ĥæŀľä½łæľīåħ¶ä»ĸéĹ®é¢ĺæĪĸèĢħéľĢè¦ģæĽ´å¤ļ":5782,"æ·±æµ·ä¸ŃçļĦçĶŁçī©çľĭèµ·æĿ¥":5783,"ä¸Ĭæµ·çļĦèĬ±åįīå±ķè§Īä¼ļ":5784,"æ¶īå«Įæ¬ºè¯ĪçļĦåħ¬åı¸":5785,"éĺ³åħīæĺİåªļ":5786,"åĦ¿ç«¥æ¸¸æĪıåľº":5787,"é¡¹çĽ®å»¶è¯¯":5788,"æĬ¥åĳĬä¸Ńæ³¨æĺİä¸İåİ»å¹´åĲĮæľŁçĽ¸æ¯ĶçļĦ":5789,"èİ·å¾ĹäºĨå¥¥æĸ¯åį¡æľĢä½³å½±çīĩ":5790,"é²¸é±¼åĶ¾æ¶²èħºäº§çĶŁçļĦ":5791,"åĭ¤ä¿Ń":5792,"åĭĩæķ¢":5793,"èľĺèĽĽ":5794,"åĨ¬å¤©æ°Ķæ¸©çļĦåıĺåĮĸ":5795,"æľ¬åĳ¨åĨħå®ĮæĪĲèĩ³å°ĳ":5796,"åı£æĦŁä»İå¥½åĪ°å·®æİĴåºı":5797,"æĬĬè¿Ļä¸ªå®¹åĻ¨è£ħæ»¡ä¸ĢåįĬ":5798,"ä¹Łæĺ¯åħ¨åĽ½æľĢå¤§çļĦåŁİå¸Ĥ":5799,"æīĢæľīçļĦæŃ£åģ¶æķ°éĥ½":5800,"åĿļæĮģä¸įæĩĪ":5801,"è·ĳæŃ¥éŀĭæ¯Ķè¾ĥè¯ķéªĮ":5802,"å¤§çĨĬçĮ«çļĦåĪĨå¸ĥåĮºåŁŁ":5803,"åĪĿä¸Ńæķ°åŃ¦éļ¾é¢ĺ":5804,"è¿ĻæĶ¯éĵħç¬ĶåĨĻä¸ĭ":5805,"çŃĸBçļĦåıįå¯¹åº¦æľĢé«ĺ":5806,"æ¯ķä¸ļçĶŁäººæķ°æľĢå¤ļ":5807,"ä½¿çĶ¨Google":5808,"æĮīä½ĵåŀĭä»İå¤§åĪ°å°ıæİĴåĪĹ":5809,"æľªæĿ¥äººå·¥æĻºèĥ½åıĳå±ķçļĦä¸¤å¤§è¶ĭåĬ¿":5810,"çĹħæ¯ĴçļĦä¼łæĴŃæĸ¹å¼ı":5811,"åħįè´¹åįĩçº§æĪ¿éĹ´çļĦæĿ¡ä»¶åĴĮæĸ¹å¼ı":5812,"åŃ¤çĭ¬çļĦèĢģäººåĿĲåľ¨åħ¬åĽŃéķ¿æ¤ħä¸Ĭ":5813,"ä¼¦æķ¦å¤§æľ¬éĴŁ":5814,"çĶµåŃĲäºĳè¢«æĽ´å¼ºåľ°åĲ¸å¼ķ":5815,"è®¢è´Ńä¸Ģä»½ä¸Ńåı·æĬ«èĲ¨":5816,"åĪĺéĤ¦åĴĮé¡¹ç¾½ä¹ĭéĹ´åıĳçĶŁ":5817,"æĪĳåŃ¦ä¼ļäºĨè®¸å¤ļæĸ°æĬĢèĥ½":5818,"ä¸ªå¤©æĸĩåįķä½į":5819,"ä¸Ģä¸ªæŃ£æĸ¹ä½ĵçļĦä½ĵç§¯":5820,"åĩ¯çī¹çİĭå¦ĥçļĦåĩºçĶŁåľ°":5821,"äººç¾¤å¯¹æĶ¿çŃĸBçļĦåıįå¯¹åº¦æľĢé«ĺ":5822,"æľĢç¹ģåįİçļĦè¡Ĺéģĵ":5823,"æĥ³æī¾çĤ¹äºĭæĥħåģļ":5824,"å°ıçĭĹä»Ĭå¤©æĹ©ä¸Ĭåľ¨åħ¬åĽŃéĩĮ":5825,"è´¦æĪ·æľĢé«ĺçļĦæľĪä»½æĶ¶åħ¥":5826,"ä»İDåĪ°EçļĦæľĢçŁŃè·¯å¾Ħ":5827,"åŃ¦å½±åĥıè¯ĬæĸŃæĸ¹éĿ¢":5828,"åĬłåĪ©ç¦ıå°¼äºļå·ŀ":5829,"å¹´äº§æĿĥçļĦåķĨéĵºè½¬æīĭå®¹æĺĵç¨ĭåº¦":5830,"ç§ĳæ¯Ķåľ¨NBAæĢ»åĨ³èµĽä¸Ń":5831,"å®īè£ħä¸ĢçĽıå¤©èĬ±æĿ¿çģ¯":5832,"çİ¯ä¿Ŀä¸įåºĶè¯¥ä»ħä»ħæĪĲä¸ºä¸Ģç§įåı£åı·":5833,"æ¼Ķå¥ıä¸ŃåĬłåħ¥ä¸ĢäºĽçĪµå£«çļĦåħĥç´ł":5834,"æ¶īå«Įæ¬ºè¯ĪçļĦåħ¬åı¸æĺ¯MaryçļĦåħ¬åı¸":5835,"èİ·å¾ĹäºĨå¥¥æĸ¯åį¡æľĢä½³å½±çīĩå¥ĸ":5836,"é²¸é±¼åĶ¾æ¶²èħºäº§çĶŁçļĦæ²¹èĦĤ":5837,"!<|":5838,"\"\"":5839,"\"?":5840,"\"ãĢĤ<|":5841,"%ãĢĤ<|":5842,"11":5843,"13":5844,"26":5845,"250":5846,"31":5847,"32":5848,"33":5849,"39":5850,"45":5851,"49":5852,"410":5853,"52":5854,"500":5855,"5000":5856,"64":5857,"70":5858,"71":5859,"78":5860,"700":5861,"752":5862,"80":5863,"86":5864,"87":5865,"88":5866,"828":5867,"900":5868,"::":5869,"AP":5870,"AéĹ®é¢ĺ":5871,"Bæĺ¯":5872,"Bå¤§":5873,"DåĴĮ":5874,"ER":5875,"Hä¹ĭéĹ´":5876,"IR":5877,"IæĿ¥":5878,"Ja":5879,"Jo":5880,"Lu":5881,"LçļĦ":5882,"MS":5883,"NER":5884,"OK":5885,"Oo":5886,"QAéĹ®é¢ĺ":5887,"Tæģ":5888,"Wo":5889,"XLçļĦ":5890,"]ï¼Į":5891,"_ï¼Į":5892,"aæ²¡":5893,"cl":5894,"cy":5895,"dæĸĩæ¡£":5896,"ed":5897,"hn":5898,"it":5899,"log":5900,"nèįīèİĵ":5901,"nèıłèıľ":5902,"os":5903,"oåĲĹ":5904,"ps":5905,"rdæĸĩæ¡£":5906,"vaæ²¡":5907,"¡çļĦ":5908,"¡æĹ¶":5909,"¡èĤī":5910,"¡æĻ´":5911,"¡çļ®":5912,"¡çĮ®":5913,"¡çī¹å®ļçļĦ":5914,"¢æ°Ķ":5915,"¢è¡Į":5916,"¢èī²":5917,"¢å¼ķ":5918,"¢è¶³çĲĥ":5919,"£ģ":5920,"£å®¶":5921,"£çĤĴ":5922,"£å¥¶ç²ī":5923,"¤¼":5924,"¤å§":5925,"¤èĤī":5926,"¤éĨĴ":5927,"¥ŀ":5928,"¥æĥ":5929,"¥æĥ³":5930,"¥åħ¨":5931,"¥è¯Ĩ":5932,"¥åįı":5933,"¥éĿ©":5934,"¥åı¯çĪ±çļĦ":5935,"¦»":5936,"¦æĢ§":5937,"¦å°½":5938,"¦å§ĭ":5939,"¦ä¸ľ":5940,"¦çĳŁ":5941,"¦åķ¼":5942,"§éĥ":5943,"§ä¼¤":5944,"§ç¾Ĭ":5945,"¨åĴĮ":5946,"¨ç¦»":5947,"¨éķľ":5948,"¨éŃĶ":5949,"¨èĬ±é¦Ļ":5950,"©º":5951,"©å½¢":5952,"©å¡":5953,"©è¿ľ":5954,"©åĨĻä¸Ģç¯ĩ":5955,"©çİ¯å¢ĥæ±¡æŁĵ":5956,"©åĽº":5957,"©æĵ¦":5958,"ªĹ":5959,"ªä¸Ĭ":5960,"ªæĺİ":5961,"ªæĶ¾":5962,"ªåĲĥ":5963,"ªçİ¯":5964,"ªèĮ":5965,"ªå¿µ":5966,"ªèĩ³":5967,"ªç§Ģ":5968,"ªæĤł":5969,"ªæĽ¾ç»ı":5970,"ªåĪĨåŃĲ":5971,"«åĪĹ":5972,"«çĽ®":5973,"«æĺŁ":5974,"«çļĦå¤©æ°ĶæĢİä¹Īæł·":5975,"«ä¼łæĴŃ":5976,"«çĳ":5977,"«åŃĲä¸Ĭ":5978,"«å©īè½¬":5979,"¬è¯·":5980,"¬éĹ´":5981,"¬çī¹":5982,"®ä¸":5983,"®æłĩ":5984,"®é£ĺ":5985,"®è§Ĥ":5986,"®éģį":5987,"¯åħĭ":5988,"¯èĩ³":5989,"¯åŁº":5990,"¯åĽ°éļ¾":5991,"¯åĲĽ":5992,"¯çĪ±æĥħçĶµå½±":5993,"°ĩ":5994,"°åĴĮ":5995,"°åıĬ":5996,"°å¯Į":5997,"°é£İåĲ¹":5998,"°åĪ°æĪĳ":5999,"±æŃ":6000,"±åĮħ":6001,"±ç¿":6002,"±æ£":6003,"±éªĹ":6004,"±æģ¨":6005,"²¾":6006,"²Į":6007,"²åĬ":6008,"²æĥ":6009,"²æĻļ":6010,"³åĴĮ":6011,"³åŃĲ":6012,"³åĪ°":6013,"³åħĭ":6014,"´åŃĲ":6015,"´æľĽ":6016,"´åĲ«":6017,"´åĦ¿":6018,"´åĪ¶ä½ľ":6019,"´æ½®":6020,"µä¸Ģ":6021,"µåĴĮ":6022,"µéĹ®é¢ĺ":6023,"µé«ĺ":6024,"µæĩ":6025,"µå¾ĭ":6026,"µæĸľ":6027,"µ®é£ĺ":6028,"¶æ¢":6029,"¶æ¯į":6030,"¶èĢģ":6031,"¶ç¿©":6032,"·åĴĮ":6033,"·äºº":6034,"·åħ¥":6035,"·æľĪ":6036,"·æľ¯":6037,"·èĸ":6038,"¸åľ¨":6039,"¸ä¸Ĭ":6040,"¸æĸ¹":6041,"¸æµ·":6042,"¸å¼ı":6043,"¸åħ¥":6044,"¸ç¤¼":6045,"¸å¥ĸ":6046,"¸åĩºçļĦ":6047,"¸ä¿Ĺ":6048,"¸¢è¶³çĲĥ":6049,"¹Ī":6050,"¹èĥ½":6051,"¹æ¶":6052,"¹èº«":6053,"¹éħį":6054,"¹äººæ¬¢":6055,"¹æłĩå¿Ĺ":6056,"ºåľ¨":6057,"ºçī":6058,"ºçĭ¼":6059,"ºèĤ²":6060,"»äº":6061,"»æ¯Ķ":6062,"»éļ¾":6063,"»çļĦæ°´":6064,"»çĤĴ":6065,"¼æľī":6066,"¼çĹĽ":6067,"¼æ¥¼":6068,"¼åĪĩ":6069,"½¿":6070,"½çĶŁ":6071,"½å¿ħ":6072,"½åĪº":6073,"¾æĶ¾åħ¥":6074,"¾æļĳæ°Ķ":6075,"¾èĸĦ":6076,"¿ä½":6077,"¿ç¾İ":6078,"¿çĥ":6079,"¿åĳ½":6080,"¿æĹłæ³ķåĽŀçŃĶ":6081,"¿çĬ¬":6082,"¿æĸľ":6083,"Â³":6084,"çŀ":6085,"ç¦ģ":6086,"ç£ģ":6087,"ç°ĩ":6088,"çµ®é£ĺ":6089,"èĨ":6090,"èĴ":6091,"èļ":6092,"èŁ":6093,"è²Į":6094,"è¸¢è¶³çĲĥ":6095,"è¹Ī":6096,"é½¿":6097,"ðŁ":6098,"Ġ1":6099,"Ġ8":6100,"Ġä¸Ģ":6101,"ĠéĹ®":6102,"Ġè¿Ļ":6103,"Ġä¸Ģä¸ª":6104,"ĠçĶ¨":6105,"Ġä¸Ĭ":6106,"Ġå½ĵ":6107,"ĠæıĲä¾Ľ":6108,"Ġå°ı":6109,"Ġéķ¿":6110,"Ġè¿Ļç¯ĩ":6111,"Ġè®©":6112,"ĠåĲ¬":6113,"Ġè½¦":6114,"Ġè¯ķ":6115,"Ġè¿Ļæĺ¯":6116,"Ġä½¿çĶ¨":6117,"Ġå®Į":6118,"Ġå¼ķ":6119,"ĠæĬĬ":6120,"Ġä½łèĥ½":6121,"ĠæĻºèĥ½":6122,"ĠåĮĹäº¬":6123,"ĠçĮ«":6124,"Ġç±³":6125,"ĠåĪĨæŀĲ":6126,"Ġæ³¨":6127,"Ġæĺ¯çļĦ":6128,"Ġé¤Ĳåİħ":6129,"Ġä¸įçĶ¨":6130,"ĠæĮī":6131,"Ġåħ³éĶ®è¯į":6132,"Ġè®²":6133,"Ġè§£åĨ³":6134,"ĠåĪ¤æĸŃ":6135,"Ġæ¦Ĥæĭ¬":6136,"Ġå¯¹è¯Ŀ":6137,"ĠæĢ»ç»ĵ":6138,"Ġä¸ĸçķĮä¸Ĭ":6139,"Ġè¿Ļæ®µ":6140,"Ġä¸įçŁ¥éģĵ":6141,"ĠåĨĻä¸Ģä¸ª":6142,"Ġæ¯Ķè¾ĥ":6143,"ĠAI":6144,"Ġä½łæľī":6145,"Ġæī¾åĪ°":6146,"Ġè¿Ļç¯ĩæĸĩç«łçļĦ":6147,"Ġå·´é»İ":6148,"ĠæĤ¨åı¯ä»¥":6149,"ĠæĮīçħ§":6150,"ĠçİĽ":6151,"Ġç§ĭå¤©":6152,"Ġæ¼Ķ":6153,"Ġç§ĳæĬĢ":6154,"Ġèĥ½åĳĬè¯īæĪĳ":6155,"Ġä»Ĭå¤©çļĦå¤©æ°Ķ":6156,"ĠæĦŁè°¢ä½łçļĦ":6157,"ĠæķĪ":6158,"ĠæıĲä¾Ľä¸Ģä¸ª":6159,"ĠæĪĳä»¬çļĦ":6160,"Ġè¿Ļæł·":6161,"Ġäº§çĶŁ":6162,"Ġè®¾è®¡ä¸Ģä¸ª":6163,"Ġä¸įè¦ģ":6164,"Ġè¯´æĺİ":6165,"ĠæİĴåĪĹ":6166,"Ġçİ°åľ¨è¯·ä½łå°Ĩ":6167,"ĠæĺİçĻ½äºĨ":6168,"Ġä¸ĢæĿ¡":6169,"Ġåı¥åŃĲG":6170,"ĠæĪĳæĥ³çŁ¥éģĵ":6171,"Ġçº¢èī²åĴĮ":6172,"Ġè®¸å¤ļ":6173,"ĠçĪ±åĽłæĸ¯åĿ¦":6174,"Ġæĺ¯ä¸įæĺ¯":6175,"Ġä¸ĭåĪĹ":6176,"Ġç«ŀäºī":6177,"Ġæīĭå¥Ĺ":6178,"Ġç¬¬ä¸Ģä¸ª":6179,"ĠæĻļé¤Ĳ":6180,"Ġè¯Ħä¼°":6181,"Ġåı¤åħ¸":6182,"Ġå¤´çĹĽ":6183,"Ġè¯ĨåĪ«":6184,"ĠæĥħæĦŁåĪĨç±»":6185,"ĠèģĬå¤©æľºåĻ¨äºº":6186,"Ġæ£ĢæŁ¥":6187,"Ġå¾·åĽ½":6188,"Ġæııè¿°ä¸Ģä¸ĭä½ł":6189,"Ġåı¥åŃĲGåĴĮåı¥åŃĲH":6190,"ĠåĪłéĻ¤":6191,"Ġä¸įæĺ¯çļĦ":6192,"ĠæĬ½":6193,"Ġé«ĺå±±":6194,"Ġè¡¨çİ°":6195,"ĠçĲĥåľº":6196,"ĠæĮĩåĩº":6197,"Ġæĺ¯åĲ¦æľīå¿ħè¦ģ":6198,"Ġé¸Łä¼ļé£ŀ":6199,"ĠèĢģå¸Ī":6200,"Ġè°ĥçļ®":6201,"ĠåĵĪåĵĪ":6202,"Ġèĥ½å¸®æĪĳåĩº":6203,"Ġå¼ķè¿°ä¸Ģæ®µ":6204,"Ġè¿Ļéģĵé¢ĺ":6205,"Ġç¾İåĽ½çĭ¬ç«ĭæĹ¥":6206,"Ġç¬¬äºĮæ¬¡ä¸ĸçķĮå¤§æĪĺ":6207,"Ġè·ŁæĪĳèģĬèģĬ":6208,"Ġéº¦åĵ²ä¼¦":6209,"Ġä¸ĢæĶ¯ç¬Ķ":6210,"Ġæī¹ç¤º":6211,"Ġè¿ĺæľīåħ¶ä»ĸåı£åĳ³çļĦèıľ":6212,"Ġè®°å½ķä¸ĭ":6213,"Ġèµŀè®¸å½ĵåľ°æĶ¿åºľå®ŀæĸ½":6214,"ĠOo":6215,"ĠQAéĹ®é¢ĺ":6216,"ĢåĴĮ":6217,"Ģä¸ĭ":6218,"Ģäºº":6219,"Ģå¾Ĺ":6220,"ĢåıĬ":6221,"Ģå¨":6222,"Ģå·ŀ":6223,"ĢèıĮ":6224,"ģä¹ĭ":6225,"ģå¹³":6226,"ģåĨ³":6227,"ģäººå¿ĥ":6228,"ģä¿±":6229,"ĤåĴĮ":6230,"ĤæĹ¶":6231,"Ĥä½ķ":6232,"ĤæŀĿ":6233,"Ĥ«çĽ®":6234,"ĥåıĸ":6235,"ĥèĮ":6236,"ĥèĥĮ":6237,"ĦçļĦ":6238,"Ħç¢§":6239,"ĦçĤĴ":6240,"Ħéľ²":6241,"ħåĪ°":6242,"ħæĦı":6243,"ħéĩĮ":6244,"ħéķ¿":6245,"ħä¸ĢäºĽ":6246,"ħèĬ±":6247,"ħéĹ»":6248,"ħä¸Ģæ¬¡":6249,"ħè¶Ĭ":6250,"ħèĨ":6251,"Ĩæĺ¯":6252,"Ĩä¸Ń":6253,"ĨæĿ":6254,"Ĩä¸Ĭ":6255,"Ĩåĵģ":6256,"ĨåĲ¬":6257,"ĨèĻ":6258,"ĩåĲİ":6259,"ĩçģ¼":6260,"ĪåĲİ":6261,"Īè®º":6262,"ĪæĿĥçļĦ":6263,"ĪåĪĺéĤ¦":6264,"Ī±æģ¨":6265,"īå¾Īå¥½":6266,"īæ´Ľ":6267,"īåĲ¬åĪ°":6268,"īå®³":6269,"ĬåĴĮ":6270,"ĬåŃĲ":6271,"Ĭå¾Ħ":6272,"ĬâĢĿãĢĤ":6273,"Ĭåħ°":6274,"Ĭå°Ķ":6275,"Ĭåįļ":6276,"ĭå¾ĭ":6277,"ĭéĽ¶":6278,"Įæĥ":6279,"Įæĸ°":6280,"Įèµ·æĿ¥":6281,"ĮéĢģ":6282,"į<|":6283,"įåľ¨":6284,"įä½ľ":6285,"įæł¼":6286,"įå®Ŀ":6287,"įèĮ«":6288,"İçĦ¶":6289,"İèĳ":6290,"İæ´ģ":6291,"ıåĬĽ":6292,"ıåĽ¾":6293,"ıæĿ¾":6294,"ıæ·»":6295,"ıæĸĹ":6296,"ıå¹ķ":6297,"ıåĨ²":6298,"Ĳéķ¿":6299,"ĲèĪ¬":6300,"Ĳä»¤äºº":6301,"ĳçļĦ":6302,"ĳèµ":6303,"ĳä¸Ģä¸ĭ":6304,"ĳè¿ĩ":6305,"ĳ..":6306,"ĳæĥĳ":6307,"ĴçļĦ":6308,"Ĵåıĳ":6309,"Ĵéĥ½":6310,"Ĵæľį":6311,"Ĵåĩī":6312,"ĴåĵĪ":6313,"Ĵåį±":6314,"ĴæĪĸæµģæĦŁ":6315,"ĵçģ«":6316,"ĶçļĦ":6317,"ĶæĹ¥":6318,"ĶçĿĢ":6319,"ĶæĶ¾":6320,"Ķè§Ĩ":6321,"Ķæ²»":6322,"ķå¸":6323,"ķåıĺ":6324,"ķè§ģ":6325,"ķçĬ¯":6326,"ĸçĶ":6327,"ĸæģ¯":6328,"ĸçļĦå¿«éĢŁ":6329,"ĸĳæĥĳ":6330,"Ĺéķ¿":6331,"Ĺé©¬":6332,"Ĺä½Ļ":6333,"Ĺçıį":6334,"ĹåĮĹæŀģ":6335,"ĹåıĸçļĦ":6336,"ĺçļĦ":6337,"ĺå¾":6338,"ĺäºĨ":6339,"ĺåŃĲ":6340,"ĺæŃ£":6341,"ĺè®°":6342,"ĺç®¡":6343,"ĺå°Ħ":6344,"ĺĬâĢĿãĢĤ":6345,"Ļè¿°":6346,"ļä¸įèĥ½":6347,"ļå¾Ĳ":6348,"ļä¸įåı¯":6349,"ļæĭŁ":6350,"ļéĩĳçīĮ":6351,"Ľäº":6352,"Ľå£°":6353,"ĽèĵĿ":6354,"ĽæīĢæľīçļĦ":6355,"Ľåį·":6356,"ľŁ":6357,"ľçļĦ":6358,"ľåĬ¨çī©":6359,"ľè½¯":6360,"ľæ´Ĵ":6361,"Ŀéģĵ":6362,"Ŀä¸ĸ":6363,"Ŀç§Ģ":6364,"ĿçļĦäºº":6365,"ĿåĲĽ":6366,"ŀå£":6367,"ŀæĺł":6368,"ŀçº³":6369,"Łä¸Ģä¸ĭ":6370,"Łç©º":6371,"ŁåĲİ":6372,"Łæ¼":6373,"ŁåĪ°äºĨ":6374,"Łä½İ":6375,"Łæ©":6376,"łéģĵ":6377,"łè´¨":6378,"łåĹ":6379,"łç©ĨæľĹçİĽå³°":6380,"ł´åĿı":6381,"ŃåĬĽ":6382,"ŃçĲĥ":6383,"ŃæĿ¯":6384,"Ńç»ķ":6385,"Ńé¼»æ¶ķ":6386,"ä¸¹":6387,"ä¸ģ":6388,"ä¸°å¯Į":6389,"ãĢĮ":6390,"ãĢĲ":6391,"ãĢį<|":6392,"ãĢĳ..":6393,"çļİæ´ģ":6394,"çļĦåĴĮ":6395,"çļĦåŃ":6396,"çļĦåı¯":6397,"çļĦä¸į":6398,"çļĦåº":6399}