{
  "version": "1.0",
  "truncation": null,
  "padding": null,
  "added_tokens": [
    {
      "id": 0,
      "content": "<|endoftext|>",
      "single_word": false,
      "lstrip": false,
      "rstrip": false,
      "normalized": false,
      "special": true
    }
  ],
  "normalizer": null,
  "pre_tokenizer": {
    "type": "ByteLevel",
    "add_prefix_space": false,
    "trim_offsets": true,
    "use_regex": true
  },
  "post_processor": null,
  "decoder": null,
  "model": {
    "type": "BPE",
    "dropout": null,
    "unk_token": null,
    "continuing_subword_prefix": null,
    "end_of_word_suffix": null,
    "fuse_unk": false,
    "byte_fallback": false,
    "ignore_merges": false,
    "vocab": {
      "<|endoftext|>": 0,
      "!": 1,
      "\"": 2,
      "#": 3,
      "$": 4,
      "%": 5,
      "&": 6,
      "'": 7,
      "(": 8,
      ")": 9,
      "*": 10,
      "+": 11,
      ",": 12,
      "-": 13,
      ".": 14,
      "/": 15,
      "0": 16,
      "1": 17,
      "2": 18,
      "3": 19,
      "4": 20,
      "5": 21,
      "6": 22,
      "7": 23,
      "8": 24,
      "9": 25,
      ":": 26,
      ";": 27,
      "<": 28,
      "=": 29,
      ">": 30,
      "?": 31,
      "@": 32,
      "A": 33,
      "B": 34,
      "C": 35,
      "D": 36,
      "E": 37,
      "F": 38,
      "G": 39,
      "H": 40,
      "I": 41,
      "J": 42,
      "K": 43,
      "L": 44,
      "M": 45,
      "N": 46,
      "O": 47,
      "P": 48,
      "Q": 49,
      "R": 50,
      "S": 51,
      "T": 52,
      "U": 53,
      "V": 54,
      "W": 55,
      "X": 56,
      "Y": 57,
      "Z": 58,
      "[": 59,
      "\\": 60,
      "]": 61,
      "^": 62,
      "_": 63,
      "`": 64,
      "a": 65,
      "b": 66,
      "c": 67,
      "d": 68,
      "e": 69,
      "f": 70,
      "g": 71,
      "h": 72,
      "i": 73,
      "j": 74,
      "k": 75,
      "l": 76,
      "m": 77,
      "n": 78,
      "o": 79,
      "p": 80,
      "q": 81,
      "r": 82,
      "s": 83,
      "t": 84,
      "u": 85,
      "v": 86,
      "w": 87,
      "x": 88,
      "y": 89,
      "z": 90,
      "{": 91,
      "|": 92,
      "}": 93,
      "~": 94,
      "¡": 95,
      "¢": 96,
      "£": 97,
      "¤": 98,
      "¥": 99,
      "¦": 100,
      "§": 101,
      "¨": 102,
      "©": 103,
      "ª": 104,
      "«": 105,
      "¬": 106,
      "®": 107,
      "¯": 108,
      "°": 109,
      "±": 110,
      "²": 111,
      "³": 112,
      "´": 113,
      "µ": 114,
      "¶": 115,
      "·": 116,
      "¸": 117,
      "¹": 118,
      "º": 119,
      "»": 120,
      "¼": 121,
      "½": 122,
      "¾": 123,
      "¿": 124,
      "À": 125,
      "Á": 126,
      "Â": 127,
      "Ã": 128,
      "Ä": 129,
      "Å": 130,
      "Æ": 131,
      "Ç": 132,
      "È": 133,
      "É": 134,
      "Ê": 135,
      "Ë": 136,
      "Ì": 137,
      "Í": 138,
      "Î": 139,
      "Ï": 140,
      "Ð": 141,
      "Ñ": 142,
      "Ò": 143,
      "Ó": 144,
      "Ô": 145,
      "Õ": 146,
      "Ö": 147,
      "×": 148,
      "Ø": 149,
      "Ù": 150,
      "Ú": 151,
      "Û": 152,
      "Ü": 153,
      "Ý": 154,
      "Þ": 155,
      "ß": 156,
      "à": 157,
      "á": 158,
      "â": 159,
      "ã": 160,
      "ä": 161,
      "å": 162,
      "æ": 163,
      "ç": 164,
      "è": 165,
      "é": 166,
      "ê": 167,
      "ë": 168,
      "ì": 169,
      "í": 170,
      "î": 171,
      "ï": 172,
      "ð": 173,
      "ñ": 174,
      "ò": 175,
      "ó": 176,
      "ô": 177,
      "õ": 178,
      "ö": 179,
      "÷": 180,
      "ø": 181,
      "ù": 182,
      "ú": 183,
      "û": 184,
      "ü": 185,
      "ý": 186,
      "þ": 187,
      "ÿ": 188,
      "Ā": 189,
      "ā": 190,
      "Ă": 191,
      "ă": 192,
      "Ą": 193,
      "ą": 194,
      "Ć": 195,
      "ć": 196,
      "Ĉ": 197,
      "ĉ": 198,
      "Ċ": 199,
      "ċ": 200,
      "Č": 201,
      "č": 202,
      "Ď": 203,
      "ď": 204,
      "Đ": 205,
      "đ": 206,
      "Ē": 207,
      "ē": 208,
      "Ĕ": 209,
      "ĕ": 210,
      "Ė": 211,
      "ė": 212,
      "Ę": 213,
      "ę": 214,
      "Ě": 215,
      "ě": 216,
      "Ĝ": 217,
      "ĝ": 218,
      "Ğ": 219,
      "ğ": 220,
      "Ġ": 221,
      "ġ": 222,
      "Ģ": 223,
      "ģ": 224,
      "Ĥ": 225,
      "ĥ": 226,
      "Ħ": 227,
      "ħ": 228,
      "Ĩ": 229,
      "ĩ": 230,
      "Ī": 231,
      "ī": 232,
      "Ĭ": 233,
      "ĭ": 234,
      "Į": 235,
      "į": 236,
      "İ": 237,
      "ı": 238,
      "Ĳ": 239,
      "ĳ": 240,
      "Ĵ": 241,
      "ĵ": 242,
      "Ķ": 243,
      "ķ": 244,
      "ĸ": 245,
      "Ĺ": 246,
      "ĺ": 247,
      "Ļ": 248,
      "ļ": 249,
      "Ľ": 250,
      "ľ": 251,
      "Ŀ": 252,
      "ŀ": 253,
      "Ł": 254,
      "ł": 255,
      "Ń": 256,
      "Ġt": 257,
      "he": 258,
      "Ġa": 259,
      "Ġs": 260,
      "Ġw": 261,
      "nd": 262,
      "Ġthe": 263,
      "ed": 264,
      "Ġb": 265,
      "Ġto": 266,
      "Ġand": 267,
      "Ġh": 268,
      "Ġf": 269,
      "ĠT": 270,
      "in": 271,
      "Ġwa": 272,
      "re": 273,
      "it": 274,
      "ou": 275,
      "Ġl": 276,
      "Ġd": 277,
      "Ġc": 278,
      "Ġp": 279,
      "ay": 280,
      "Ġm": 281,
      "er": 282,
      "Ġwas": 283,
      "ĠThe": 284,
      "om": 285,
      "Ġhe": 286,
      "is": 287,
      "Ġn": 288,
      "im": 289,
      "ar": 290,
      "on": 291,
      "Ġsa": 292,
      "ll": 293,
      "id": 294,
      "Ġha": 295,
      "Ġg": 296,
      "at": 297,
      "ĠS": 298,
      "ing": 299,
      "ot": 300,
      "en": 301,
      "an": 302,
      "le": 303,
      "or": 304,
      "end": 305,
      "ir": 306,
      "of": 307,
      "am": 308,
      "et": 309,
      "ĠH": 310,
      "Ġit": 311,
      "Ġth": 312,
      "ig": 313,
      "ĠThey": 314,
      "Ġpl": 315,
      "Ġin": 316,
      "il": 317,
      "ĠHe": 318,
      "Ġ\"": 319,
      "ow": 320,
      "ver": 321,
      "ri": 322,
      "Ġu": 323,
      "ut": 324,
      "Ġplay": 325,
      "ith": 326,
      "Ġsaid": 327,
      "Ġbe": 328,
      "Ġday": 329,
      "Ġwith": 330,
      "pp": 331,
      "On": 332,
      "Ġy": 333,
      "ked": 334,
      "oo": 335,
      "Ġr": 336,
      "Ġher": 337,
      "ex": 338,
      "ce": 339,
      "ld": 340,
      "Ġhis": 341,
      "ĠTim": 342,
      "ĠI": 343,
      "ĠShe": 344,
      "Ġst": 345,
      "ke": 346,
      "Ġbig": 347,
      "nt": 348,
      "ck": 349,
      "very": 350,
      "Ġyou": 351,
      "st": 352,
      "ve": 353,
      "un": 354,
      "Ġhapp": 355,
      "Ġon": 356,
      "all": 357,
      "riend": 358,
      "Ġfriend": 359,
      "ext": 360,
      "Ġthey": 361,
      "oft": 362,
      "ĠL": 363,
      "ily": 364,
      "Ġwe": 365,
      "Ġhad": 366,
      "Ġup": 367,
      "Ġli": 368,
      "Ġnot": 369,
      "her": 370,
      "Ġwant": 371,
      "itt": 372,
      "Ġof": 373,
      "<|": 374,
      "|>": 375,
      "endoft": 376,
      "endoftext": 377,
      "ad": 378,
      "Ġdo": 379,
      "ĠB": 380,
      "Ġe": 381,
      "se": 382,
      "Ġhappy": 383,
      "ent": 384,
      "Ġvery": 385,
      "ĠM": 386,
      "es": 387,
      "Ġsaw": 388,
      "One": 389,
      "Ġthat": 390,
      "ould": 391,
      "'s": 392,
      "Ġfor": 393,
      "ittle": 394,
      "Ġmom": 395,
      "Ġlittle": 396,
      "Ġsh": 397,
      "Ġshe": 398,
      "ime": 399,
      "ch": 400,
      "Ġnam": 401,
      "Ġtime": 402,
      "Ġk": 403,
      "Ġso": 404,
      "ound": 405,
      ".\"": 406,
      "Ġthere": 407,
      "Ġnamed": 408,
      "Ġbo": 409,
      "Ġsm": 410,
      "Ġwere": 411,
      "Ġwanted": 412,
      "ĠLily": 413,
      "Ġne": 414,
      "Ġfriends": 415,
      "out": 416,
      "ird": 417,
      "Ġbut": 418,
      "ved": 419,
      "ht": 420,
      "!\"": 421,
      "The": 422,
      "ĠTom": 423,
      "Ġbird": 424,
      "el": 425,
      "ake": 426,
      "Ġan": 427,
      "al": 428,
      "Ġtoo": 429,
      "ome": 430,
      "Ġwent": 431,
      "Ġwh": 432,
      "ide": 433,
      "Once": 434,
      "Ġall": 435,
      "ĠIt": 436,
      "Ġhel": 437,
      "ug": 438,
      "ue": 439,
      "Ġhelp": 440,
      "Ġis": 441,
      "Ġloo": 442,
      "ĠA": 443,
      "Ġupon": 444,
      "Ġlo": 445,
      "ter": 446,
      "ry": 447,
      "Ġtoy": 448,
      "ore": 449,
      "Ġfun": 450,
      "ind": 451,
      "get": 452,
      "ill": 453,
      "ame": 454,
      "Ġas": 455,
      "Ġj": 456,
      "ra": 457,
      "Ġat": 458,
      "gether": 459,
      "Ġo": 460,
      "Ġcat": 461,
      "Ġdid": 462,
      "Ġre": 463,
      "ur": 464,
      "Ġtogether": 465,
      "ack": 466,
      "Ġse": 467,
      "ly": 468,
      "Ġtre": 469,
      "ood": 470,
      "Ġdog": 471,
      "ic": 472,
      "Ġcould": 473,
      "ted": 474,
      "Ġcan": 475,
      "Ġball": 476,
      "ard": 477,
      "Ġgir": 478,
      "Ġtheir": 479,
      "ark": 480,
      "Ġgirl": 481,
      "Ġplayed": 482,
      "ec": 483,
      "my": 484,
      "Ġhim": 485,
      "Ġro": 486,
      "Ġgo": 487,
      "way": 488,
      "?\"": 489,
      "hed": 490,
      "ain": 491,
      "Ġkn": 492,
      "Ġle": 493,
      "Ġout": 494,
      "hen": 495,
      "Ġare": 496,
      "Ġfr": 497,
      "um": 498,
      "'t": 499,
      "Ġthem": 500,
      "Ġboy": 501,
      "Ġsad": 502,
      "ul": 503,
      "ax": 504,
      "Ġtree": 505,
      "other": 506,
      "oug": 507,
      "Ġman": 508,
      "Ġloved": 509,
      "Ġhave": 510,
      "Ġcl": 511,
      "Ġfound": 512,
      "Ġlooked": 513,
      "Ġsp": 514,
      "ĠSue": 515,
      "Ġstar": 516,
      "Ġsc": 517,
      "one": 518,
      "Ġback": 519,
      "own": 520,
      "hing": 521,
      "are": 522,
      "ĠMax": 523,
      "Ġlike": 524,
      "Ġbec": 525,
      "side": 526,
      "ful": 527,
      "Ġme": 528,
      "op": 529,
      "ong": 530,
      "Ġpark": 531,
      "Ġwould": 532,
      "ight": 533,
      "Ġliked": 534,
      "round": 535,
      "ĠOne": 536,
      "elt": 537,
      "Ġfa": 538,
      "Ġcar": 539,
      "Ġmake": 540,
      "ell": 541,
      "ĠBut": 542,
      "Ġfelt": 543,
      "Ġla": 544,
      "ĠW": 545,
      "Ġasked": 546,
      "ĠSam": 547,
      "You": 548,
      "ared": 549,
      "omet": 550,
      "ice": 551,
      "Ġcame": 552,
      "Ġnew": 553,
      "Ġstarted": 554,
      "ag": 555,
      "Ġsee": 556,
      "Ġno": 557,
      "ought": 558,
      "ouse": 559,
      "ĠBen": 560,
      "Ġal": 561,
      "iled": 562,
      "Ġag": 563,
      "Ġother": 564,
      "Ġgood": 565,
      "pot": 566,
      "ĠĊ": 567,
      "Ġsomet": 568,
      "Ġsmall": 569,
      "Ġbr": 570,
      "ob": 571,
      "ss": 572,
      "Ġsmiled": 573,
      "ade": 574,
      "ried": 575,
      "ings": 576,
      "Ġsay": 577,
      "Ġfind": 578,
      "Ġwor": 579,
      "Ġaway": 580,
      "Ġfrom": 581,
      "Ġthought": 582,
      "Ġmade": 583,
      "ĠSpot": 584,
      "Ġwhat": 585,
      "Ġex": 586,
      "Ġhome": 587,
      "Ġplaying": 588,
      "ened": 589,
      "Ġsomething": 590,
      "ty": 591,
      "Ġput": 592,
      "Ġevery": 593,
      "Ġwal": 594,
      "Ġco": 595,
      "ach": 596,
      "Ġmu": 597,
      "ia": 598,
      "uc": 599,
      "ook": 600,
      "ie": 601,
      "ny": 602,
      "ĠF": 603,
      "Ġagain": 604,
      "Ġran": 605,
      "Ġdown": 606,
      "ile": 607,
      "dd": 608,
      "arn": 609,
      "Ġtoys": 610,
      "ave": 611,
      "Ġpr": 612,
      "king": 613,
      "Ġscared": 614,
      "Ġsome": 615,
      "Ġtook": 616,
      "Ġlaug": 617,
      "ĠJ": 618,
      "Ġhouse": 619,
      "Ġfl": 620,
      "if": 621,
      "ab": 622,
      "Ġaround": 623,
      "Ġbox": 624,
      "Ġsw": 625,
      "ure": 626,
      "ick": 627,
      "Ġlearn": 628,
      "ep": 629,
      "ret": 630,
      "ish": 631,
      "oud": 632,
      "uck": 633,
      "Ġyour": 634,
      "Ġlived": 635,
      "ĠYou": 636,
      "Ġthings": 637,
      "Ġsun": 638,
      "Ġthen": 639,
      "Ġwill": 640,
      "ew": 641,
      "Ġbl": 642,
      "Ġmy": 643,
      "as": 644,
      "Ġwhen": 645,
      "Ġab": 646,
      "pped": 647,
      ",\"": 648,
      "us": 649,
      "Ġget": 650,
      "ank": 651,
      "Tim": 652,
      "Th": 653,
      "Ġch": 654,
      "Ġlot": 655,
      "ucy": 656,
      "oth": 657,
      "ap": 658,
      "ump": 659,
      "ĠMia": 660,
      "Ġwho": 661,
      "Ġtried": 662,
      "ist": 663,
      "Ġfe": 664,
      "Ġknow": 665,
      "Ġgot": 666,
      "ited": 667,
      "ust": 668,
      "Ġmany": 669,
      "Ġabout": 670,
      "Ġsays": 671,
      "Ġint": 672,
      "ally": 673,
      "nder": 674,
      "Ġred": 675,
      "Ġknew": 676,
      "Ġpret": 677,
      "ive": 678,
      "Ġdec": 679,
      "Lily": 680,
      "ise": 681,
      "ous": 682,
      "Ġany": 683,
      "au": 684,
      "ĠD": 685,
      "ace": 686,
      "Ġcare": 687,
      "Ġmore": 688,
      "Ġpic": 689,
      "qu": 690,
      "Ġbest": 691,
      "ause": 692,
      "Ġop": 693,
      "fter": 694,
      "Ġbecame": 695,
      "ĠLucy": 696,
      "Ġpo": 697,
      "Ġwater": 698,
      "ways": 699,
      "âĢ": 700,
      "fe": 701,
      "Ġhug": 702,
      "Ġlearned": 703,
      "ĠBob": 704,
      "Ġexc": 705,
      "Ġbecause": 706,
      "ite": 707,
      "Ġalways": 708,
      "Ġlook": 709,
      "Ġv": 710,
      "Ġoutside": 711,
      "Ġinto": 712,
      "Ġroom": 713,
      "Ġboth": 714,
      "Ġun": 715,
      "ided": 716,
      "Ġshow": 717,
      "Ġlaughed": 718,
      "ĠSo": 719,
      "Ġeat": 720,
      "Ġdecided": 721,
      "ĠAnd": 722,
      "Ġho": 723,
      "Ġgre": 724,
      "urp": 725,
      "udd": 726,
      "ant": 727,
      "Ġpe": 728,
      "ers": 729,
      "ĠE": 730,
      "ĠMom": 731,
      "Ġjump": 732,
      "nn": 733,
      "Ġlong": 734,
      "Ġone": 735,
      "Ġke": 736,
      "Ġthis": 737,
      "Ġnice": 738,
      "Ġrun": 739,
      "Yes": 740,
      "Ġexcited": 741,
      "Ġfast": 742,
      "They": 743,
      "Tom": 744,
      "Ġfeel": 745,
      "Ġdad": 746,
      "Ġtold": 747,
      "Ġmo": 748,
      "Ġsk": 749,
      "Ġinside": 750,
      "our": 751,
      "Ġam": 752,
      "Ġtr": 753,
      "Ġsl": 754,
      "ull": 755,
      "lew": 756,
      "Ġsor": 757,
      "Ġtake": 758,
      "urpr": 759,
      "Ġrock": 760,
      "iny": 761,
      "Ġpretty": 762,
      "nna": 763,
      "Ġsurpr": 764,
      "Ġgave": 765,
      "Ġeach": 766,
      "Ġgra": 767,
      "imal": 768,
      "ink": 769,
      "Ġanimal": 770,
      "Ġmuch": 771,
      "Ġhow": 772,
      "Wh": 773,
      "Ġstr": 774,
      "Ġold": 775,
      "Ġneed": 776,
      "But": 777,
      "Ġthan": 778,
      "Ġlet": 779,
      "ven": 780,
      "ara": 781,
      "ro": 782,
      "ged": 783,
      "Ġtow": 784,
      "ess": 785,
      "Ġunder": 786,
      "ĠC": 787,
      "Ġsorry": 788,
      "Ġor": 789,
      "Ġwalked": 790,
      "Ġcle": 791,
      "and": 792,
      "Ġta": 793,
      "Ġhand": 794,
      "ge": 795,
      "ised": 796,
      "og": 797,
      "Ġfish": 798,
      "urn": 799,
      "Ġte": 800,
      "urt": 801,
      "Ġkind": 802,
      "ff": 803,
      "Ġclo": 804,
      "ĠHis": 805,
      "Ġwat": 806,
      "ving": 807,
      "Ġhig": 808,
      "Ġanimals": 809,
      "ase": 810,
      "ĠAmy": 811,
      "Ġjust": 812,
      "Ġus": 813,
      "Ġhappened": 814,
      "ched": 815,
      "Ġfood": 816,
      "pl": 817,
      "Ġflow": 818,
      "Ġsky": 819,
      "here": 820,
      "Ġsn": 821,
      "rom": 822,
      "Ġide": 823,
      "Ġtry": 824,
      "Ġlist": 825,
      "ĠWe": 826,
      "Ġnear": 827,
      "gry": 828,
      "Ġdidn": 829,
      "Ġidea": 830,
      "Ġbet": 831,
      "Ġen": 832,
      "able": 833,
      "ate": 834,
      "ine": 835,
      "Ġfi": 836,
      "Ġflew": 837,
      "eci": 838,
      "Ġits": 839,
      "ream": 840,
      "Thank": 841,
      "Ġcareful": 842,
      "Ġshare": 843,
      "Ġcake": 844,
      "Ġheard": 845,
      "Ġbetter": 846,
      "Ġtw": 847,
      "Ġstor": 848,
      "Ġif": 849,
      "Ġspeci": 850,
      "Ġspecial": 851,
      "Ġdan": 852,
      "pec": 853,
      "ber": 854,
      "ion": 855,
      "ĠTh": 856,
      "Ġbear": 857,
      "Ġlots": 858,
      "Ġwind": 859,
      "lf": 860,
      "more": 861,
      "Ġanymore": 862,
      "udden": 863,
      "Ġclean": 864,
      "Ġnever": 865,
      "Ġfo": 866,
      "Ġdon": 867,
      "Mom": 868,
      "Ġgr": 869,
      "Ġbug": 870,
      "Ġtal": 871,
      "ople": 872,
      "Ġcom": 873,
      "Ġhard": 874,
      "Ġbu": 875,
      "Ġend": 876,
      "ĠThen": 877,
      "Ġby": 878,
      "Ġfly": 879,
      "uddenly": 880,
      "Ġmag": 881,
      "ort": 882,
      "Ġturn": 883,
      "Ġfore": 884,
      "Ġover": 885,
      "ĠAnna": 886,
      "ĠEvery": 887,
      "Ġeven": 888,
      "rm": 889,
      "Ġlove": 890,
      "Ġcol": 891,
      "Ġsafe": 892,
      "Ġpeople": 893,
      "Ġafter": 894,
      "Ġbad": 895,
      "ady": 896,
      "Ġhigh": 897,
      "Ġfam": 898,
      "Ġground": 899,
      "ak": 900,
      "Ġdoor": 901,
      "imb": 902,
      "Ġcome": 903,
      "bb": 904,
      "Ġshiny": 905,
      "Ġproud": 906,
      "As": 907,
      "Ġclimb": 908,
      "Ġopened": 909,
      "uff": 910,
      "Ġhurt": 911,
      "Ġpicked": 912,
      "Ġblue": 913,
      "Ġloud": 914,
      "pected": 915,
      "Let": 916,
      "Ġche": 917,
      "Ġgive": 918,
      "Ġway": 919,
      "Ġsurprised": 920,
      "Ġgl": 921,
      "'m": 922,
      "expected": 923,
      "Ġunexpected": 924,
      "ild": 925,
      "Ġthanked": 926,
      "Ġcu": 927,
      "Ġbook": 928,
      "ummy": 929,
      "ĠWhen": 930,
      "ĠFrom": 931,
      "Ġcall": 932,
      "Ġcolor": 933,
      "ĠHer": 934,
      "Ġfar": 935,
      "arden": 936,
      "Ġgarden": 937,
      "Ġever": 938,
      "Ġmagic": 939,
      "ĠK": 940,
      "Ġpar": 941,
      "ough": 942,
      "kay": 943,
      "Ġim": 944,
      "Ġhugged": 945,
      "Ġstill": 946,
      "Ġplace": 947,
      "No": 948,
      "Ġunt": 949,
      "ool": 950,
      "ĠSara": 951,
      "Ġoff": 952,
      "age": 953,
      "Ġma": 954,
      "Ġsmile": 955,
      "Ġwalk": 956,
      "ĠP": 957,
      "Ġjumped": 958,
      "Ġfamily": 959,
      "ĠIn": 960,
      "Ġuntil": 961,
      "iz": 962,
      "unny": 963,
      "ture": 964,
      "hes": 965,
      "Ġpa": 966,
      "em": 967,
      "Ġshould": 968,
      "Ġqu": 969,
      "Ġnow": 970,
      "ip": 971,
      "Ġkid": 972,
      "ct": 973,
      "Ġstick": 974,
      "itty": 975,
      "Ġstay": 976,
      "Ġstrong": 977,
      "Ġforest": 978,
      "Ġsto": 979,
      "ane": 980,
      "Ġdra": 981,
      "aut": 982,
      "Ġapp": 983,
      "uffy": 984,
      "dy": 985,
      "Ġbro": 986,
      "Ġboat": 987,
      "Ġgreat": 988,
      "Ġsqu": 989,
      "Ġbra": 990,
      "Ġbeaut": 991,
      "Ġtra": 992,
      "Ġnext": 993,
      "Ġhelped": 994,
      "Ġjo": 995,
      "ĠSally": 996,
      "lease": 997,
      "Ġhat": 998,
      "les": 999,
      "Ġhappily": 1000,
      "Ġpicture": 1001,
      "Ġstory": 1002,
      "iful": 1003,
      "ies": 1004,
      "Ġbeautiful": 1005,
      "Ġlisten": 1006,
      "ning": 1007,
      "th": 1008,
      "Ġshowed": 1009,
      "Ġwhile": 1010,
      "Ġcalled": 1011,
      "oon": 1012,
      "Ġmet": 1013,
      "Ġclos": 1014,
      "Now": 1015,
      "Ġkids": 1016,
      "pt": 1017,
      "Ġopen": 1018,
      "Ġfrog": 1019,
      "Ġsoft": 1020,
      "Ġmor": 1021,
      "Ġrem": 1022,
      "luffy": 1023,
      "Ġtown": 1024,
      "Ġeveryone": 1025,
      "Can": 1026,
      "It": 1027,
      "ger": 1028,
      "Ġimp": 1029,
      "Ġbeing": 1030,
      "He": 1031,
      "When": 1032,
      "Ġad": 1033,
      "Ġstopped": 1034,
      "rel": 1035,
      "Ġrain": 1036,
      "Ġangry": 1037,
      "by": 1038,
      "Ġyummy": 1039,
      "Ġwatch": 1040,
      "bit": 1041,
      "Ġdoll": 1042,
      "Ġca": 1043,
      "Ġcouldn": 1044,
      "abbit": 1045,
      "vent": 1046,
      "ary": 1047,
      "ĠLet": 1048,
      "ree": 1049,
      "Ġtruck": 1050,
      "Ġde": 1051,
      "Ġwo": 1052,
      "ished": 1053,
      "ĠKitty": 1054,
      "Ġmouse": 1055,
      "Ġrabbit": 1056,
      "be": 1057,
      "dded": 1058,
      "Ġate": 1059,
      "ress": 1060,
      "iss": 1061,
      "ĠFluffy": 1062,
      "Ġlost": 1063,
      "Ġwarm": 1064,
      "Ġslide": 1065,
      "Ġface": 1066,
      "Ġbrave": 1067,
      "Ġgame": 1068,
      "ĠWh": 1069,
      "Ġkeep": 1070,
      "Ġfell": 1071,
      "fore": 1072,
      "Ġleave": 1073,
      "Ġflowers": 1074,
      "Ġtwo": 1075,
      "Ġcook": 1076,
      "owl": 1077,
      "Ġbed": 1078,
      "Ġcry": 1079,
      "Ġpus": 1080,
      "illy": 1081,
      "so": 1082,
      "ock": 1083,
      "Ġsoon": 1084,
      "Ġnoise": 1085,
      "Ġgreen": 1086,
      "Ġalso": 1087,
      "ĠR": 1088,
      "That": 1089,
      "Ġbunny": 1090,
      "ear": 1091,
      "Ġnodded": 1092,
      "Ġwhere": 1093,
      "gan": 1094,
      "self": 1095,
      "Ġfix": 1096,
      "Ġsat": 1097,
      "Ġhaving": 1098,
      "ired": 1099,
      "Hi": 1100,
      "Ġbefore": 1101,
      "Ġyell": 1102,
      "âĢĿ": 1103,
      "Ġkept": 1104,
      "Ġhole": 1105,
      "Ġpain": 1106,
      "Ġhear": 1107,
      "âĢľ": 1108,
      "ble": 1109,
      "day": 1110,
      "Ġstore": 1111,
      "What": 1112,
      "Ġhands": 1113,
      "Ġcatch": 1114,
      "Look": 1115,
      "Ġuse": 1116,
      "irrel": 1117,
      "Then": 1118,
      "Ġsing": 1119,
      "Ġfin": 1120,
      "az": 1121,
      "irst": 1122,
      "Ġused": 1123,
      "Ġmommy": 1124,
      "Ġthr": 1125,
      "Ġexpl": 1126,
      "Ġfunny": 1127,
      "Ġbirds": 1128,
      "Ġsquirrel": 1129,
      "Ben": 1130,
      "ĠNow": 1131,
      "Ġcra": 1132,
      "Ġlooking": 1133,
      "uch": 1134,
      "Ġtired": 1135,
      "Ġey": 1136,
      "Ġgoing": 1137,
      "Ġwait": 1138,
      "Ġbre": 1139,
      "Ġkit": 1140,
      "oy": 1141,
      "eet": 1142,
      "aybe": 1143,
      "leep": 1144,
      "Ġmean": 1145,
      "ange": 1146,
      "thing": 1147,
      "ught": 1148,
      "Ġour": 1149,
      "led": 1150,
      "Ġpull": 1151,
      "air": 1152,
      "Ġdif": 1153,
      "Ġfav": 1154,
      "Ġsunny": 1155,
      "Ġtri": 1156,
      "Ġpond": 1157,
      "ember": 1158,
      "ĠCan": 1159,
      "Ġhas": 1160,
      "chen": 1161,
      "Ġkitchen": 1162,
      "Ġwr": 1163,
      "Ġparty": 1164,
      "ting": 1165,
      "Ġice": 1166,
      "Ġthink": 1167,
      "Ġflo": 1168,
      "oh": 1169,
      "orn": 1170,
      "Ġwork": 1171,
      "We": 1172,
      "ac": 1173,
      "Ġhead": 1174,
      "uit": 1175,
      "Ġbus": 1176,
      "Ġmess": 1177,
      "Ġworked": 1178,
      "Ġdr": 1179,
      "ng": 1180,
      "Ġreal": 1181,
      "ĠDo": 1182,
      "zy": 1183,
      "ious": 1184,
      "Ġokay": 1185,
      "ohn": 1186,
      "Ġothers": 1187,
      "Ġsound": 1188,
      "ft": 1189,
      "llow": 1190,
      "Ġbeh": 1191,
      "Ġmoral": 1192,
      "Ġeyes": 1193,
      "ath": 1194,
      "Ġsand": 1195,
      "Ġz": 1196,
      "rew": 1197,
      "Ġshared": 1198,
      "Ġtalk": 1199,
      "Ġadvent": 1200,
      "Ġremember": 1201,
      "ĠâĢľ": 1202,
      "Ġfavor": 1203,
      "joy": 1204,
      "ma": 1205,
      "Ġfavorite": 1206,
      "Hell": 1207,
      "Ġright": 1208,
      "Ġask": 1209,
      "Hello": 1210,
      "Ġcut": 1211,
      "Ġcuri": 1212,
      "Ġcold": 1213,
      "Ġri": 1214,
      "Ġhop": 1215,
      "Ġcon": 1216,
      "Ġimport": 1217,
      "Ġhill": 1218,
      "Ġmon": 1219,
      "lly": 1220,
      "Ġdir": 1221,
      "imes": 1222,
      "Ġenjoy": 1223,
      "Ġmaking": 1224,
      "Ġfollow": 1225,
      "Ġcurious": 1226,
      "Ġvo": 1227,
      "Ġpie": 1228,
      "Ġbright": 1229,
      "Ġyard": 1230,
      "ĠG": 1231,
      "At": 1232,
      "Ġflower": 1233,
      "ken": 1234,
      "Don": 1235,
      "Ġsweet": 1236,
      "reed": 1237,
      "Ġmove": 1238,
      "Ġduck": 1239,
      "Ġdis": 1240,
      "Ġown": 1241,
      "Ġrest": 1242,
      "Ġdraw": 1243,
      "Ġfirst": 1244,
      "Ġimportant": 1245,
      "Ġtop": 1246,
      "ĠJack": 1247,
      "Ġsho": 1248,
      "Ġcla": 1249,
      "Ġbegan": 1250,
      "Ġtall": 1251,
      "Ġpick": 1252,
      "Ġblock": 1253,
      "Ġwatched": 1254,
      "ount": 1255,
      "Ġsleep": 1256,
      "Ġbel": 1257,
      "Ġlady": 1258,
      "After": 1259,
      "Ġnight": 1260,
      "Ġthing": 1261,
      "Wow": 1262,
      "ied": 1263,
      "Ġrace": 1264,
      "ster": 1265,
      "Ġtail": 1266,
      "Ġhot": 1267,
      "fere": 1268,
      "Ġhid": 1269,
      "Ġhun": 1270,
      "Ġdiffere": 1271,
      "Ġagreed": 1272,
      "Ġfloor": 1273,
      "Ġhere": 1274,
      "Ġshout": 1275,
      "Ġstop": 1276,
      "ect": 1277,
      "Ġforg": 1278,
      "Ġdark": 1279,
      "ĠThis": 1280,
      "Ġbag": 1281,
      "Ġgrass": 1282,
      "ign": 1283,
      "Ġworry": 1284,
      "Ġsong": 1285,
      "Ġtable": 1286,
      "Ġtast": 1287,
      "Ġtell": 1288,
      "que": 1289,
      "Ġprin": 1290,
      "Ġneeded": 1291,
      "Ġleaves": 1292,
      "aring": 1293,
      "Ġvoice": 1294,
      "Ġread": 1295,
      "Ġyellow": 1296,
      "aper": 1297,
      "Ġfarm": 1298,
      "ĠFin": 1299,
      "Ġru": 1300,
      "Ġdress": 1301,
      "Ġtrees": 1302,
      "Ġhair": 1303,
      "Ġswing": 1304,
      "Why": 1305,
      "Ġdifferent": 1306,
      "Ġdel": 1307,
      "Ġadventure": 1308,
      "Ġwalking": 1309,
      "Ġsurprise": 1310,
      "Ġturned": 1311,
      "Ġplease": 1312,
      "âĢĻ": 1313,
      "ĠMr": 1314,
      "Ġhungry": 1315,
      "Max": 1316,
      "ĠSuddenly": 1317,
      "Ġdoes": 1318,
      "Ġcars": 1319,
      "ĠDad": 1320,
      "Ġcolors": 1321,
      "oom": 1322,
      "Suddenly": 1323,
      "Ġlaugh": 1324,
      "bo": 1325,
      "Sue": 1326,
      "Ġcloser": 1327,
      "ached": 1328,
      "Sam": 1329,
      "Ġpretend": 1330,
      "co": 1331,
      "Ġlion": 1332,
      "ient": 1333,
      "ered": 1334,
      "ila": 1335,
      "Ġbroken": 1336,
      "Ġwood": 1337,
      "Ġcried": 1338,
      "Ġprom": 1339,
      "Ġwet": 1340,
      "bye": 1341,
      "Ġpiece": 1342,
      "ĠTimmy": 1343,
      "Ġfriendly": 1344,
      "Ġfull": 1345,
      "Ġbehind": 1346,
      "Ġtrain": 1347,
      "isy": 1348,
      "Ġdance": 1349,
      "Anna": 1350,
      "ppy": 1351,
      "Ġtouch": 1352,
      "Ġclimbed": 1353,
      "Ġanother": 1354,
      "Ġdanc": 1355,
      "af": 1356,
      "Ġgone": 1357,
      "where": 1358,
      "Ġapple": 1359,
      "Ġsmell": 1360,
      "bbed": 1361,
      "Ġste": 1362,
      "Ġswim": 1363,
      "So": 1364,
      "cked": 1365,
      "Ġblocks": 1366,
      "ater": 1367,
      "Ġfeeling": 1368,
      "sh": 1369,
      "Ġpaper": 1370,
      "ĠThat": 1371,
      "She": 1372,
      "Ġamaz": 1373,
      "ĠAs": 1374,
      "Ġant": 1375,
      "Ġper": 1376,
      "Ġbutter": 1377,
      "Ġrunning": 1378,
      "ĠJane": 1379,
      "Ġreached": 1380,
      "Ġhelping": 1381,
      "Ġfair": 1382,
      "Ġlistened": 1383,
      "iced": 1384,
      "Ġgoodbye": 1385,
      "Ġready": 1386,
      "av": 1387,
      "Ġonly": 1388,
      "Ġhold": 1389,
      "Ġlight": 1390,
      "Ġac": 1391,
      "ray": 1392,
      "aby": 1393,
      "ike": 1394,
      "ĠO": 1395,
      "Ġroll": 1396,
      "Sara": 1397,
      "Ġcream": 1398,
      "ĠBobo": 1399,
      "Ġdri": 1400,
      "Ġrepl": 1401,
      "Ġsit": 1402,
      "key": 1403,
      "Ġpushed": 1404,
      "Ġfight": 1405,
      "Ġslow": 1406,
      "Ġplan": 1407,
      "Ġclose": 1408,
      "red": 1409,
      "ĠAll": 1410,
      "Ġless": 1411,
      "Ġdone": 1412,
      "pe": 1413,
      "Ġwag": 1414,
      "Ġowl": 1415,
      "Ġwall": 1416,
      "Ġcool": 1417,
      "Ġsees": 1418,
      "Ġmust": 1419,
      "Ġglad": 1420,
      "Ġfruit": 1421,
      "Ġwise": 1422,
      "Ġtiny": 1423,
      "ield": 1424,
      "Ġmoment": 1425,
      "Ġwonder": 1426,
      "Ġtrying": 1427,
      "Ġstuck": 1428,
      "ather": 1429,
      "Ġdream": 1430,
      "In": 1431,
      "Ġdin": 1432,
      "Ġthrough": 1433,
      "ash": 1434,
      "Ġwished": 1435,
      "Ġpen": 1436,
      "Ġfire": 1437,
      "ames": 1438,
      "Ġreach": 1439,
      "Ġbar": 1440,
      "Ġthank": 1441,
      "Ġbaby": 1442,
      "Ġbeen": 1443,
      "Ġwindow": 1444,
      "Ġjoin": 1445,
      "Ġexplore": 1446,
      "ott": 1447,
      "Ġlooks": 1448,
      "Ġdoing": 1449,
      "ĠEveryone": 1450,
      "Ġar": 1451,
      "Ġbit": 1452,
      "Ġbuy": 1453,
      "Ġshouted": 1454,
      "Ġair": 1455,
      "Mia": 1456,
      "Ġhide": 1457,
      "Ġbuild": 1458,
      "ĠMommy": 1459,
      "Ġnest": 1460,
      "Ġswam": 1461,
      "Ġscary": 1462,
      "Ġfall": 1463,
      "Ġcoming": 1464,
      "Ġcloud": 1465,
      "Ġland": 1466,
      "Ġbran": 1467,
      "Ġwin": 1468,
      "Ġblew": 1469,
      "oney": 1470,
      "Ġseen": 1471,
      "andy": 1472,
      "Ġperf": 1473,
      "ask": 1474,
      "Ġchild": 1475,
      "Ġdirty": 1476,
      "Ġheld": 1477,
      "Ġbooks": 1478,
      "avy": 1479,
      "ph": 1480,
      "Ġbigger": 1481,
      "Ġleft": 1482,
      "Ġquick": 1483,
      "Ġreplied": 1484,
      "Ġmat": 1485,
      "ely": 1486,
      "Ġunderst": 1487,
      "Ġmight": 1488,
      "Ġtreat": 1489,
      "ndma": 1490,
      "Ġcolorful": 1491,
      "Ġgrabbed": 1492,
      "Ġpulled": 1493,
      "Ġwhy": 1494,
      "Ġturns": 1495,
      "Okay": 1496,
      "Ġdro": 1497,
      "Ġbutterf": 1498,
      "ized": 1499,
      "Ġremembered": 1500,
      "Ġfill": 1501,
      "icy": 1502,
      "Ġname": 1503,
      "ucky": 1504,
      "Ġchair": 1505,
      "Ġcup": 1506,
      "Ġbroke": 1507,
      "Ġcast": 1508,
      "orm": 1509,
      "Ġcount": 1510,
      "Ġsometimes": 1511,
      "aisy": 1512,
      "Ġsure": 1513,
      "Ġthree": 1514,
      "oup": 1515,
      "ation": 1516,
      "Ġspl": 1517,
      "Ġhopped": 1518,
      "Ġpink": 1519,
      "ton": 1520,
      "Ġstayed": 1521,
      "Ġsnow": 1522,
      "Ġjob": 1523,
      "Ġclapped": 1524,
      "Oh": 1525,
      "up": 1526,
      "Ġgames": 1527,
      "der": 1528,
      "Ġbott": 1529,
      "Ġgif": 1530,
      "ee": 1531,
      "Ġwaited": 1532,
      "'re": 1533,
      "ĠThere": 1534,
      "Ġplant": 1535,
      "Ġnoticed": 1536,
      "Ġgrow": 1537,
      "Ġballoon": 1538,
      "Ġlesson": 1539,
      "ix": 1540,
      "Ġanything": 1541,
      "Ġpictures": 1542,
      "Ġwoods": 1543,
      "Ġmout": 1544,
      "Ġmouth": 1545,
      "ĠAfter": 1546,
      "Ġpaint": 1547,
      "Ġset": 1548,
      "Ġwaved": 1549,
      "uddy": 1550,
      "ower": 1551,
      "Ġenjoyed": 1552,
      "room": 1553,
      "Ġspot": 1554,
      "Ġalone": 1555,
      "Ġpot": 1556,
      "Ġcont": 1557,
      "This": 1558,
      "Ġsea": 1559,
      "Ġbrother": 1560,
      "ds": 1561,
      "Ġlikes": 1562,
      "art": 1563,
      "oun": 1564,
      "Her": 1565,
      "amp": 1566,
      "Ġtight": 1567,
      "\".": 1568,
      "Ġthrew": 1569,
      "Ġyear": 1570,
      "Ġheavy": 1571,
      "Ġwhite": 1572,
      "Ġfollowed": 1573,
      "Ġgent": 1574,
      "Ġquickly": 1575,
      "Ġbutterfly": 1576,
      "ins": 1577,
      "Spot": 1578,
      "Ġmiss": 1579,
      "Ġcookies": 1580,
      "Ġju": 1581,
      "ape": 1582,
      "Ġdeep": 1583,
      "asure": 1584,
      "olly": 1585,
      "Ġeverywhere": 1586,
      "de": 1587,
      "Lucy": 1588,
      "ze": 1589,
      "Ġbee": 1590,
      "Ġpat": 1591,
      "oe": 1592,
      "ĠJohn": 1593,
      "aught": 1594,
      "ries": 1595,
      "Ġmar": 1596,
      "Bob": 1597,
      "Ġworld": 1598,
      "cle": 1599,
      "ister": 1600,
      "Ġclot": 1601,
      "Ġwrong": 1602,
      "Ġclothes": 1603,
      "Ġcastle": 1604,
      "Ġcre": 1605,
      "Ġwear": 1606,
      "less": 1607,
      "lc": 1608,
      "Ġpu": 1609,
      "ross": 1610,
      "Ġmum": 1611,
      "Ġbutton": 1612,
      "Ġleaf": 1613,
      "iet": 1614,
      "Ġnap": 1615,
      "ĠBuddy": 1616,
      "ner": 1617,
      "Ġmix": 1618,
      "Ġkey": 1619,
      "Ġquiet": 1620,
      "arent": 1621,
      "Ġmakes": 1622,
      "ang": 1623,
      "Ġbrought": 1624,
      "Ġround": 1625,
      "row": 1626,
      "Ġparent": 1627,
      "rot": 1628,
      "ued": 1629,
      "Ġwants": 1630,
      "ully": 1631,
      "Ġwell": 1632,
      "Ġhimself": 1633,
      "ĠDaisy": 1634,
      "os": 1635,
      "Ġwon": 1636,
      "Ġride": 1637,
      "Ġdelic": 1638,
      "Ġfield": 1639,
      "man": 1640,
      "Ġdanced": 1641,
      "Ġarm": 1642,
      "Ġbreak": 1643,
      "ĠLila": 1644,
      "Ġtower": 1645,
      "Do": 1646,
      "Ġsign": 1647,
      "ĠWhat": 1648,
      "fully": 1649,
      "Ġhit": 1650,
      "Ġsnack": 1651,
      "Ġdrag": 1652,
      "thy": 1653,
      "Ġfaster": 1654,
      "Ġking": 1655,
      "Ġgift": 1656,
      "Ġtalked": 1657,
      "Ġforgot": 1658,
      "Ġwish": 1659,
      "Ġbeach": 1660,
      "Ġleg": 1661,
      "gg": 1662,
      "Ġsister": 1663,
      "Ġriver": 1664,
      "Ġmus": 1665,
      "cess": 1666,
      "ence": 1667,
      "Ġfinished": 1668,
      "Ġbranch": 1669,
      "Ġdry": 1670,
      "Ġcomp": 1671,
      "leph": 1672,
      "ves": 1673,
      "cy": 1674,
      "itten": 1675,
      "Ġsharing": 1676,
      "From": 1677,
      "Ġbike": 1678,
      "Ġpol": 1679,
      "ĠInside": 1680,
      "vel": 1681,
      "Ġdinner": 1682,
      "Ġdragon": 1683,
      "Ġfur": 1684,
      "ards": 1685,
      "Ġra": 1686,
      "Ġdanger": 1687,
      "Ġrel": 1688,
      "Ġem": 1689,
      "Ġbor": 1690,
      "Ġreally": 1691,
      "ipp": 1692,
      "Ġvis": 1693,
      "Ġunderstand": 1694,
      "Ġshin": 1695,
      "ĠTo": 1696,
      "ance": 1697,
      "Ġblack": 1698,
      "John": 1699,
      "ren": 1700,
      "Ġbottle": 1701,
      "Ġmonkey": 1702,
      "Ġfox": 1703,
      "His": 1704,
      "eddy": 1705,
      "Ġmonster": 1706,
      "Ġpig": 1707,
      "Ġsmart": 1708,
      "ĠAt": 1709,
      "Ġpoin": 1710,
      "Ġworried": 1711,
      "Ġrocks": 1712,
      "Ġcontin": 1713,
      "Amy": 1714,
      "Ġgu": 1715,
      "Ġcarefully": 1716,
      "Ġbowl": 1717,
      "Ġsomeone": 1718,
      "imi": 1719,
      "ctor": 1720,
      "Ġfairy": 1721,
      "Ġtoday": 1722,
      "Ġatt": 1723,
      "ast": 1724,
      "Ġfilled": 1725,
      "Ġside": 1726,
      "Ġpudd": 1727,
      "Ġeating": 1728,
      "Ġwelc": 1729,
      "Ġel": 1730,
      "ush": 1731,
      "ses": 1732,
      "Ġboun": 1733,
      "Ġcow": 1734,
      "Ġgi": 1735,
      "itting": 1736,
      "Ġbrown": 1737,
      "Ġsnake": 1738,
      "ead": 1739,
      "Ġwhe": 1740,
      "Ġpromised": 1741,
      "Ġfan": 1742,
      "Ġsilly": 1743,
      "Ġpet": 1744,
      "Ġhappen": 1745,
      "While": 1746,
      "Just": 1747,
      "Ġeverything": 1748,
      "Ġyes": 1749,
      "ts": 1750,
      "Ġres": 1751,
      "ĠMaybe": 1752,
      "ĠSoon": 1753,
      "Ġparents": 1754,
      "Ġsoup": 1755,
      "Ġmusic": 1756,
      "Ġvisit": 1757,
      "Ġmud": 1758,
      "Ġletter": 1759,
      "Ġfree": 1760,
      "ated": 1761,
      "Ġelse": 1762,
      "Ġpieces": 1763,
      "Ġroad": 1764,
      "Ġchildren": 1765,
      "Ġbite": 1766,
      "stead": 1767,
      "Ġsang": 1768,
      "Ġshop": 1769,
      "Ġcontinued": 1770,
      "Fin": 1771,
      "Ġtalking": 1772,
      "Ġkite": 1773,
      "Ġperfect": 1774,
      "zz": 1775,
      "Ġegg": 1776,
      "Ġflying": 1777,
      "Ġsmiles": 1778,
      "ĠBilly": 1779,
      "Ġthrow": 1780,
      "Ġrealized": 1781,
      "Ġmail": 1782,
      "Ġear": 1783,
      "ĠSarah": 1784,
      "ord": 1785,
      "Ġwords": 1786,
      "ĠEm": 1787,
      ".âĢĿ": 1788,
      "Ġamazing": 1789,
      "cket": 1790,
      "Ġjar": 1791,
      "Ġlaughing": 1792,
      "Ġwagged": 1793,
      "Ġque": 1794,
      "Ġorange": 1795,
      "Ġsec": 1796,
      "Ġmoved": 1797,
      "Ġsitting": 1798,
      "Ġenough": 1799,
      "Ġclosed": 1800,
      "ĠZ": 1801,
      "Ġpass": 1802,
      "Ġmother": 1803,
      "Ġwithout": 1804,
      "Ġshining": 1805,
      "gly": 1806,
      "Ġsmo": 1807,
      "Ġbuck": 1808,
      "Ġstand": 1809,
      "Ġcrab": 1810,
      "Ġsail": 1811,
      "Ġrope": 1812,
      "Ġdangerous": 1813,
      "fort": 1814,
      "Ġbath": 1815,
      "Ġstrange": 1816,
      "Ġbarked": 1817,
      "Ġsecret": 1818,
      "Ġstu": 1819,
      "ĠMimi": 1820,
      "Ġdrink": 1821,
      "Ġtasty": 1822,
      "Ġve": 1823,
      "unch": 1824,
      "Ġwelcome": 1825,
      "fish": 1826,
      "ella": 1827,
      "Ġpaw": 1828,
      "used": 1829,
      "iver": 1830,
      "board": 1831,
      "Ġcrying": 1832,
      "Ġce": 1833,
      "Ġheal": 1834,
      "Ġwhist": 1835,
      "Ġpast": 1836,
      "Ġlon": 1837,
      "ises": 1838,
      "Ġcandy": 1839,
      "Ġliving": 1840,
      "ĠJoe": 1841,
      "Ġ-": 1842,
      "Ġhigher": 1843,
      "Maybe": 1844,
      "ches": 1845,
      "Ġlonely": 1846,
      "Ġpre": 1847,
      "ĠCh": 1848,
      "Ġowner": 1849,
      "Ġshoes": 1850,
      "Ġbelie": 1851,
      "Ġsack": 1852,
      "Ġfarmer": 1853,
      "Please": 1854,
      "Ġmorning": 1855,
      "Ġtom": 1856,
      "arm": 1857,
      "ato": 1858,
      "chool": 1859,
      "ĠJen": 1860,
      "gy": 1861,
      "Ġswings": 1862,
      "Ġdelicious": 1863,
      "Ġpurp": 1864,
      "Ġschool": 1865,
      "ract": 1866,
      "isk": 1867,
      "llie": 1868,
      "Ġscream": 1869,
      "Ġteac": 1870,
      "ible": 1871,
      "Ġpush": 1872,
      "Ġfinally": 1873,
      "!âĢĿ": 1874,
      "Ġph": 1875,
      "Ġstone": 1876,
      "Ġgrandma": 1877,
      "Ġrolled": 1878,
      "lder": 1879,
      "Mommy": 1880,
      "lephant": 1881,
      "Ġpuddle": 1882,
      "ich": 1883,
      "Ġstre": 1884,
      "Ġdolls": 1885,
      "me": 1886,
      "ĠBl": 1887,
      "Ġblank": 1888,
      "Ġgetting": 1889,
      "ire": 1890,
      "Ġlake": 1891,
      "ama": 1892,
      "Ġasks": 1893,
      "Ġpurple": 1894,
      "lla": 1895,
      "asket": 1896,
      "Ġmad": 1897,
      "Ġshell": 1898,
      "Ġtrou": 1899,
      "Ġyears": 1900,
      "ased": 1901,
      "Ġcaught": 1902,
      "Ġblanket": 1903,
      "Ġcorn": 1904,
      "set": 1905,
      "Ġtreasure": 1906,
      "Ġwore": 1907,
      "Ġmoney": 1908,
      "Ġruns": 1909,
      "ub": 1910,
      "Ġbasket": 1911,
      "Ġhoped": 1912,
      "Ġpile": 1913,
      "ons": 1914,
      "Ġsame": 1915,
      "iskers": 1916,
      "eo": 1917,
      "Ġsinging": 1918,
      "app": 1919,
      "Ġherself": 1920,
      "ey": 1921,
      "Ġwings": 1922,
      "Ġpers": 1923,
      "Ġapples": 1924,
      "cks": 1925,
      "Ġben": 1926,
      "Ġcute": 1927,
      "br": 1928,
      "Ġbat": 1929,
      "Ġmine": 1930,
      "ĠTommy": 1931,
      "Ġje": 1932,
      "igh": 1933,
      "Ġplane": 1934,
      "Ġgentle": 1935,
      "Ġcray": 1936,
      "Ġcarrot": 1937,
      "Ġelephant": 1938,
      "Ġteacher": 1939,
      "Ġcoat": 1940,
      "Ġpill": 1941,
      "Ġsear": 1942,
      "Ġballs": 1943,
      "Ġdropped": 1944,
      "Ġstart": 1945,
      "Ġfit": 1946,
      "Ġteddy": 1947,
      "Ġdays": 1948,
      "Ġcour": 1949,
      "irth": 1950,
      "irthday": 1951,
      "Ġdoctor": 1952,
      "Finally": 1953,
      "ined": 1954,
      "Ġwar": 1955,
      "Ġcourse": 1956,
      "Ġforever": 1957,
      "Ġjoy": 1958,
      "Ġwoke": 1959,
      "aughty": 1960,
      "Ġnaughty": 1961,
      "Ġhiding": 1962,
      "Ġcard": 1963,
      "Ġseed": 1964,
      "Ġmin": 1965,
      "Ġbring": 1966,
      "Ġpromise": 1967,
      "ilk": 1968,
      "ĠWhiskers": 1969,
      "Ġmost": 1970,
      "Ġarri": 1971,
      "Ġteach": 1972,
      "Ġband": 1973,
      "Ġcr": 1974,
      "Ġspin": 1975,
      "Ġcookie": 1976,
      "umpy": 1977,
      "ol": 1978,
      "Ġfence": 1979,
      "ator": 1980,
      "Ġshap": 1981,
      "Ġchee": 1982,
      "Ġrob": 1983,
      "Ġbush": 1984,
      "ĠGra": 1985,
      "ĠBlue": 1986,
      "Ġlunch": 1987,
      "Ġmilk": 1988,
      "Ġshr": 1989,
      "Ġthinks": 1990,
      "Ġbirthday": 1991,
      "Ġugly": 1992,
      "Ġeas": 1993,
      "arp": 1994,
      "Ġnose": 1995,
      "Ġtouc": 1996,
      "ose": 1997,
      "ĠThank": 1998,
      "Ġjuice": 1999,
      "Ġob": 2000,
      "Ġvill": 2001,
      "Ġbow": 2002,
      "Ġgrew": 2003,
      "Ġpop": 2004,
      "Ġbelong": 2005,
      "sw": 2006,
      "Ġansw": 2007,
      "Ġshapes": 2008,
      "fused": 2009,
      "ipped": 2010,
      "itch": 2011,
      "Ġsharp": 2012,
      "ĠFred": 2013,
      "ail": 2014,
      "ass": 2015,
      "Ġcreat": 2016,
      "Ġyoung": 2017,
      "Ġheart": 2018,
      "sy": 2019,
      "irt": 2020,
      "umber": 2021,
      "Ġbench": 2022,
      "ier": 2023,
      "ĠBella": 2024,
      "Ġstreet": 2025,
      "'ll": 2026,
      "bow": 2027,
      "ĠLeo": 2028,
      "Ġseem": 2029,
      "Jack": 2030,
      "Ġbone": 2031,
      "Ġwra": 2032,
      "Ġlate": 2033,
      "Ġmark": 2034,
      "erry": 2035,
      "Ġable": 2036,
      "ale": 2037,
      "ball": 2038,
      "sc": 2039,
      "eter": 2040,
      "Ġbelieve": 2041,
      "Ġrocket": 2042,
      "Ġzoom": 2043,
      "Ġbucket": 2044,
      "Ġcoin": 2045,
      "Ġbread": 2046,
      "Ġpower": 2047,
      "Ġpocket": 2048,
      "Ġmagical": 2049,
      "Ġdirt": 2050,
      "Ġrobot": 2051,
      "Ġinc": 2052,
      "Ġshy": 2053,
      "Ġkiss": 2054,
      "Ġspoon": 2055,
      "Ġtouched": 2056,
      "Ġshook": 2057,
      "Ġbusy": 2058,
      "Ġslowly": 2059,
      "Ġkitten": 2060,
      "Ġtwins": 2061,
      "Ġprob": 2062,
      "Ġcheered": 2063,
      "Ġarrived": 2064,
      "Ġshake": 2065,
      "Ġfeels": 2066,
      "Ġlem": 2067,
      "Ġcraw": 2068,
      "Ġneck": 2069,
      "Ġseat": 2070,
      "Ġcarry": 2071,
      "Ġstorm": 2072,
      "Ġtrip": 2073,
      "ling": 2074,
      "Ġamazed": 2075,
      "Ġfew": 2076,
      "ung": 2077,
      "Ġspo": 2078,
      "eared": 2079,
      "Ġvillage": 2080,
      "OK": 2081,
      "igg": 2082,
      "Ġbell": 2083,
      "idge": 2084,
      "lem": 2085,
      "Ġtaking": 2086,
      "Ġcoll": 2087,
      "Ġstories": 2088,
      "Ġgrumpy": 2089,
      "Ġfixed": 2090,
      "Ġpatient": 2091,
      "Ġnut": 2092,
      "oose": 2093,
      "Ġproblem": 2094,
      "ost": 2095,
      "urtle": 2096,
      "Ġwheel": 2097,
      "Good": 2098,
      "Ġsounds": 2099,
      "Ġdist": 2100,
      "Ġlive": 2101,
      "Ġgray": 2102,
      "Ġwonderful": 2103,
      "irp": 2104,
      "Ġrainbow": 2105,
      "una": 2106,
      "Ġwave": 2107,
      "Ġtowards": 2108,
      "Ġsug": 2109,
      "Ġhuge": 2110,
      "Ġspark": 2111,
      "Ġrude": 2112,
      "Ġdriver": 2113,
      "Ġhor": 2114,
      "Ġcover": 2115,
      "ors": 2116,
      "Ġsongs": 2117,
      "fortable": 2118,
      "Ġwhistle": 2119,
      "ĠMark": 2120,
      "Ġcart": 2121,
      "Ġcir": 2122,
      "emy": 2123,
      "Ġwide": 2124,
      "ĠMomo": 2125,
      "Ġsal": 2126,
      "Lila": 2127,
      "Ġdes": 2128,
      "Ġrec": 2129,
      "epend": 2130,
      "unt": 2131,
      "ens": 2132,
      "Ġstring": 2133,
      "Ġdisapp": 2134,
      "kin": 2135,
      "Ġsuc": 2136,
      "elly": 2137,
      "bble": 2138,
      "Ġtreats": 2139,
      "Ġpath": 2140,
      "pping": 2141,
      "Ġmeet": 2142,
      "iling": 2143,
      "Ġupset": 2144,
      "Ġholding": 2145,
      "Ġcheese": 2146,
      "alm": 2147,
      "Ġmoon": 2148,
      "Be": 2149,
      "Ġturtle": 2150,
      "oph": 2151,
      "Ġwild": 2152,
      "Ġworm": 2153,
      "Of": 2154,
      "Sure": 2155,
      "ĠN": 2156,
      "Ġlay": 2157,
      "Ġhugs": 2158,
      "ourn": 2159,
      "Ġgrab": 2160,
      "Ġfighting": 2161,
      "Ġdi": 2162,
      "Ġlife": 2163,
      "Ġgiant": 2164,
      "Ġjourn": 2165,
      "Ġpeace": 2166,
      "Ġbugs": 2167,
      "Ġpuppy": 2168,
      "ring": 2169,
      "Ġjew": 2170,
      "umb": 2171,
      "Ġsmooth": 2172,
      "Ġban": 2173,
      "Ġnote": 2174,
      "adow": 2175,
      "Ġjoke": 2176,
      "Ġcloth": 2177,
      "Ġnoises": 2178,
      "ĠJust": 2179,
      "ĠEmma": 2180,
      "Ġjewel": 2181,
      "Ġsour": 2182,
      "Ġhoney": 2183,
      "Ġmist": 2184,
      "Ġsmelly": 2185,
      "Ġlucky": 2186,
      "Ġinv": 2187,
      "ountain": 2188,
      "Ġser": 2189,
      "Ġcou": 2190,
      "Ġlanded": 2191,
      "ular": 2192,
      "izzy": 2193,
      "ĠOn": 2194,
      "onest": 2195,
      "Ġnet": 2196,
      "pper": 2197,
      "St": 2198,
      "Ġcave": 2199,
      "Ġthin": 2200,
      "Ġrad": 2201,
      "aur": 2202,
      "Ġhonest": 2203,
      "Ġbeak": 2204,
      "ĠAnn": 2205,
      "Ġprincess": 2206,
      "not": 2207,
      "Ġboss": 2208,
      "Ġjelly": 2209,
      "ife": 2210,
      "Ġdrive": 2211,
      "isa": 2212,
      "Ġchew": 2213,
      "Ġpart": 2214,
      "Ġbanan": 2215,
      "ery": 2216,
      "Ġcannot": 2217,
      "Ġseek": 2218,
      "Ġact": 2219,
      "ĠMolly": 2220,
      "Ġmissed": 2221,
      "Ġba": 2222,
      "Ġmed": 2223,
      "Ġstars": 2224,
      "ove": 2225,
      "Ġdogs": 2226,
      "Ġign": 2227,
      "Ġsick": 2228,
      "Ġsuddenly": 2229,
      "read": 2230,
      "sp": 2231,
      "Ġoven": 2232,
      "Ġdrove": 2233,
      "lower": 2234,
      "Ġbri": 2235,
      "Ġstep": 2236,
      "Ġtea": 2237,
      "ĠFinally": 2238,
      "Ġsplas": 2239,
      "Ġshelf": 2240,
      "iger": 2241,
      "Ġexp": 2242,
      "Ġsnowman": 2243,
      "Ġwasn": 2244,
      "Ġinstead": 2245,
      "Ġfle": 2246,
      "ĠDog": 2247,
      "Ġfoot": 2248,
      "Hey": 2249,
      "Ġtaste": 2250,
      "Ġmaybe": 2251,
      "Ġducks": 2252,
      "Later": 2253,
      "Ġsel": 2254,
      "ert": 2255,
      "ope": 2256,
      "Ġacross": 2257,
      "Ġhelpful": 2258,
      "ateful": 2259,
      "Ġsandw": 2260,
      "Ġfancy": 2261,
      "Ġadventures": 2262,
      "est": 2263,
      "Ġbought": 2264,
      "Ġwash": 2265,
      "Ġorgan": 2266,
      "ere": 2267,
      "ian": 2268,
      "Ġcross": 2269,
      "To": 2270,
      "Ġline": 2271,
      "Ġglow": 2272,
      "ĠRemy": 2273,
      "Ġgrateful": 2274,
      "Ġcomes": 2275,
      "Ġforget": 2276,
      "Ġslid": 2277,
      "Ġash": 2278,
      "Ġconfused": 2279,
      "idy": 2280,
      "let": 2281,
      "Ġspe": 2282,
      "Ġchange": 2283,
      "Ġpuzz": 2284,
      "Ġhealthy": 2285,
      "Ġpillow": 2286,
      "Ġdish": 2287,
      "Ġpract": 2288,
      "Ġzoo": 2289,
      "ĠOllie": 2290,
      "oppy": 2291,
      "Ġval": 2292,
      "oomy": 2293,
      "Ġstepped": 2294,
      "Ġlast": 2295,
      "erest": 2296,
      "Ġlad": 2297,
      "Ġcap": 2298,
      "Ġinterest": 2299,
      "Ġelder": 2300,
      "Ġcho": 2301,
      "Ġselfish": 2302,
      "ity": 2303,
      "Ġworking": 2304,
      "Ġwhole": 2305,
      "Ġeasy": 2306,
      "Ġelderly": 2307,
      "ward": 2308,
      "Ġanyone": 2309,
      "Ġsticks": 2310,
      "Ġwatching": 2311,
      "Ġhope": 2312,
      "Ġcalm": 2313,
      "Ġmessy": 2314,
      "col": 2315,
      "Ġpri": 2316,
      "Ġsave": 2317,
      "amed": 2318,
      "Ġchased": 2319,
      "Ġdaddy": 2320,
      "Ġtakes": 2321,
      "Ġforgive": 2322,
      "Ġav": 2323,
      "Ġweak": 2324,
      "Ġmyster": 2325,
      "Ġteam": 2326,
      "ize": 2327,
      "irpy": 2328,
      "Ġwrite": 2329,
      "Ġshirt": 2330,
      "Ġladder": 2331,
      "oc": 2332,
      "Ġtape": 2333,
      "Ġwolf": 2334,
      "to": 2335,
      "ĠSp": 2336,
      "Ġclever": 2337,
      "pect": 2338,
      "Ġsplash": 2339,
      "Ġlegs": 2340,
      "Ġlemon": 2341,
      "Ġmind": 2342,
      "Ġfeather": 2343,
      "Ġphone": 2344,
      "Ġhorse": 2345,
      "Ġlonger": 2346,
      "Ġplants": 2347,
      "Ġperson": 2348,
      "Ġtidy": 2349,
      "Ġpour": 2350,
      "ider": 2351,
      "Ġstret": 2352,
      "Ġjog": 2353,
      "Ġprot": 2354,
      "ever": 2355,
      "ork": 2356,
      "Ġemp": 2357,
      "Soon": 2358,
      "Ġbark": 2359,
      "Ġlater": 2360,
      "Ġpan": 2361,
      "Ġalong": 2362,
      "ĠCat": 2363,
      "izz": 2364,
      "Ġempty": 2365,
      "Sally": 2366,
      "ĠBu": 2367,
      "Ġboot": 2368,
      "Ġfaces": 2369,
      "Ġseemed": 2370,
      "Ġlock": 2371,
      "Ġcozy": 2372,
      "Ġpretended": 2373,
      "bbles": 2374,
      "Ġsleepy": 2375,
      "Ġhum": 2376,
      "ions": 2377,
      "Ġsu": 2378,
      "iting": 2379,
      "Ġsaved": 2380,
      "Ġstir": 2381,
      "Ġfinish": 2382,
      "Ġwaiting": 2383,
      "Ġmach": 2384,
      "llo": 2385,
      "Ġswimm": 2386,
      "Come": 2387,
      "pill": 2388,
      "Ġret": 2389,
      "pillar": 2390,
      "?âĢĿ": 2391,
      "ually": 2392,
      "ained": 2393,
      "Ġspicy": 2394,
      "Ġchick": 2395,
      "ĠCome": 2396,
      "Ġcheer": 2397,
      "Ġbounce": 2398,
      "Ġent": 2399,
      "Ġring": 2400,
      "ĠLisa": 2401,
      "Ġgoat": 2402,
      "Ġscreamed": 2403,
      "Ġreturn": 2404,
      "Ġfake": 2405,
      "Ġpool": 2406,
      "ult": 2407,
      "ĠChirpy": 2408,
      "den": 2409,
      "Ġjumping": 2410,
      "ĠDaddy": 2411,
      "Ġsuch": 2412,
      "Ġinteresting": 2413,
      "Ġsupp": 2414,
      "Ġtie": 2415,
      "Ġwondered": 2416,
      "Ġclouds": 2417,
      "Ġprint": 2418,
      "ek": 2419,
      "Ġpin": 2420,
      "ĠDucky": 2421,
      "Ġfruits": 2422,
      "Ġmistake": 2423,
      "unk": 2424,
      "Ġdrank": 2425,
      "ocked": 2426,
      "Ġlift": 2427,
      "Ġspray": 2428,
      "erpillar": 2429,
      "Ġthough": 2430,
      "Ġplate": 2431,
      "Ġeag": 2432,
      "Ġcaterpillar": 2433,
      "Ġstra": 2434,
      "ĠTogether": 2435,
      "Ġbossy": 2436,
      "dge": 2437,
      "issors": 2438,
      "box": 2439,
      "Ġonto": 2440,
      "Ġgather": 2441,
      "Ġdrew": 2442,
      "eth": 2443,
      "Ġkick": 2444,
      "ĠBenny": 2445,
      "Ġbuilding": 2446,
      "Ġscissors": 2447,
      "Ġmachine": 2448,
      "Ġswimming": 2449,
      "ĠTV": 2450,
      "lebr": 2451,
      "ĠWith": 2452,
      "Ġrich": 2453,
      "Ġnorm": 2454,
      "Ġnumber": 2455,
      "ĠSt": 2456,
      "Ġsheep": 2457,
      "ĠElla": 2458,
      "Ġgives": 2459,
      "Ġhidden": 2460,
      "Ġcelebr": 2461,
      "ont": 2462,
      "Ġnormal": 2463,
      "Ġwing": 2464,
      "Ġbrush": 2465,
      "Kitty": 2466,
      "Ġcleaned": 2467,
      "Ġlovely": 2468,
      "Ġexplor": 2469,
      "Ġarms": 2470,
      "Ġfurry": 2471,
      "Ġcrayons": 2472,
      "Ġfront": 2473,
      "Ġglue": 2474,
      "Ġtrouble": 2475,
      "ment": 2476,
      "Ġfing": 2477,
      "Ġcher": 2478,
      "Ġpack": 2479,
      "ĠMy": 2480,
      "Ġspider": 2481,
      "aced": 2482,
      "Ġpenc": 2483,
      "izza": 2484,
      "Ġlar": 2485,
      "Ġcage": 2486,
      "Ġmatch": 2487,
      "Ġpointed": 2488,
      "Ġsugar": 2489,
      "ĠDoggy": 2490,
      "Ġpencil": 2491,
      "Ġmel": 2492,
      "ĠTheir": 2493,
      "ĠBunny": 2494,
      "elp": 2495,
      "Ġappeared": 2496,
      "urse": 2497,
      "Ġputs": 2498,
      "Ġprince": 2499,
      "Ġsmelled": 2500,
      "ned": 2501,
      "Ġsur": 2502,
      "Ġgate": 2503,
      "oop": 2504,
      "ĠLuna": 2505,
      "Ġpray": 2506,
      "Ġgently": 2507,
      "osaur": 2508,
      "ĠGrandma": 2509,
      "yard": 2510,
      "Ġbackyard": 2511,
      "Ġdinosaur": 2512,
      "Ġmatter": 2513,
      "Ġsearch": 2514,
      "And": 2515,
      "Ġfil": 2516,
      "Ġfear": 2517,
      "Ġdrum": 2518,
      "pa": 2519,
      "Ġship": 2520,
      "Ġclass": 2521,
      "Ġgun": 2522,
      "Ġtowel": 2523,
      "Ġqueen": 2524,
      "Ġcircle": 2525,
      "Ġsmiling": 2526,
      "Ġvan": 2527,
      "ĠGo": 2528,
      "Ġcouch": 2529,
      "Ġicy": 2530,
      "Ġtear": 2531,
      "Ġnearby": 2532,
      "Ġimag": 2533,
      "aughter": 2534,
      "Ġyelled": 2535,
      "Ġashamed": 2536,
      "Ġpowerful": 2537,
      "Ġwand": 2538,
      "Ġcri": 2539,
      "ĠSomet": 2540,
      "ĠJerry": 2541,
      "Ġflag": 2542,
      "gest": 2543,
      "Ġplaces": 2544,
      "Ġquest": 2545,
      "Help": 2546,
      "Ġlaw": 2547,
      "Ġaf": 2548,
      "Ġwom": 2549,
      "Ġlamp": 2550,
      "lev": 2551,
      "ĠWhy": 2552,
      "Ġdaughter": 2553,
      "Ġpizza": 2554,
      "Ġmir": 2555,
      "orrow": 2556,
      "ĠMama": 2557,
      "icked": 2558,
      "Ġcarried": 2559,
      "Ġlarge": 2560,
      "Ġwoman": 2561,
      "My": 2562,
      "Ġap": 2563,
      "Ġtrust": 2564,
      "Ġglass": 2565,
      "Ġwrap": 2566,
      "Ġjourney": 2567,
      "ym": 2568,
      "Ġgas": 2569,
      "Ġneigh": 2570,
      "ĠJim": 2571,
      "Ġtrue": 2572,
      "Ġrub": 2573,
      "Stop": 2574,
      "ror": 2575,
      "vous": 2576,
      "Ġbal": 2577,
      "ones": 2578,
      "Ġtries": 2579,
      "Ġneighb": 2580,
      "ique": 2581,
      "ĠJill": 2582,
      "Ġunique": 2583,
      "Ġemb": 2584,
      "Ġjeep": 2585,
      "Ġignor": 2586,
      "isp": 2587,
      "Ġwearing": 2588,
      "Ġfright": 2589,
      "ensive": 2590,
      "Ġexpensive": 2591,
      "Ġhur": 2592,
      "ĠIf": 2593,
      "Ġgoes": 2594,
      "Ġtomorrow": 2595,
      "Ġdizzy": 2596,
      "itter": 2597,
      "ĠBe": 2598,
      "Ġloves": 2599,
      "ced": 2600,
      "Ġdig": 2601,
      "Ġsaf": 2602,
      "Ġweird": 2603,
      "Ġants": 2604,
      "Ġthese": 2605,
      "Ġhello": 2606,
      "ugg": 2607,
      "raid": 2608,
      "Ġchase": 2609,
      "ĠBobby": 2610,
      "Ġdancing": 2611,
      "Ġmirror": 2612,
      "Ġreg": 2613,
      "Ġspring": 2614,
      "Ġafraid": 2615,
      "Ġnothing": 2616,
      "ĠBr": 2617,
      "Ġscar": 2618,
      "ĠTiny": 2619,
      "arra": 2620,
      "Ġpoor": 2621,
      "Ġfrightened": 2622,
      "arrass": 2623,
      "kn": 2624,
      "mer": 2625,
      "ndpa": 2626,
      "Ġcand": 2627,
      "Ġner": 2628,
      "Ġwhisp": 2629,
      "Ġlazy": 2630,
      "Ġtest": 2631,
      "Ġeager": 2632,
      "Ġembarrass": 2633,
      "iff": 2634,
      "Ġprotect": 2635,
      "aw": 2636,
      "Ġstood": 2637,
      "Ġdest": 2638,
      "Ġtomato": 2639,
      "ness": 2640,
      "Ġsuccess": 2641,
      "known": 2642,
      "Ġnervous": 2643,
      "Ġbridge": 2644,
      "bby": 2645,
      "Ġsplashed": 2646,
      "Ġpuzzle": 2647,
      "Ġwis": 2648,
      "Ġwip": 2649,
      "Ġbake": 2650,
      "Ġpay": 2651,
      "Ġclay": 2652,
      "Ġunknown": 2653,
      "Ġgen": 2654,
      "Ġgigg": 2655,
      "Ġgold": 2656,
      "Ġdecor": 2657,
      "Ġimpress": 2658,
      "Ġcreative": 2659,
      "Ġincred": 2660,
      "ina": 2661,
      "Ġfeet": 2662,
      "ventually": 2663,
      "era": 2664,
      "ĠRex": 2665,
      "Ġincredible": 2666,
      "Ġtent": 2667,
      "Ġsol": 2668,
      "Ġsock": 2669,
      "Ġlead": 2670,
      "Ġsandwich": 2671,
      "Ġswan": 2672,
      "Ġteeth": 2673,
      "any": 2674,
      "Ġuseful": 2675,
      "ĠHow": 2676,
      "ĠMary": 2677,
      "Ġclock": 2678,
      "ual": 2679,
      "ute": 2680,
      "ĠBird": 2681,
      "ĠBear": 2682,
      "Ġsteak": 2683,
      "Ġboring": 2684,
      "Ġrespect": 2685,
      "Ġsoap": 2686,
      "berry": 2687,
      "Ġsquare": 2688,
      "Ġdisco": 2689,
      "Ġstraw": 2690,
      "lves": 2691,
      "Ġfool": 2692,
      "Ġcloset": 2693,
      "Ġmixed": 2694,
      "Ġpres": 2695,
      "Ġpump": 2696,
      "Ġmask": 2697,
      "owed": 2698,
      "Ġknocked": 2699,
      "Ġpotato": 2700,
      "Ġpeaceful": 2701,
      "cream": 2702,
      "Ġburn": 2703,
      "Ġwhale": 2704,
      "Ġsword": 2705,
      "Ġfamous": 2706,
      "airs": 2707,
      "Ġmysterious": 2708,
      "Ġhar": 2709,
      "Ġbean": 2710,
      "ĠAndy": 2711,
      "Tommy": 2712,
      "upid": 2713,
      "Ġgener": 2714,
      "rated": 2715,
      "we": 2716,
      "Ġ3": 2717,
      "Ġyog": 2718,
      "Ġshark": 2719,
      "Ġsold": 2720,
      "Ġanswer": 2721,
      "Ġsco": 2722,
      "bled": 2723,
      "cient": 2724,
      "arl": 2725,
      "Ġrug": 2726,
      "Ġkicked": 2727,
      "Ġwouldn": 2728,
      "Ġfeed": 2729,
      "ĠPlease": 2730,
      "Ġpolite": 2731,
      "com": 2732,
      "erri": 2733,
      "Ġancient": 2734,
      "Ġjam": 2735,
      "Ġmeasure": 2736,
      "Ġdisg": 2737,
      "Ġsnacks": 2738,
      "Ġblow": 2739,
      "Ġrelie": 2740,
      "Ġcorner": 2741,
      "ond": 2742,
      "Ġesc": 2743,
      "Ġspace": 2744,
      "Ġnoisy": 2745,
      "reen": 2746,
      "imp": 2747,
      "ote": 2748,
      "Ġspread": 2749,
      "Ġbranches": 2750,
      "Ġscarf": 2751,
      "Ġstupid": 2752,
      "ĠDon": 2753,
      "Ġpainted": 2754,
      "ormous": 2755,
      "Ġchocol": 2756,
      "rob": 2757,
      "Ġrough": 2758,
      "Ġshoe": 2759,
      "Ġmarch": 2760,
      "Ġeggs": 2761,
      "Ġwagon": 2762,
      "Ġpaws": 2763,
      "uce": 2764,
      "Ġdug": 2765,
      "Ġmoms": 2766,
      "Ġfrust": 2767,
      "Ġdead": 2768,
      "Ġstudy": 2769,
      "Ġcrown": 2770,
      "Ġdisgust": 2771,
      "Ġterri": 2772,
      "Ġbarn": 2773,
      "ĠSometimes": 2774,
      "Ġfoolish": 2775,
      "robe": 2776,
      "Dad": 2777,
      "Ġmis": 2778,
      "enny": 2779,
      "Ġrare": 2780,
      "Ġsell": 2781,
      "Ġenormous": 2782,
      "Ġsteal": 2783,
      "Ġpresent": 2784,
      "getable": 2785,
      "Ġscare": 2786,
      "Ġunderstood": 2787,
      "Ġvegetable": 2788,
      "Ġsalad": 2789,
      "Ġbanana": 2790,
      "Ġbald": 2791,
      "Ġmedic": 2792,
      "Ġchocolate": 2793,
      "Ġdisgusting": 2794,
      "corn": 2795,
      "edient": 2796,
      "ighed": 2797,
      "Ġhero": 2798,
      "Ġstuff": 2799,
      "ado": 2800,
      "Ġclap": 2801,
      "Ġgenerous": 2802,
      "Ġmedicine": 2803,
      "fic": 2804,
      "Ġbitter": 2805,
      "Ġgoose": 2806,
      "Ġgroup": 2807,
      "Ġdiffic": 2808,
      "pes": 2809,
      "Ġthick": 2810,
      "Ġroar": 2811,
      "ĠSammy": 2812,
      "Ġmush": 2813,
      "ĠInstead": 2814,
      "Ġbreath": 2815,
      "Ġperform": 2816,
      "Ġfrustrated": 2817,
      "Ġdifficult": 2818,
      "Ġtick": 2819,
      "Ġshadow": 2820,
      "Ġsmaller": 2821,
      "ĠPe": 2822,
      "Ġmarket": 2823,
      "Ġcovered": 2824,
      "Ġmelon": 2825,
      "Ġguit": 2826,
      "Ġord": 2827,
      "Ġtasted": 2828,
      "Ġobedient": 2829,
      "Ġguitar": 2830,
      "mb": 2831,
      "port": 2832,
      "Ġwake": 2833,
      "orry": 2834,
      "roy": 2835,
      "Ġhorn": 2836,
      "Ġhang": 2837,
      "ĠSome": 2838,
      "alk": 2839,
      "Ġlab": 2840,
      "Ġdestroy": 2841,
      "Ġtoug": 2842,
      "inal": 2843,
      "Ġmot": 2844,
      "Ġmountain": 2845,
      "Ġasleep": 2846,
      "Ġref": 2847,
      "asses": 2848,
      "Ġbored": 2849,
      "aking": 2850,
      "Ġwhich": 2851,
      "Timmy": 2852,
      "Ġtaught": 2853,
      "Ġstanding": 2854,
      "land": 2855,
      "Ġharm": 2856,
      "Ġbecome": 2857,
      "usual": 2858,
      "ĠBrown": 2859,
      "Ġrelieved": 2860,
      "Ġsuit": 2861,
      "Ġlif": 2862,
      "Ġjoined": 2863,
      "Ġterrible": 2864,
      "Ġtough": 2865,
      "atter": 2866,
      "alous": 2867,
      "Ġjung": 2868,
      "Ġpebble": 2869,
      "Ġmoving": 2870,
      "Ġsquash": 2871,
      "Ġjealous": 2872,
      "Ġexploring": 2873,
      "Ġmushroom": 2874,
      "iginal": 2875,
      "als": 2876,
      "Ġknife": 2877,
      "Ġyourself": 2878,
      "Ġparrot": 2879,
      "Ġadm": 2880,
      "Ġjungle": 2881,
      "Ġtun": 2882,
      "Ġasking": 2883,
      "Ġunusual": 2884,
      "Ġclear": 2885,
      "Here": 2886,
      "Together": 2887,
      "Ġdiscover": 2888,
      "Ġpumpkin": 2889,
      "Ġdull": 2890,
      "Ġspoiled": 2891,
      "Ġprize": 2892,
      "Ġbul": 2893,
      "Ġfat": 2894,
      "atch": 2895,
      "Ġsunf": 2896,
      "Ġchicken": 2897,
      "Ġtiger": 2898,
      "Ġmighty": 2899,
      "Ġpopcorn": 2900,
      "Ġnuts": 2901,
      "Ġfine": 2902,
      "Ġthoughtful": 2903,
      "Ġcomb": 2904,
      "Ġhears": 2905,
      "Ġbulb": 2906,
      "mp": 2907,
      "Ġsque": 2908,
      "Ġhay": 2909,
      "ident": 2910,
      "Ġstri": 2911,
      "Ġtool": 2912,
      "ume": 2913,
      "Ġvase": 2914,
      "Ġtwist": 2915,
      "ĠPoppy": 2916,
      "Ġseeds": 2917,
      "Ġind": 2918,
      "erce": 2919,
      "rag": 2920,
      "Ġoriginal": 2921,
      "Ġfierce": 2922,
      "Ġdrop": 2923,
      "Ġcop": 2924,
      "ĠWill": 2925,
      "Ġsnee": 2926,
      "Ġending": 2927,
      "Ġdrawing": 2928,
      "Ġisland": 2929,
      "Ġthankful": 2930,
      "Ġcarrots": 2931,
      "Ġcro": 2932,
      "umsy": 2933,
      "Ġspent": 2934,
      "Ġmuff": 2935,
      "Ġcheap": 2936,
      "Inside": 2937,
      "Ġrelax": 2938,
      "Ġembarrassed": 2939,
      "Ġaunt": 2940,
      "Ġmic": 2941,
      "selves": 2942,
      "Ġclown": 2943,
      "Ġbloom": 2944,
      "Ġknowing": 2945,
      "Ġeng": 2946,
      "Ġfold": 2947,
      "Ġtroubled": 2948,
      "Are": 2949,
      "ĠTr": 2950,
      "oto": 2951,
      "Ġfrown": 2952,
      "Ġfinding": 2953,
      "Ġtemp": 2954,
      "Ġrecord": 2955,
      "Ġbalance": 2956,
      "comfortable": 2957,
      "Ġsunflower": 2958,
      "Ġ'": 2959,
      "ĠMany": 2960,
      "Ġlose": 2961,
      "Ġuncomfortable": 2962,
      "Ġchest": 2963,
      "Ġhats": 2964,
      "ser": 2965,
      "Ġadd": 2966,
      "Ġcone": 2967,
      "ĠSunny": 2968,
      "cean": 2969,
      "ĠAl": 2970,
      "Ġocean": 2971,
      "Ġexciting": 2972,
      "irsty": 2973,
      "Ġadventur": 2974,
      "Ġshoot": 2975,
      "Ġguess": 2976,
      "xible": 2977,
      "iness": 2978,
      "ilt": 2979,
      "Ġstamp": 2980,
      "Ġacorn": 2981,
      "Ġlifted": 2982,
      "dle": 2983,
      "yal": 2984,
      "Ġseal": 2985,
      "Ġclumsy": 2986,
      "Ġscatter": 2987,
      "opard": 2988,
      "Ġtrick": 2989,
      "ĠJenny": 2990,
      "Sorry": 2991,
      "Ġcush": 2992,
      "ages": 2993,
      "Ġwrote": 2994,
      "Ġhairy": 2995,
      "angle": 2996,
      "Ġpasta": 2997,
      "Ġadventurous": 2998,
      "Where": 2999,
      "lace": 3000,
      "Ġbody": 3001,
      "Ġloyal": 3002,
      "Ġcats": 3003,
      "Ġunl": 3004,
      "Ġcrazy": 3005,
      "Ġpicks": 3006,
      "Ġarrow": 3007,
      "Ġnecklace": 3008,
      "ti": 3009,
      "Ġber": 3010,
      "Ġdepend": 3011,
      "Ġexam": 3012,
      "Ġcost": 3013,
      "Ġhose": 3014,
      "Ġcomfortable": 3015,
      "Ġbrace": 3016,
      "Ġtells": 3017,
      "Ġstubb": 3018,
      "Ġharmless": 3019,
      "Ġberries": 3020,
      "apped": 3021,
      "iant": 3022,
      "xious": 3023,
      "amond": 3024,
      "urkey": 3025,
      "Ġbehave": 3026,
      "Ġdeliver": 3027,
      "Ġsearched": 3028,
      "tti": 3029,
      "hetti": 3030,
      "Ġanxious": 3031,
      "aghetti": 3032,
      "Ġdiamond": 3033,
      "Ġorganized": 3034,
      "Ġengine": 3035,
      "Molly": 3036,
      "gu": 3037,
      "Ġfis": 3038,
      "Ġmov": 3039,
      "Ġremind": 3040,
      "Ġcrayon": 3041,
      "Ġcollect": 3042,
      "ependent": 3043,
      "Ġstubborn": 3044,
      "light": 3045,
      "Ġturkey": 3046,
      "Ġthirsty": 3047,
      "Ġplayful": 3048,
      "Ġscr": 3049,
      "Ġswe": 3050,
      "ĠEmily": 3051,
      "Ġpracticed": 3052,
      "Ġstretch": 3053,
      "host": 3054,
      "Ġtied": 3055,
      "Ġfrag": 3056,
      "Ġpir": 3057,
      "anged": 3058,
      "Ġjug": 3059,
      "Ġword": 3060,
      "Ġenv": 3061,
      "Ġenvel": 3062,
      "Ġbubbles": 3063,
      "Ġgloomy": 3064,
      "Ġmailbox": 3065,
      "dile": 3066,
      "lph": 3067,
      "Ġraced": 3068,
      "illa": 3069,
      "Ġrep": 3070,
      "Ġspaghetti": 3071,
      "Ġprun": 3072,
      "Ġyours": 3073,
      "ants": 3074,
      "codile": 3075,
      "Ġbarber": 3076,
      "Ġpolice": 3077,
      "Ġbathroom": 3078,
      "Ġcrawl": 3079,
      "Ġflexible": 3080,
      "Ġindependent": 3081,
      "How": 3082,
      "Ġsil": 3083,
      "Ġpro": 3084,
      "ĠEven": 3085,
      "Ġdeer": 3086,
      "Ġcrack": 3087,
      "Ġescape": 3088,
      "ĠU": 3089,
      "Ġghost": 3090,
      "Ġliz": 3091,
      "Ġpige": 3092,
      "Ġpassed": 3093,
      "Ġmotor": 3094,
      "Ġfragile": 3095,
      "aff": 3096,
      "Ġneeds": 3097,
      "Ġjolly": 3098,
      "Ġdeaf": 3099,
      "Ġcelebrate": 3100,
      "Ġdependable": 3101,
      "io": 3102,
      "Ġfig": 3103,
      "Ġbees": 3104,
      "Ġrat": 3105,
      "Ġdove": 3106,
      "Ġdolph": 3107,
      "Ġroof": 3108,
      "Ġchess": 3109,
      "Ġstove": 3110,
      "ĠWhile": 3111,
      "shine": 3112,
      "Ġwheat": 3113,
      "cident": 3114,
      "Ġstat": 3115,
      "Ġleopard": 3116,
      "Ġflash": 3117,
      "Ġraven": 3118,
      "Ġattic": 3119,
      "Ġbrill": 3120,
      "Ġcrocodile": 3121,
      "nic": 3122,
      "Ġpress": 3123,
      "Ġmap": 3124,
      "Ġyarn": 3125,
      "Ġlog": 3126,
      "Ġboys": 3127,
      "Ġsung": 3128,
      "Ġchanged": 3129,
      "Ġshows": 3130,
      "Ġpainting": 3131,
      "Ġexplained": 3132,
      "Ġbrilliant": 3133,
      "If": 3134,
      "ground": 3135,
      "Ġthu": 3136,
      "Ġweal": 3137,
      "Their": 3138,
      "Ġpicnic": 3139,
      "Ġcolour": 3140,
      "Ġhumble": 3141,
      "Ġer": 3142,
      "Ġmill": 3143,
      "Ġshiver": 3144,
      "Ġboard": 3145,
      "Ġtricks": 3146,
      "Ġzip": 3147,
      "Ġcrawled": 3148,
      "hip": 3149,
      "nel": 3150,
      "Ġchoose": 3151,
      "Ġusing": 3152,
      "Ġignorant": 3153,
      "Ġtemple": 3154,
      "Ġenvelope": 3155,
      "Me": 3156,
      "Mama": 3157,
      "iv": 3158,
      "lasses": 3159,
      "weet": 3160,
      "Ġsend": 3161,
      "Ġhoop": 3162,
      "Ġfriendship": 3163,
      "Ġframe": 3164,
      "Ġruined": 3165,
      "Ġballoons": 3166,
      "Ġavoc": 3167,
      "Ġcheerful": 3168,
      "Ġsunglasses": 3169,
      "met": 3170,
      "net": 3171,
      "inary": 3172,
      "Ġknee": 3173,
      "Ġpepper": 3174,
      "Ġfolder": 3175,
      "Ġbuilt": 3176,
      "Ġaccident": 3177,
      "Ġcounted": 3178,
      "Ġbottom": 3179,
      "Ġraft": 3180,
      "Ġbatter": 3181,
      "Ġpopular": 3182,
      "most": 3183,
      "Ġwaves": 3184,
      "Ġpants": 3185,
      "iddle": 3186,
      "Ġstones": 3187,
      "Ġhelmet": 3188,
      "Ġrose": 3189,
      "Ġspotted": 3190,
      "Ġdelicate": 3191,
      "Ġcompet": 3192,
      "Every": 3193,
      "work": 3194,
      "Ġtoast": 3195,
      "igator": 3196,
      "Ġjack": 3197,
      "ulu": 3198,
      "Ġspill": 3199,
      "Ġscreen": 3200,
      "Ġsunshine": 3201,
      "Ġtriangle": 3202,
      "Ġkissed": 3203,
      "Ġenvious": 3204,
      "Ġsighed": 3205,
      "Ġmiddle": 3206,
      "erable": 3207,
      "Ġstage": 3208,
      "ĠYour": 3209,
      "umpet": 3210,
      "Ġcareless": 3211,
      "fee": 3212,
      "Ġtrumpet": 3213,
      "Ġcleaning": 3214,
      "Ġlouder": 3215,
      "Ġmiserable": 3216,
      "Ġlizard": 3217,
      "Jane": 3218,
      "ying": 3219,
      "ĠNo": 3220,
      "Ġwander": 3221,
      "ither": 3222,
      "Ġpow": 3223,
      "Ġscale": 3224,
      "Ġalmost": 3225,
      "Ġserious": 3226,
      "Ġfinger": 3227,
      "Ġimpressive": 3228,
      "Ġharsh": 3229,
      "Ġvegetables": 3230,
      "Ġtunnel": 3231,
      "Ġpigeon": 3232,
      "Ġstatue": 3233,
      "Ġsailed": 3234,
      "ĠSh": 3235,
      "offee": 3236,
      "seum": 3237,
      "Ġalligator": 3238,
      "iable": 3239,
      "Ġhopping": 3240,
      "Ġmaze": 3241,
      "Ġbelt": 3242,
      "Ġborrow": 3243,
      "Ġbracelet": 3244,
      "Ġmeant": 3245,
      "Ġnosy": 3246,
      "Ġmuseum": 3247,
      "Ġslipped": 3248,
      "Ġnapkin": 3249,
      "Ġguard": 3250,
      "Ġearth": 3251,
      "Ġfigure": 3252,
      "Ġbin": 3253,
      "Ġwashed": 3254,
      "Ġsaus": 3255,
      "There": 3256,
      "Ġpost": 3257,
      "Ġtaken": 3258,
      "Ġcompl": 3259,
      "Ġpenny": 3260,
      "Ġattract": 3261,
      "Mum": 3262,
      "Ġcoo": 3263,
      "Ġcries": 3264,
      "Ġcoffee": 3265,
      "Ġgar": 3266,
      "Ġrh": 3267,
      "Ġhappiness": 3268,
      "Ġhurts": 3269,
      "Ġreliable": 3270,
      "Ġjellyfish": 3271,
      "Ġneighbor": 3272,
      "Ġmovie": 3273,
      "Ġjacket": 3274,
      "Ġgor": 3275,
      "Ġknight": 3276,
      "berries": 3277,
      "ctop": 3278,
      "Ġfilthy": 3279,
      "Ġordinary": 3280,
      "Ġattractive": 3281,
      "Ġcam": 3282,
      "Ġgem": 3283,
      "Ġones": 3284,
      "Ġshore": 3285,
      "aser": 3286,
      "Ġradio": 3287,
      "Ġcushion": 3288,
      "Ġwealthy": 3289,
      "Ġcab": 3290,
      "omob": 3291,
      "utomob": 3292,
      "Ġforward": 3293,
      "Ġboxes": 3294,
      "Ġpeach": 3295,
      "Ġmagnet": 3296,
      "Ġwalks": 3297,
      "ipper": 3298,
      "Ġbelonged": 3299,
      "Ġmuffin": 3300,
      "utomobile": 3301,
      "live": 3302,
      "Ġtag": 3303,
      "Ġshade": 3304,
      "Ġlocked": 3305,
      "Ġnod": 3306,
      "Ġshells": 3307,
      "Ġpoured": 3308,
      "Ġgorilla": 3309,
      "Ġcamera": 3310,
      "pack": 3311,
      "zzy": 3312,
      "Ġautomobile": 3313,
      "llip": 3314,
      "Ġlollip": 3315,
      "Ġfluffy": 3316,
      "Ġboats": 3317,
      "Ġpersist": 3318,
      "Ġanswered": 3319,
      "Ġregular": 3320,
      "Ġwhispered": 3321,
      "Ġdolphin": 3322,
      "Ġcabin": 3323,
      "Ġlollipop": 3324,
      "appy": 3325,
      "Ġtimes": 3326,
      "ony": 3327,
      "Ġnods": 3328,
      "Ġdrawer": 3329,
      "Ġgiving": 3330,
      "Ġdesk": 3331,
      "dom": 3332,
      "Ġfour": 3333,
      "Ġweek": 3334,
      "ĠMiss": 3335,
      "Ġload": 3336,
      "Ġmule": 3337,
      "Ġcreate": 3338,
      "Ġsmoke": 3339,
      "Ġsailor": 3340,
      "Ġcompetit": 3341,
      "cles": 3342,
      "omes": 3343,
      "Ġgum": 3344,
      "uth": 3345,
      "Ġoctop": 3346,
      "Ġsaying": 3347,
      "Ġchu": 3348,
      "Ġlotion": 3349,
      "Ġtravel": 3350,
      "coa": 3351,
      "Ġjudge": 3352,
      "Ġwitch": 3353,
      "ete": 3354,
      "Ġang": 3355,
      "ĠJake": 3356,
      "inky": 3357,
      "Ġsniff": 3358,
      "Ġtwig": 3359,
      "Ġstronger": 3360,
      "Ġdelight": 3361,
      "Ġcupboard": 3362,
      "ĠToday": 3363,
      "Ġshrimp": 3364,
      "Ġchubby": 3365,
      "Go": 3366,
      "ging": 3367,
      "und": 3368,
      "Ġwool": 3369,
      "Ġlibr": 3370,
      "ict": 3371,
      "Ġhouses": 3372,
      "Ġbubble": 3373,
      "Ġinvited": 3374,
      "Ġreturned": 3375,
      "Ġsuccessful": 3376,
      "Ġgarage": 3377,
      "Ġhelpless": 3378,
      "urb": 3379,
      "Ġlean": 3380,
      "Ġshowing": 3381,
      "Ġnicely": 3382,
      "Ġmole": 3383,
      "Ġneedle": 3384,
      "essie": 3385,
      "Ġlively": 3386,
      "Ġsupport": 3387,
      "Ġdough": 3388,
      "Ġumb": 3389,
      "Ġyet": 3390,
      "Ġhelps": 3391,
      "Ġalert": 3392,
      "Ġmoder": 3393,
      "Who": 3394,
      "Ġgrown": 3395,
      "Ġfearful": 3396,
      "Ġpersistent": 3397,
      "Ġumbre": 3398,
      "anut": 3399,
      "Ġthie": 3400,
      "Ġshine": 3401,
      "Ġfridge": 3402,
      "Ġclub": 3403,
      "Ġgets": 3404,
      "Ġtrunk": 3405,
      "Ġdreams": 3406,
      "Ġdisturb": 3407,
      "Ġradish": 3408,
      "Ġsolve": 3409,
      "Ġscoot": 3410,
      "Ġsquee": 3411,
      "Ġlow": 3412,
      "anger": 3413,
      "ĠLulu": 3414,
      "Ġlicked": 3415,
      "Ġdecide": 3416,
      "Ġbedroom": 3417,
      "Ġsleeping": 3418,
      "Ġvalue": 3419,
      "Ġcooked": 3420,
      "Ġoctopus": 3421,
      "Ġmodern": 3422,
      "oin": 3423,
      "Ġrepe": 3424,
      "Ġcarp": 3425,
      "Ġloudly": 3426,
      "Ġbounced": 3427,
      "Ġcere": 3428,
      "Ġcreature": 3429,
      "Ġot": 3430,
      "Ġtank": 3431,
      "Ġtire": 3432,
      "Ġsle": 3433,
      "Ġbase": 3434,
      "Ġhive": 3435,
      "Ġdive": 3436,
      "Ġcity": 3437,
      "ĠSn": 3438,
      "Ġuncle": 3439,
      "Ġsort": 3440,
      "Ġways": 3441,
      "Ġquar": 3442,
      "Ġacce": 3443,
      "Ġspeed": 3444,
      "Ġspeak": 3445,
      "Ġwishes": 3446,
      "Ġotter": 3447,
      "Ġhipp": 3448,
      "Ġgym": 3449,
      "ense": 3450,
      "Ġlearning": 3451,
      "Ġtruth": 3452,
      "Ġharder": 3453,
      "azz": 3454,
      "Ġsplit": 3455,
      "Ġcandle": 3456,
      "Ġthunder": 3457,
      "Ġeraser": 3458,
      "Ġumbrella": 3459,
      "Ġlit": 3460,
      "orable": 3461,
      "Ġstation": 3462,
      "Ġspend": 3463,
      "Sarah": 3464,
      "Ġrepair": 3465,
      "cut": 3466,
      "xy": 3467,
      "Ġfather": 3468,
      "Ġmop": 3469,
      "Ġmild": 3470,
      "ilty": 3471,
      "ric": 3472,
      "Ġchalk": 3473,
      "Ġorder": 3474,
      "Ġguilty": 3475,
      "Ġcherries": 3476,
      "Ġcereal": 3477,
      "Billy": 3478,
      "ye": 3479,
      "iron": 3480,
      "Ġbiggest": 3481,
      "Ġjet": 3482,
      "ulif": 3483,
      "Ġcocoa": 3484,
      "Ġvine": 3485,
      "Ġpointing": 3486,
      "Ġwheels": 3487,
      "Ġjewelry": 3488,
      "Ġflashlight": 3489,
      "Ġthief": 3490,
      "Ġquarrel": 3491,
      "Ġed": 3492,
      "Ġsink": 3493,
      "Ġhomes": 3494,
      "Ġfountain": 3495,
      "atient": 3496,
      "Ġsoar": 3497,
      "tern": 3498,
      "Ġknot": 3499,
      "Ġgrace": 3500,
      "Ġimpatient": 3501,
      "Ġadorable": 3502,
      "Ġcact": 3503,
      "Ġcaulif": 3504,
      "ĠRob": 3505,
      "ĠTrue": 3506,
      "gen": 3507,
      "asing": 3508,
      "Ġhappening": 3509,
      "Ġpowder": 3510,
      "Ġlibrary": 3511,
      "Ġcarpet": 3512,
      "Ġcactus": 3513,
      "Ġcase": 3514,
      "Ġherb": 3515,
      "Ġstream": 3516,
      "Ġforth": 3517,
      "Ġskipped": 3518,
      "Ġoffice": 3519,
      "Ġpengu": 3520,
      "Ġsweater": 3521,
      "Ġlying": 3522,
      "Ġhalf": 3523,
      "irit": 3524,
      "Ġstaff": 3525,
      "keep": 3526,
      "Ġfork": 3527,
      "Ġshield": 3528,
      "Ġflute": 3529,
      "Ġgrandpa": 3530,
      "ĠDolly": 3531,
      "Bobo": 3532,
      "arming": 3533,
      "Ġfisher": 3534,
      "ject": 3535,
      "rn": 3536,
      "isted": 3537,
      "ory": 3538,
      "rage": 3539,
      "oby": 3540,
      "Ġwhenever": 3541,
      "Ġcharming": 3542,
      "Ġgrapes": 3543,
      "Ġhandle": 3544,
      "Ġhippo": 3545,
      "esday": 3546,
      "Ġskin": 3547,
      "Ġtripped": 3548,
      "Ġcounting": 3549,
      "assion": 3550,
      "Ġvalu": 3551,
      "Ġfeathers": 3552,
      "Ġangel": 3553,
      "Ġcauliflower": 3554,
      "ped": 3555,
      "zed": 3556,
      "Ġtap": 3557,
      "Ġhunt": 3558,
      "Ġled": 3559,
      "Ġelev": 3560,
      "Ġthemselves": 3561,
      "acht": 3562,
      "Ġknows": 3563,
      "ĠPeter": 3564,
      "Ġmarry": 3565,
      "Ġdesign": 3566,
      "Ġthinking": 3567,
      "Ġstrawberry": 3568,
      "Ġticket": 3569,
      "Ġavocado": 3570,
      "Ġslept": 3571,
      "Ġelevator": 3572,
      "was": 3573,
      "edy": 3574,
      "Ġyacht": 3575,
      "Ġeventually": 3576,
      "Ġspun": 3577,
      "Ġteleph": 3578,
      "Ġgifted": 3579,
      "Ġwrapped": 3580,
      "Ġdishwas": 3581,
      "Ġcomplain": 3582,
      "Ġcompetitive": 3583,
      "Ġtelephone": 3584,
      "Ġdishwasher": 3585,
      "Ġiron": 3586,
      "ellig": 3587,
      "Ġintellig": 3588,
      "Ġexcite": 3589,
      "Ġskip": 3590,
      "Ġshrink": 3591,
      "Mummy": 3592,
      "Ġsauce": 3593,
      "Ġtray": 3594,
      "Ġtowers": 3595,
      "Ġquit": 3596,
      "Ġhaircut": 3597,
      "Ġcompassion": 3598,
      "Ġphoto": 3599,
      "Ġdisappoin": 3600,
      "Ġflea": 3601,
      "Ġgathered": 3602,
      "Ġwire": 3603,
      "ĠTweet": 3604,
      "Ġdeter": 3605,
      "Ġnurse": 3606,
      "ates": 3607,
      "rill": 3608,
      "Ġanch": 3609,
      "Ġpole": 3610,
      "Ġpoem": 3611,
      "ĠRose": 3612,
      "Ġgiggled": 3613,
      "Ġdecorate": 3614,
      "Ġpirate": 3615,
      "Jim": 3616,
      "bul": 3617,
      "Ġaer": 3618,
      "Ġtoe": 3619,
      "Ġtorn": 3620,
      "Ġwaff": 3621,
      "Ġham": 3622,
      "Ġshape": 3623,
      "elery": 3624,
      "opl": 3625,
      "Ġambul": 3626,
      "Ġrestless": 3627,
      "Ġears": 3628,
      "Ġcricket": 3629,
      "Ġquestion": 3630,
      "Ġvaluable": 3631,
      "Ġanchor": 3632,
      "Ġaeropl": 3633,
      "Ġambulance": 3634,
      "Fluffy": 3635,
      "Ġnumb": 3636,
      "Ġyaw": 3637,
      "Ġvide": 3638,
      "Ġhotel": 3639,
      "Ġbarrel": 3640,
      "Ġbuttons": 3641,
      "Ġslides": 3642,
      "Ġdeterm": 3643,
      "Give": 3644,
      "ision": 3645,
      "ats": 3646,
      "aged": 3647,
      "Ġstranger": 3648,
      "ache": 3649,
      "Ġsett": 3650,
      "Ġedge": 3651,
      "Ġsight": 3652,
      "Ġwife": 3653,
      "Ġbull": 3654,
      "Ġcelery": 3655,
      "ating": 3656,
      "Ġshut": 3657,
      "Ġmeal": 3658,
      "Ġtrail": 3659,
      "Ġzipper": 3660,
      "body": 3661,
      "Ġpattern": 3662,
      "Ġtears": 3663,
      "Ġunlock": 3664,
      "Ġnumbers": 3665,
      "old": 3666,
      "Ġpit": 3667,
      "Ġweigh": 3668,
      "ĠBoun": 3669,
      "Ġtrap": 3670,
      "Ġmeans": 3671,
      "Ġbushes": 3672,
      "Ġribb": 3673,
      "Ġlaughs": 3674,
      "Ġspinning": 3675,
      "Ġsalt": 3676,
      "ĠJimmy": 3677,
      "Ġfisherman": 3678,
      "Ġintelligent": 3679,
      "Ġcompassionate": 3680,
      "Ġdisappointed": 3681,
      "del": 3682,
      "Ġple": 3683,
      "?\".": 3684,
      "Ġmodel": 3685,
      "Ġcomput": 3686,
      "Ġcardboard": 3687,
      "Ġbananas": 3688,
      "head": 3689,
      "ĠToby": 3690,
      "ital": 3691,
      "Ġmug": 3692,
      "Ġink": 3693,
      "Ġeither": 3694,
      "Ġnewsp": 3695,
      "iew": 3696,
      "Ġview": 3697,
      "Ġhosp": 3698,
      "Ġpear": 3699,
      "ĠKim": 3700,
      "ĠPete": 3701,
      "Ġwalls": 3702,
      "Ġjuicy": 3703,
      "Ġsurf": 3704,
      "Ġsoldier": 3705,
      "keeper": 3706,
      "Ġhospital": 3707,
      "Ġadded": 3708,
      "ito": 3709,
      "Ġcurt": 3710,
      "Ġmitten": 3711,
      "Ġrid": 3712,
      "Ġshort": 3713,
      "Ġbirdc": 3714,
      "Ġoil": 3715,
      "quito": 3716,
      "dest": 3717,
      "ophie": 3718,
      "'d": 3719,
      "Mr": 3720,
      "nam": 3721,
      "Ġpal": 3722,
      "Ġpap": 3723,
      "Ġnail": 3724,
      "ention": 3725,
      "Ġspear": 3726,
      "Ġpee": 3727,
      "Ġprep": 3728,
      "Ġdistant": 3729,
      "Ġsucce": 3730,
      "Ġsafely": 3731,
      "ĠPeople": 3732,
      "Ġsilver": 3733,
      "Ġcurtain": 3734,
      "Ġbirdcage": 3735,
      "squito": 3736,
      "!\".": 3737,
      "ushed": 3738,
      "Ġmosquito": 3739,
      "Ġenc": 3740,
      "Ġcrib": 3741,
      "Ġspilled": 3742,
      "aving": 3743,
      "ron": 3744,
      "Ġtummy": 3745,
      "Ġtask": 3746,
      "Ġbump": 3747,
      "Ġcob": 3748,
      "Ġpurse": 3749,
      "utes": 3750,
      "Ġplayground": 3751,
      "uring": 3752,
      "Ġrode": 3753,
      "Ġcoins": 3754,
      "Ġpale": 3755,
      "Ġpainter": 3756,
      "Ġlights": 3757,
      "Ġdreamed": 3758,
      "uper": 3759,
      "Ġbikes": 3760,
      "ĠBuzz": 3761,
      "Ġquestions": 3762,
      "Ġwiped": 3763,
      "Ġyogurt": 3764,
      "Ġlabel": 3765,
      "Ġcostume": 3766,
      "par": 3767,
      "Ġspirit": 3768,
      "Ġglove": 3769,
      "Ġshocked": 3770,
      "Ġpretending": 3771,
      "ĠOK": 3772,
      "Ġminutes": 3773,
      "Ġrubber": 3774,
      "Ġmotorcy": 3775,
      "Ġgraceful": 3776,
      "Ġaeroplane": 3777,
      "Ġsucceed": 3778,
      ",âĢĿ": 3779,
      "ait": 3780,
      "inoc": 3781,
      "Ġdust": 3782,
      "Ġpor": 3783,
      "ately": 3784,
      "Ġitself": 3785,
      "Ġstack": 3786,
      "ĠLittle": 3787,
      "Ġhelic": 3788,
      "urch": 3789,
      "opter": 3790,
      "Ġcoal": 3791,
      "Ġchain": 3792,
      "Ġfalls": 3793,
      "Ġcollar": 3794,
      "Ġprov": 3795,
      "Ġsausage": 3796,
      "Ġcomputer": 3797,
      "Ġpalace": 3798,
      "inocer": 3799,
      "Ġhelicopter": 3800,
      "riger": 3801,
      "uel": 3802,
      "Ġpun": 3803,
      "stal": 3804,
      "Ġknob": 3805,
      "Ġornam": 3806,
      "Ġkindness": 3807,
      "Ġcrystal": 3808,
      "Ġscooter": 3809,
      "inoceros": 3810,
      "rigerator": 3811,
      "Ġornament": 3812,
      "Ġax": 3813,
      "ĠTeddy": 3814,
      "Ġlime": 3815,
      "Ġmelt": 3816,
      "Ġgear": 3817,
      "Ġoak": 3818,
      "Ġrod": 3819,
      "Ġgolf": 3820,
      "Ġfauc": 3821,
      "Ġparade": 3822,
      "Ġpacked": 3823,
      "Ġsteps": 3824,
      "Ġfaucet": 3825,
      "Ġhour": 3826,
      "Ġthose": 3827,
      "Ġlie": 3828,
      "Ġleash": 3829,
      "Ġvend": 3830,
      "Ġmodest": 3831,
      "ĠEverywhere": 3832,
      "Ġeye": 3833,
      "umbled": 3834,
      "Ġrefrigerator": 3835,
      "Ġbaseball": 3836,
      "Ġnewspaper": 3837,
      "Is": 3838,
      "cing": 3839,
      "Ġsuper": 3840,
      "Ġfog": 3841,
      "Ġcable": 3842,
      "ofa": 3843,
      "ilot": 3844,
      "Ġlic": 3845,
      "ĠBill": 3846,
      "ugged": 3847,
      "Ġsepar": 3848,
      "Ġmakeup": 3849,
      "Ġfirew": 3850,
      "Ġhate": 3851,
      "Ġpicking": 3852,
      "Ġdriving": 3853,
      "Ġmatt": 3854,
      "Ġbrothers": 3855,
      "Ġcomplet": 3856,
      "Ġdisappeared": 3857,
      "Ġavail": 3858,
      "levision": 3859,
      "Ġrhinoceros": 3860,
      "Ġfirework": 3861,
      "Ġoft": 3862,
      "Ġsofa": 3863,
      "Ġpine": 3864,
      "Ġinse": 3865,
      "stri": 3866,
      "Ġonion": 3867,
      "Ġnovel": 3868,
      "Ġtelevision": 3869,
      "ĠGive": 3870,
      "Ġswinging": 3871,
      "ampoo": 3872,
      "Ġresc": 3873,
      "Ġserve": 3874,
      "ĠSpike": 3875,
      "Ġvideo": 3876,
      "Ġlicense": 3877,
      "Ġoften": 3878,
      "Well": 3879,
      "aked": 3880,
      "roph": 3881,
      "time": 3882,
      "Ġhook": 3883,
      "Ġmath": 3884,
      "Ġhall": 3885,
      "Ġmanaged": 3886,
      "Ġspell": 3887,
      "Ġchurch": 3888,
      "ĠCl": 3889,
      "Ġrubbed": 3890,
      "Ġcups": 3891,
      "Ġpolish": 3892,
      "Ġmedal": 3893,
      "ĠBirdy": 3894,
      "Ġdetermined": 3895,
      "Ġaxe": 3896,
      "Ġavailable": 3897,
      "ĠBet": 3898,
      "ĠMum": 3899,
      "Ġscrew": 3900,
      "Ġmeadow": 3901,
      "Ġalarm": 3902,
      "ĠFo": 3903,
      "Ġdrawings": 3904,
      "Ġtaller": 3905,
      "Ġbags": 3906,
      "Ġcooler": 3907,
      "Ġmissile": 3908,
      "Ġsparkly": 3909,
      "Ġdisappear": 3910,
      "web": 3911,
      "Ġcobweb": 3912,
      "Ġporch": 3913,
      "rophone": 3914,
      "ckey": 3915,
      "drobe": 3916,
      "Ġig": 3917,
      "arry": 3918,
      "stairs": 3919,
      "htub": 3920,
      "Ġstared": 3921,
      "Ġhockey": 3922,
      "Ġgrowl": 3923,
      "Ġclimbing": 3924,
      "Ġmetal": 3925,
      "Ġbookshe": 3926,
      "Ġbasketball": 3927,
      "Ġbathtub": 3928,
      "Ġwardrobe": 3929,
      "Ġbandage": 3930,
      "Ġdiary": 3931,
      "Ġpenguin": 3932,
      "Ġvendor": 3933,
      "Bye": 3934,
      "hus": 3935,
      "loo": 3936,
      "ready": 3937,
      "Ġmay": 3938,
      "erc": 3939,
      "Ġthread": 3940,
      "Ġostri": 3941,
      "Ġmeat": 3942,
      "Ġalready": 3943,
      "Ġrice": 3944,
      "Ġrolling": 3945,
      "ĠJohnny": 3946,
      "Ġveil": 3947,
      "Ġminer": 3948,
      "Ġenthus": 3949,
      "Ġcherry": 3950,
      "Ġgasped": 3951,
      "Ġhurry": 3952,
      "Ġbattery": 3953,
      "Ġigloo": 3954,
      "Ġbookshelf": 3955,
      "Ġenthusia": 3956,
      "Re": 3957,
      "Wait": 3958,
      "Ġcomet": 3959,
      "omed": 3960,
      "Ġitch": 3961,
      "Ġrise": 3962,
      "Ġroot": 3963,
      "Ġknock": 3964,
      "Ġswung": 3965,
      "Ġgrape": 3966,
      "Ġmagaz": 3967,
      "ĠPipp": 3968,
      "Ġexplain": 3969,
      "Ġstud": 3970,
      "Ġorganize": 3971,
      "Ġstretched": 3972,
      "ĠSnow": 3973,
      "Ġhunter": 3974,
      "Ġpapers": 3975,
      "Ġinsect": 3976,
      "Al": 3977,
      "See": 3978,
      "Ġbicy": 3979,
      "Ġlumber": 3980,
      "Ġmummy": 3981,
      "verse": 3982,
      "Ġnotice": 3983,
      "Ġok": 3984,
      "istol": 3985,
      "affe": 3986,
      "Ġobject": 3987,
      "Ġmicrophone": 3988,
      "Ġmotorcycle": 3989,
      "Ġmattress": 3990,
      "nger": 3991,
      "Ġdess": 3992,
      "Ġpilot": 3993,
      "Ġpistol": 3994,
      "Ġreward": 3995,
      "Ġexerc": 3996,
      "Ġflame": 3997,
      "Ġsnap": 3998,
      "Ġimpro": 3999,
      "Ġcooking": 4000,
      "Ġrealised": 4001,
      "Ġmustache": 4002,
      "Ġdreaming": 4003,
      "Ġarg": 4004,
      "ricane": 4005,
      "Ġencou": 4006,
      "Gra": 4007,
      "aul": 4008,
      "Ġfought": 4009,
      "Ġsheet": 4010,
      "ometer": 4011,
      "Ġflour": 4012,
      "asp": 4013,
      "Ġunpack": 4014,
      "Ġtroph": 4015,
      "Ġvolc": 4016,
      "Ġwallet": 4017,
      "Ġwinter": 4018,
      "Ġblackboard": 4019,
      "ĠZoomy": 4020,
      "Ġsuggest": 4021,
      "Ġjokes": 4022,
      "Ġvolcan": 4023,
      "lter": 4024,
      "ĠLee": 4025,
      "Ġblin": 4026,
      "Ġpeanut": 4027,
      "rmometer": 4028,
      "ipe": 4029,
      "aches": 4030,
      "Ġfalling": 4031,
      "Ġbuckle": 4032,
      "Ġpastry": 4033,
      "Ġnetwork": 4034,
      "iano": 4035,
      "Ġbicycle": 4036,
      "Ouch": 4037,
      "aid": 4038,
      "Ġbent": 4039,
      "Ġcamp": 4040,
      "Ġrake": 4041,
      "Ġshampoo": 4042,
      "Ġsunset": 4043,
      "Ġvi": 4044,
      "Ġcalling": 4045,
      "Ġtrucks": 4046,
      "Ġtrophy": 4047,
      "Ġvolcano": 4048,
      "Ġpiano": 4049,
      "Ġstom": 4050,
      "Ġweep": 4051,
      "Ġneat": 4052,
      "aky": 4053,
      "ĠPandy": 4054,
      "Ġdrain": 4055,
      "Ġbeef": 4056,
      "Ġattach": 4057,
      "Ġpractice": 4058,
      "Ġpressed": 4059,
      "Ġostrich": 4060,
      "lies": 4061,
      "Ġstable": 4062,
      "Ġshelter": 4063,
      "ured": 4064,
      "Ġmem": 4065,
      "Ġpoke": 4066,
      "Ġteasp": 4067,
      "Ġbury": 4068,
      "Ġsweetie": 4069,
      "Ġtrains": 4070,
      "angu": 4071,
      "Ġhuman": 4072,
      "Ġpackage": 4073,
      "Ġapron": 4074,
      "Ġhanging": 4075,
      "Ġhammer": 4076,
      "Ġhours": 4077,
      "Ġteaspoon": 4078,
      "Ġow": 4079,
      "Ġsym": 4080,
      "Ġhut": 4081,
      "aroo": 4082,
      "Ġins": 4083,
      "Ġrag": 4084,
      "Ġkang": 4085,
      "ummer": 4086,
      "Ġagainst": 4087,
      "Ġblouse": 4088,
      "Ġsne": 4089,
      "Ġoffered": 4090,
      "Ġtrack": 4091,
      "Ġsquirrels": 4092,
      "Ġmessage": 4093,
      "Ġenjoying": 4094,
      "bol": 4095,
      "Ġpatch": 4096,
      "Ġmarched": 4097,
      "Ġcrane": 4098,
      "Ġdiscovered": 4099,
      "Ġkangaroo": 4100,
      "ube": 4101,
      "zag": 4102,
      "Ġtube": 4103,
      "Ġlend": 4104,
      "Ġlangu": 4105,
      "igzag": 4106,
      "Ġur": 4107,
      "Ġfactor": 4108,
      "ĠJo": 4109,
      "Ġskull": 4110,
      "Ġskirt": 4111,
      "play": 4112,
      "Ġdisplay": 4113,
      "Ġearly": 4114,
      "Ġpassport": 4115,
      "Ġprunes": 4116,
      "Ġmagazine": 4117,
      "Ġsymbol": 4118,
      "Ġfactory": 4119,
      "Ġfuel": 4120,
      "Ġnation": 4121,
      "ature": 4122,
      "Ġstairs": 4123,
      "ĠFro": 4124,
      "Ġfrogs": 4125,
      "Ġshovel": 4126,
      "Ġholds": 4127,
      "Ġprevent": 4128,
      "Ġfingers": 4129,
      "Ġexcitement": 4130,
      "Ġpeeked": 4131,
      "Little": 4132,
      "Ġten": 4133,
      "Ġson": 4134,
      "Ġcell": 4135,
      "Ġrot": 4136,
      "stic": 4137,
      "Ġonce": 4138,
      "ĠLook": 4139,
      "Ġlip": 4140,
      "ĠBessie": 4141,
      "Ġuniver": 4142,
      "Ġcheck": 4143,
      "Ġperm": 4144,
      "Ġcastles": 4145,
      "ĠZip": 4146,
      "Ġbathe": 4147,
      "Ġjournal": 4148,
      "Ġaccidentally": 4149,
      "Ġenthusiastic": 4150,
      "Ġdessert": 4151,
      "Ġske": 4152,
      "Ġtheater": 4153,
      "leton": 4154,
      "Ġhappier": 4155,
      "Ġjunk": 4156,
      "Ġoy": 4157,
      "Ġkne": 4158,
      "ĠDan": 4159,
      "Ġpopped": 4160,
      "Ġcube": 4161,
      "Ġopens": 4162,
      "Ġfreez": 4163,
      "Ġfootball": 4164,
      "Ġyoga": 4165,
      "ium": 4166,
      "ience": 4167,
      "Ġthermometer": 4168,
      "Ġfive": 4169,
      "Ġcord": 4170,
      "Ġpipe": 4171,
      "Ġhedge": 4172,
      "ĠHere": 4173,
      "Ġshaking": 4174,
      "Ġallowed": 4175,
      "Ġloop": 4176,
      "ffic": 4177,
      "Ġtelling": 4178,
      "Ġreading": 4179,
      "Ġmatches": 4180,
      "Ġgrowing": 4181,
      "Ġbathrobe": 4182,
      "Ġzoomed": 4183,
      "ĠBuzzy": 4184,
      "Ġskeleton": 4185,
      "come": 4186,
      "ĠâĢ": 4187,
      "ination": 4188,
      "Ġfastest": 4189,
      "Ġslipp": 4190,
      "azor": 4191,
      "Ġdisag": 4192,
      "Ġrestore": 4193,
      "Ġdistance": 4194,
      "xygen": 4195,
      "ney": 4196,
      "ines": 4197,
      "Ġhanger": 4198,
      "Ġstumbled": 4199,
      "ionary": 4200,
      "Ġlistening": 4201,
      "Ġpinch": 4202,
      "ictionary": 4203,
      "case": 4204,
      "Ġahead": 4205,
      "Ġdictionary": 4206,
      "hero": 4207,
      "Ġgoal": 4208,
      "Ġpeek": 4209,
      "Ġplanet": 4210,
      "Ġstirred": 4211,
      "Ġfilm": 4212,
      "Ġadmire": 4213,
      "Ġribbon": 4214,
      "Ġsuperhero": 4215,
      "Ġviol": 4216,
      "Joe": 4217,
      "Sh": 4218,
      "fast": 4219,
      "Ġtoile": 4220,
      "ĠTina": 4221,
      "Ġgaz": 4222,
      "ĠMummy": 4223,
      "Ġhelper": 4224,
      "Ġreverse": 4225,
      "Ġalive": 4226,
      "Ġchose": 4227,
      "Ġsurprises": 4228,
      "Ġstickers": 4229,
      "Ġtrash": 4230,
      "Ġbrick": 4231,
      "Ġcomplete": 4232,
      "Ġviolin": 4233,
      "Ġsub": 4234,
      "Ġpony": 4235,
      "arian": 4236,
      "Ġchasing": 4237,
      "Ġpoppy": 4238,
      "Ġjumps": 4239,
      "Ġstrugg": 4240,
      "Ġstops": 4241,
      "astic": 4242,
      "Jill": 4243,
      "cu": 4244,
      "Ġbill": 4245,
      "Ġcudd": 4246,
      "Ġlaund": 4247,
      "iest": 4248,
      "apon": 4249,
      "ĠEllie": 4250,
      "place": 4251,
      "Ġdoesn": 4252,
      "Ġbreakfast": 4253,
      "Ġrail": 4254,
      "Ġcircles": 4255,
      "Ġrespectful": 4256,
      "Ġaccept": 4257,
      "Ġmineral": 4258,
      "Ġblinked": 4259,
      "Ġfreezer": 4260,
      "Ġlaundry": 4261,
      "lid": 4262,
      "Ġsummer": 4263,
      "Ġtooth": 4264,
      "render": 4265,
      "Ġgrill": 4266,
      "Ġplayer": 4267,
      "Ġbeet": 4268,
      "stiv": 4269,
      "chan": 4270,
      "Ġrefused": 4271,
      "Ġleaving": 4272,
      "Ġlaser": 4273,
      "Ġswitch": 4274,
      "Ġfestiv": 4275,
      "Ġvest": 4276,
      "Ġhurricane": 4277,
      "Ġstrip": 4278,
      "Ġexercise": 4279,
      "Ġtoilet": 4280,
      "Ġfestival": 4281,
      "Ġstad": 4282,
      "Ġleak": 4283,
      "Ġholid": 4284,
      "Ġdoors": 4285,
      "ĠMrs": 4286,
      "Ġlions": 4287,
      "Ġfireplace": 4288,
      "Ġcabinet": 4289,
      "Ġwaffle": 4290,
      "Ġlanguage": 4291,
      "Ġstadium": 4292,
      "Ġholiday": 4293,
      "Did": 4294,
      "Ġberry": 4295,
      "Ġmen": 4296,
      "htray": 4297,
      "Ġmeowed": 4298,
      "ĠElly": 4299,
      "Ġtwir": 4300,
      "Ġrules": 4301,
      "Ġairport": 4302,
      "Ġmonkeys": 4303,
      "ĠZoom": 4304,
      "Ġmint": 4305,
      "Ġspoke": 4306,
      "Ġsearching": 4307,
      "Ġsneeze": 4308,
      "Ġsniffed": 4309,
      "Ġpleased": 4310,
      "Em": 4311,
      "Ow": 4312,
      "med": 4313,
      "wards": 4314,
      "Ġtip": 4315,
      "Ġrazor": 4316,
      "Ġoats": 4317,
      "iches": 4318,
      "Ġroared": 4319,
      "Ġslap": 4320,
      "Ġcomfort": 4321,
      "Ġtraffic": 4322,
      "Ġfavour": 4323,
      "Ġforgave": 4324,
      "Ġtightly": 4325,
      "Ġlemons": 4326,
      "Ġsandwiches": 4327,
      "Ġlawn": 4328,
      "ĠBetty": 4329,
      "ki": 4330,
      "Ġsent": 4331,
      "ince": 4332,
      "Ġcur": 4333,
      "Ġnature": 4334,
      "imney": 4335,
      "iggly": 4336,
      "Ġplastic": 4337,
      "ĠMar": 4338,
      "Ġashtray": 4339,
      "Ġmechan": 4340,
      "Ġcaring": 4341,
      "Ġagree": 4342,
      "Ġfinds": 4343,
      "Ġchimney": 4344,
      "Ġanyway": 4345,
      "Ġslip": 4346,
      "Ġpair": 4347,
      "Ġsticker": 4348,
      "ĠOr": 4349,
      "Ġwindows": 4350,
      "Ġobser": 4351,
      "Ġmeeting": 4352,
      "Ġboots": 4353,
      "Ġseparate": 4354,
      "Ġstomach": 4355,
      "Ġfavourite": 4356,
      "Ġmechanic": 4357,
      "sses": 4358,
      "ĠJazz": 4359,
      "Ġunite": 4360,
      "Ġener": 4361,
      "Ġblueberry": 4362,
      "ement": 4363,
      "Ġbreat": 4364,
      "Ġlightning": 4365,
      "Ġmixer": 4366,
      "Ġcows": 4367,
      "Ġresist": 4368,
      "Ġgrabs": 4369,
      "Ġbarking": 4370,
      "Ġtomatoes": 4371,
      "Ġbeetle": 4372,
      "hic": 4373,
      "year": 4374,
      "ĠY": 4375,
      "Ġcards": 4376,
      "ĠAre": 4377,
      "Ġgiraffe": 4378,
      "Ġsport": 4379,
      "Ġpoked": 4380,
      "Ġholes": 4381,
      "Ġpoint": 4382,
      "Ġletters": 4383,
      "Ġvehic": 4384,
      "Ġminute": 4385,
      "Ġbelongs": 4386,
      "Ġclassroom": 4387,
      "Ġimagine": 4388,
      "Ġsubway": 4389,
      "book": 4390,
      "la": 4391,
      "night": 4392,
      "ayak": 4393,
      "ĠSophie": 4394,
      "amber": 4395,
      "ĠBig": 4396,
      "Ġkayak": 4397,
      "hter": 4398,
      "Ġlaughter": 4399,
      "Ġflood": 4400,
      "Ġremove": 4401,
      "Ġnotebook": 4402,
      "Ġinvite": 4403,
      "Ġmistakes": 4404,
      "ĠBounce": 4405,
      "ĠPippin": 4406,
      "Ġoyster": 4407,
      "Ġbillboard": 4408,
      "te": 4409,
      "Ġyield": 4410,
      "Ġrac": 4411,
      "Ġnames": 4412,
      "Ġoxygen": 4413,
      "apa": 4414,
      "Ġhanded": 4415,
      "Ġremain": 4416,
      "Ġcountry": 4417,
      "Ġpuddles": 4418,
      "Ġmusician": 4419,
      "Ġcartoon": 4420,
      "ĠAlice": 4421,
      "Ġleaned": 4422,
      "Ġimprove": 4423,
      "cast": 4424,
      "Ġsudden": 4425,
      "Ġsize": 4426,
      "ĠSandy": 4427,
      "chair": 4428,
      "Ġwhip": 4429,
      "Ġchamber": 4430,
      "Ġproudly": 4431,
      "Ġbookcase": 4432,
      "Ġsandcast": 4433,
      "Ġswamp": 4434,
      "Ġwarn": 4435,
      "Ġwarned": 4436,
      "Ġspoil": 4437,
      "Ġproblems": 4438,
      "Ġcourage": 4439,
      "Ġglowing": 4440,
      "Jimmy": 4441,
      "eb": 4442,
      "vice": 4443,
      "Ġwine": 4444,
      "inarian": 4445,
      "lend": 4446,
      "igi": 4447,
      "Ġbeep": 4448,
      "Ġsadly": 4449,
      "Ġabove": 4450,
      "Ġpushes": 4451,
      "ĠRu": 4452,
      "Ġpulls": 4453,
      "Ġdancer": 4454,
      "ola": 4455,
      "eterinarian": 4456,
      "Ġlawy": 4457,
      "Ġwipe": 4458,
      "Ġstrawberries": 4459,
      "Ġfre": 4460,
      "Ġpages": 4461,
      "ison": 4462,
      "Ġnavy": 4463,
      "Ġsoil": 4464,
      "Ġcliff": 4465,
      "Ġcopper": 4466,
      "Ġtrade": 4467,
      "Ġappl": 4468,
      "Ġsandbox": 4469,
      "Ġbutterflies": 4470,
      "Ġceiling": 4471,
      "Ġpanic": 4472,
      "Ġsurrender": 4473,
      "Ġfrowned": 4474,
      "Ġrescue": 4475,
      "Ġslippery": 4476,
      "ccol": 4477,
      "Ġx": 4478,
      "Ġpage": 4479,
      "Ġfort": 4480,
      "Ġrece": 4481,
      "usie": 4482,
      "Ġveterinarian": 4483,
      "Ġfeelings": 4484,
      "rod": 4485,
      "Ġtease": 4486,
      "Ġkinds": 4487,
      "ĠPolly": 4488,
      "emember": 4489,
      "ĠOw": 4490,
      "Ġplanes": 4491,
      "Ġart": 4492,
      "Ġarmchair": 4493,
      "Ġincre": 4494,
      "Ġcarrying": 4495,
      "Ġkneel": 4496,
      "ccoli": 4497,
      "gie": 4498,
      "Ġext": 4499,
      "Ġstair": 4500,
      "Ġweapon": 4501,
      "ecause": 4502,
      "Ġintrod": 4503,
      "aud": 4504,
      "Ġbrightly": 4505,
      "Ġdelay": 4506,
      "Ġbelieved": 4507,
      "Ġignore": 4508,
      "Ġrepeat": 4509,
      "Ġprovide": 4510,
      "Ġenergy": 4511,
      "ebra": 4512,
      "cer": 4513,
      "lu": 4514,
      "nesday": 4515,
      "ednesday": 4516,
      "Ġlid": 4517,
      "Ġped": 4518,
      "Ġwaste": 4519,
      "Ġheat": 4520,
      "Ġsomewhere": 4521,
      "rosc": 4522,
      "ĠCo": 4523,
      "anda": 4524,
      "ĠPaul": 4525,
      "Ġcalend": 4526,
      "Ġmailman": 4527,
      "Ġshakes": 4528,
      "Ġprayed": 4529,
      "Ġregret": 4530,
      "Ġtools": 4531,
      "roscope": 4532,
      "Ġcalendar": 4533,
      "low": 4534,
      "Ġaw": 4535,
      "imed": 4536,
      "Ġsaving": 4537,
      "Ġlives": 4538,
      "Ġmeas": 4539,
      "ĠWhere": 4540,
      "Ġnobody": 4541,
      "Ġolder": 4542,
      "Ġadvice": 4543,
      "Ġkeeping": 4544,
      "Ġsounded": 4545,
      "Ġzebra": 4546,
      "olog": 4547,
      "ĠGod": 4548,
      "Ġapolog": 4549,
      "Ġreminded": 4550,
      "Ġsandcastle": 4551,
      "itation": 4552,
      "elcome": 4553,
      "Ġcane": 4554,
      "Your": 4555,
      "Ġflies": 4556,
      "Ġanywhere": 4557,
      "Ġraise": 4558,
      "Ġfreeze": 4559,
      "Ġchoice": 4560,
      "Ġprice": 4561,
      "Ġmystery": 4562,
      "Ġvehicle": 4563,
      "Ġlawyer": 4564,
      "eer": 4565,
      "Ġtax": 4566,
      "hest": 4567,
      "ĠSu": 4568,
      "Ġrushed": 4569,
      "Ġshone": 4570,
      "Ġstarts": 4571,
      "Ġrooms": 4572,
      "Ġletting": 4573,
      "Ġsoftly": 4574,
      "Ġdear": 4575,
      "Ġshouts": 4576,
      "Ġchairs": 4577,
      "Ġbreaks": 4578,
      "Ġhappens": 4579,
      "ĠGrandpa": 4580,
      "Ġinclu": 4581,
      "Ġcrossed": 4582,
      "Ġimagined": 4583,
      "Ġcolourful": 4584,
      "Ġsuggested": 4585,
      "Ġpitch": 4586,
      "lex": 4587,
      "alley": 4588,
      "ores": 4589,
      "ĠWiggly": 4590,
      "aggie": 4591,
      "Ġeaten": 4592,
      "Ġexcitedly": 4593,
      "ogn": 4594,
      "ĠPapa": 4595,
      "ĠGigi": 4596,
      "Ġrestaur": 4597,
      "Ġsmells": 4598,
      "Ġreplace": 4599,
      "Ġrecogn": 4600,
      "ĠNext": 4601,
      "Ġchickens": 4602,
      "Ġsqueeze": 4603,
      "Ġapplaud": 4604,
      "Ġtaxi": 4605,
      "Ġrestaurant": 4606,
      "Mark": 4607,
      "Mary": 4608,
      "Next": 4609,
      "eor": 4610,
      "Ġtub": 4611,
      "Ġfile": 4612,
      "Ġgain": 4613,
      "indeer": 4614,
      "Ġolive": 4615,
      "Ġreindeer": 4616,
      "Ġtrem": 4617,
      "Ġranch": 4618,
      "Ġvalley": 4619,
      "ĠCarl": 4620,
      "Ġbroccoli": 4621,
      "Ġrained": 4622,
      "Ġsteam": 4623,
      "Ġcontent": 4624,
      "apping": 4625,
      "Ġblowing": 4626,
      "eorge": 4627,
      "ĠV": 4628,
      "Ġequ": 4629,
      "ĠWould": 4630,
      "ĠWednesday": 4631,
      "Ġended": 4632,
      "Ġdishes": 4633,
      "ĠSte": 4634,
      "arlie": 4635,
      "Ġmicroscope": 4636,
      "Ġextra": 4637,
      "Yay": 4638,
      "Yuck": 4639,
      "na": 4640,
      "Ġdare": 4641,
      "ero": 4642,
      "utor": 4643,
      "Ġevent": 4644,
      "Ġreve": 4645,
      "ected": 4646,
      "Ġspade": 4647,
      "Ġblueberries": 4648,
      "Ġmass": 4649,
      "Ġhung": 4650,
      "Ġbouncing": 4651,
      "Ġchewed": 4652,
      "Ġbarks": 4653,
      "Ġsneezed": 4654,
      "Ġdelighted": 4655,
      "Ġtornado": 4656,
      "Ġprepare": 4657,
      "Ġfresh": 4658,
      "Daisy": 4659,
      "Will": 4660,
      "tain": 4661,
      "vet": 4662,
      "Ġtutor": 4663,
      "Ġgro": 4664,
      "ĠFl": 4665,
      "Ġmyself": 4666,
      "Ġchance": 4667,
      "Ġpoison": 4668,
      "Ġheads": 4669,
      "Ġhoping": 4670,
      "ggy": 4671,
      "Ġscold": 4672,
      "Ġsettle": 4673,
      "Ġriding": 4674,
      "Ġargue": 4675,
      "ĠBinky": 4676,
      "illie": 4677,
      "Ġopera": 4678,
      "Ġvac": 4679,
      "Ġquiz": 4680,
      "Ġshrugged": 4681,
      "ĠFreddy": 4682,
      "Ready": 4683,
      "Ġvacation": 4684,
      "Qu": 4685,
      "Ġsuff": 4686,
      "Ġbend": 4687,
      "Ġweather": 4688,
      "Ġseas": 4689,
      "asis": 4690,
      "Ġchores": 4691,
      "ĠEnd": 4692,
      "Ġskill": 4693,
      "Ġevening": 4694,
      "ipment": 4695,
      "Ġfloat": 4696,
      "Ġdiscu": 4697,
      "Ġprints": 4698,
      "Ġmissing": 4699,
      "Ġbaking": 4700,
      "ĠSpark": 4701,
      "Ġenter": 4702,
      "Ġgiggle": 4703,
      "Ġburned": 4704,
      "Ġshivering": 4705,
      "Ġequipment": 4706,
      "Ġdiscuss": 4707,
      "noon": 4708,
      "Ġmention": 4709,
      "Ġsty": 4710,
      "Ġoasis": 4711,
      "ucture": 4712,
      "Ġstructure": 4713,
      "Ġafternoon": 4714,
      "Ġpushing": 4715,
      "Ġfixing": 4716,
      "acked": 4717,
      "Ġthanks": 4718,
      "Ġinvitation": 4719,
      "Ġprune": 4720,
      "Ġreveal": 4721,
      "ky": 4722,
      "heart": 4723,
      "inking": 4724,
      "Ġdem": 4725,
      "Ġplaced": 4726,
      "ĠLilly": 4727,
      "Ġsocks": 4728,
      "Ġgrand": 4729,
      "Ġwriting": 4730,
      "Ġhills": 4731,
      "Ġperfume": 4732,
      "Ġspots": 4733,
      "Ġthrows": 4734,
      "Ġthrowing": 4735,
      "Ġpuzzles": 4736,
      "Ġtrusted": 4737,
      "ĠUnder": 4738,
      "Ġyawned": 4739,
      "Ġbumped": 4740,
      "Ann": 4741,
      "sity": 4742,
      "Ġluck": 4743,
      "Ġmall": 4744,
      "ana": 4745,
      "ĠMike": 4746,
      "Ġparts": 4747,
      "Ġtracks": 4748,
      "Ġbelow": 4749,
      "otten": 4750,
      "Ġcoats": 4751,
      "Ġcaptain": 4752,
      "Ġbeans": 4753,
      "Ġinsisted": 4754,
      "\",": 4755,
      "Buddy": 4756,
      "Ch": 4757,
      "ef": 4758,
      "happy": 4759,
      "Ġsigh": 4760,
      "ĠMe": 4761,
      "Ġsew": 4762,
      "Ġcared": 4763,
      "Ġshower": 4764,
      "Ġshoulder": 4765,
      "Ġsticky": 4766,
      "Ġfollowing": 4767,
      "Ġbrighter": 4768,
      "Ġsweetheart": 4769,
      "Ġclaw": 4770,
      "queaky": 4771,
      "Ġprinted": 4772,
      "Ġpastel": 4773,
      "All": 4774,
      "Not": 4775,
      "mend": 4776,
      "va": 4777,
      "Ġpanda": 4778,
      "ommend": 4779,
      "ĠBow": 4780,
      "Ġexpect": 4781,
      "Ġunhappy": 4782,
      "Ġgreedy": 4783,
      "peedy": 4784,
      "Ġteaching": 4785,
      "Ġrecommend": 4786,
      "Ġimpressed": 4787,
      "ĠUn": 4788,
      "Ġpunish": 4789,
      "look": 4790,
      "ĠHave": 4791,
      "ĠHoppy": 4792,
      "Ġbeg": 4793,
      "iform": 4794,
      "Ġuniform": 4795,
      "ĠRo": 4796,
      "ations": 4797,
      "Ġdeeper": 4798,
      "Ġexper": 4799,
      "uggage": 4800,
      "Ġcandles": 4801,
      "Jenny": 4802,
      "lp": 4803,
      "nce": 4804,
      "oof": 4805,
      "Ġtour": 4806,
      "Ġluggage": 4807,
      "Ġhen": 4808,
      "enry": 4809,
      "Ġyucky": 4810,
      "Ġweight": 4811,
      "Ġscore": 4812,
      "ĠEventually": 4813,
      "ĠChe": 4814,
      "Ġcub": 4815,
      "ĠPenny": 4816,
      "Ġclapping": 4817,
      "Ġeasily": 4818,
      "Ġsparkled": 4819,
      "Before": 4820,
      "Ġsplashing": 4821,
      "Ġsprayed": 4822,
      "Daddy": 4823,
      "Surpr": 4824,
      "Ġsir": 4825,
      "arnt": 4826,
      "ĠHelp": 4827,
      "Ġlearnt": 4828,
      "Ġchecked": 4829,
      "Ġfollows": 4830,
      "Ġsteel": 4831,
      "ittens": 4832,
      "Ġlemonade": 4833,
      "Ġignored": 4834,
      "Ġwhisper": 4835,
      "Ġdestroyed": 4836,
      "Ġracing": 4837,
      "looking": 4838,
      "Mimi": 4839,
      "hood": 4840,
      "Ġwigg": 4841,
      "Ġfurn": 4842,
      "iture": 4843,
      "ari": 4844,
      "ĠSusie": 4845,
      "riage": 4846,
      "Ġupstairs": 4847,
      "Ġseco": 4848,
      "ecting": 4849,
      "Ġfro": 4850,
      "Ġspr": 4851,
      "ucked": 4852,
      "Ġchirp": 4853,
      "Ġburied": 4854,
      "ĠWhenever": 4855,
      "ĠOlive": 4856,
      "anges": 4857,
      "Ġcheek": 4858,
      "Ġworms": 4859,
      "Ġvanished": 4860,
      "Ġselling": 4861,
      "Ġscattered": 4862,
      "Ġpermit": 4863,
      "Ġtremble": 4864,
      "Ġfurniture": 4865,
      "Ġsecond": 4866,
      "Welcome": 4867,
      "iki": 4868,
      "Ġcree": 4869,
      "ĠIs": 4870,
      "ents": 4871,
      "Ġjail": 4872,
      "Ġreef": 4873,
      "uct": 4874,
      "Ġvroom": 4875,
      "Ġsorting": 4876,
      "Ġbetwe": 4877,
      "Ġbadly": 4878,
      "Ġwhistled": 4879,
      "Ġstreng": 4880,
      "Ġjogged": 4881,
      "Ġentered": 4882,
      "ĠSnowy": 4883,
      "Ġdemand": 4884,
      "Ġcreek": 4885,
      "Ġbetween": 4886,
      "Ġing": 4887,
      "Ġwre": 4888,
      "Ġlec": 4889,
      "ides": 4890,
      "Ġthumb": 4891,
      "Ġrush": 4892,
      "Ġexcla": 4893,
      "Ġpaid": 4894,
      "Ġquite": 4895,
      "Ġhopes": 4896,
      "redient": 4897,
      "Ġcounter": 4898,
      "Ġmarble": 4899,
      "Ġpoints": 4900,
      "Ġbricks": 4901,
      "Ġsupply": 4902,
      "ĠFroggy": 4903,
      "Ġmassage": 4904,
      "Ġstyle": 4905,
      "Ġclaws": 4906,
      "Ġingredient": 4907,
      "Ġlecture": 4908,
      "Ġexclaimed": 4909,
      "Ġbother": 4910,
      "Ġport": 4911,
      "ĠSqueaky": 4912,
      "Ġrow": 4913,
      "Ġgrant": 4914,
      "Ġclimbs": 4915,
      "Ġhurting": 4916,
      "ĠPr": 4917,
      "izes": 4918,
      "Ġcutting": 4919,
      "Ġpetals": 4920,
      "Ġseats": 4921,
      "Ġneighbour": 4922,
      "Ġscratch": 4923,
      "Ġbreathe": 4924,
      "Surprise": 4925,
      "Ġstrength": 4926,
      "ges": 4927,
      "Ġtug": 4928,
      "ĠSm": 4929,
      "ĠSpeedy": 4930,
      "ĠMittens": 4931,
      "These": 4932,
      "Ġallow": 4933,
      "Ġputting": 4934,
      "Ġcakes": 4935,
      "Ġbears": 4936,
      "Ġraining": 4937,
      "ĠWho": 4938,
      "Ġmarriage": 4939,
      "Ġshopkeeper": 4940,
      "Alice": 4941,
      "ĠâĢĵ": 4942,
      "Ġmenu": 4943,
      "Ġfurt": 4944,
      "Ġwaving": 4945,
      "resses": 4946,
      "Ġheel": 4947,
      "ĠLola": 4948,
      "ĠAlex": 4949,
      "Ġstarting": 4950,
      "Ġagre": 4951,
      "Ġsnail": 4952,
      "Ġworks": 4953,
      "Ġforgotten": 4954,
      "Ġprinter": 4955,
      "Ġwags": 4956,
      "Ġpigs": 4957,
      "ĠGrace": 4958,
      "Ġexplored": 4959,
      "Ġadmired": 4960,
      "Ġingredients": 4961,
      "Because": 4962,
      "right": 4963,
      "Ġhon": 4964,
      "Ġdaisy": 4965,
      "Ġwashing": 4966,
      "Ġplates": 4967,
      "Ġsoc": 4968,
      "Ġscoop": 4969,
      "ecially": 4970,
      "Ġdifference": 4971,
      "ĠFinn": 4972,
      "Ġfallen": 4973,
      "Ġshined": 4974,
      "Ġsailing": 4975,
      "Ġjogging": 4976,
      "Ġapart": 4977,
      "Ġbalan": 4978,
      "Ġeagerly": 4979,
      "Ġdrops": 4980,
      "Grandma": 4981,
      "Ġobserve": 4982,
      "Ġintroduce": 4983,
      "Ġwreck": 4984,
      "Ġfurther": 4985,
      "Ġtuna": 4986,
      "Ġduring": 4987,
      "Ġpup": 4988,
      "atched": 4989,
      "ĠMaggie": 4990,
      "Ġblood": 4991,
      "thank": 4992,
      "Ġfloated": 4993,
      "Ġacted": 4994,
      "specially": 4995,
      "Ġstrike": 4996,
      "ĠSharing": 4997,
      "Ġsoccer": 4998,
      "Ġtong": 4999,
      "ĠTilly": 5000,
      "reat": 5001,
      "eration": 5002,
      "Ġplays": 5003,
      "Ġrul": 5004,
      "Ġespecially": 5005,
      "icer": 5006,
      "Ġworth": 5007,
      "Ġflapped": 5008,
      "Ġhighest": 5009,
      "Ġbuzz": 5010,
      "Ġbeauty": 5011,
      "ĠRemember": 5012,
      "Ġmoves": 5013,
      "Ġplanted": 5014,
      "Ġwarning": 5015,
      "Ġhorses": 5016,
      "ĠNana": 5017,
      "Ġfolded": 5018,
      "Ġwandered": 5019,
      "Ġyawn": 5020,
      "Ġstudied": 5021,
      "Ġincrease": 5022,
      "..": 5023,
      "Bl": 5024,
      "Bella": 5025,
      "shed": 5026,
      "uesday": 5027,
      "ĠTuesday": 5028,
      "ĠLizzy": 5029,
      "Ġoh": 5030,
      "Ġreaches": 5031,
      "quake": 5032,
      "Ġwatered": 5033,
      "ĠEverything": 5034,
      "Ġfamil": 5035,
      "ĠKiki": 5036,
      "reeze": 5037,
      "Ġconf": 5038,
      "Ġshouting": 5039,
      "quest": 5040,
      "Ġkingdom": 5041,
      "Ġgiven": 5042,
      "Ġpresents": 5043,
      "Ġexamine": 5044,
      "Ġurge": 5045,
      "ĠOwl": 5046,
      "Ella": 5047,
      "Fred": 5048,
      "bor": 5049,
      "iately": 5050,
      "men": 5051,
      "Ġbak": 5052,
      "ĠSee": 5053,
      "unately": 5054,
      "Ġsoak": 5055,
      "raged": 5056,
      "Ġbrings": 5057,
      "Ġslapped": 5058,
      "Ġsorts": 5059,
      "Ġsnapped": 5060,
      "Ġtwisted": 5061,
      "Ġdressed": 5062,
      "Ġlands": 5063,
      "Ġquietly": 5064,
      "Ġgifts": 5065,
      "ĠCharlie": 5066,
      "Ġelephants": 5067,
      "Ġsolved": 5068,
      "Ġharbor": 5069,
      "Ġearthquake": 5070,
      "Ġuniversity": 5071,
      "mediately": 5072,
      "ĠCoco": 5073,
      "Ġscolded": 5074,
      "Leo": 5075,
      "Ġpur": 5076,
      "Ġinst": 5077,
      "Ġhadn": 5078,
      "ĠMilly": 5079,
      "Ġrequest": 5080,
      "ĠDave": 5081,
      "Ġsnugg": 5082,
      "Ġhearts": 5083,
      "Ġcrash": 5084,
      "Ġzigzag": 5085,
      "Ġzero": 5086,
      "Ġsits": 5087,
      "omeday": 5088,
      "Ġcurled": 5089,
      "Ġexperience": 5090,
      "Ġtongue": 5091,
      "ester": 5092,
      "pted": 5093,
      "sed": 5094,
      "Ġmister": 5095,
      "isses": 5096,
      "ĠLe": 5097,
      "Ġwest": 5098,
      "Ġkisses": 5099,
      "Ġoperation": 5100,
      "Ġoranges": 5101,
      "Ġcomf": 5102,
      "ĠKate": 5103,
      "Ġimage": 5104,
      "Ġtrave": 5105,
      "Ġplanned": 5106,
      "Ġsliding": 5107,
      "ĠBubbles": 5108,
      "Ġwisdom": 5109,
      "Everyone": 5110,
      "Ġmemory": 5111,
      "Emma": 5112,
      "esterday": 5113,
      "do": 5114,
      "eath": 5115,
      "rise": 5116,
      "Ġtide": 5117,
      "Ġsizes": 5118,
      "Ġsomeday": 5119,
      "Ġlicks": 5120,
      "Ġworse": 5121,
      "Ġprett": 5122,
      "Ġpaused": 5123,
      "ĠGood": 5124,
      "ĠFinny": 5125,
      "Ġfields": 5126,
      "ipping": 5127,
      "Ġattached": 5128,
      "Ġbouncy": 5129,
      "Ġstuffed": 5130,
      "Ġsqueezed": 5131,
      "ĠRuby": 5132,
      "Ġskills": 5133,
      "Ġruler": 5134,
      "'ve": 5135,
      "Woof": 5136,
      "mm": 5137,
      "Ġsince": 5138,
      "Ġcape": 5139,
      "Ġmama": 5140,
      "atie": 5141,
      "ories": 5142,
      "aded": 5143,
      "Ġshot": 5144,
      "ĠAbby": 5145,
      "Ġrelease": 5146,
      "Ġmanage": 5147,
      "Ġsorted": 5148,
      "Ġideas": 5149,
      "Ġappear": 5150,
      "Ġcatching": 5151,
      "Ġpulling": 5152,
      "Ġimagination": 5153,
      "Ġcolours": 5154,
      "Ġaccepted": 5155,
      "Ġencourage": 5156,
      "Ġsuffer": 5157,
      "Ha": 5158,
      "Ġbones": 5159,
      "Ġtonight": 5160,
      "ĠToto": 5161,
      "Ġdried": 5162,
      "Ġmice": 5163,
      "ĠBop": 5164,
      "Ġnews": 5165,
      "Ġpearl": 5166,
      "Ġpeaches": 5167,
      "Ġimmediately": 5168,
      "ĠRock": 5169,
      "Ġattention": 5170,
      "Ġwelcomed": 5171,
      "Ġblankets": 5172,
      "Today": 5173,
      "Ġzookeeper": 5174,
      "Ġtwirled": 5175,
      "Ġmeasured": 5176,
      "With": 5177,
      "house": 5178,
      "ippy": 5179,
      "yth": 5180,
      "Ġtucked": 5181,
      "ĠSky": 5182,
      "sters": 5183,
      "ĠBee": 5184,
      "ĠMillie": 5185,
      "indy": 5186,
      "Ġleather": 5187,
      "Ġspike": 5188,
      "Ġsunrise": 5189,
      "Ġcalls": 5190,
      "ĠPip": 5191,
      "ction": 5192,
      "Ġrabbits": 5193,
      "ĠRos": 5194,
      "ĠGeorge": 5195,
      "Ġclosely": 5196,
      "Ġwagging": 5197,
      "Ġwhistling": 5198,
      "Ġcelebrated": 5199,
      "Ġmelted": 5200,
      "ĠBefore": 5201,
      "Ġsettled": 5202,
      "Ġgrowled": 5203,
      "Ġpeanuts": 5204,
      "Ġseason": 5205,
      "Remy": 5206,
      "cery": 5207,
      "Ġsi": 5208,
      "Ġble": 5209,
      "Ġdresses": 5210,
      "ored": 5211,
      "etch": 5212,
      "ĠHo": 5213,
      "ĠMo": 5214,
      "Ġdownstairs": 5215,
      "Ġglo": 5216,
      "Ġquack": 5217,
      "ips": 5218,
      "Ġremained": 5219,
      "Ġours": 5220,
      "Ġtastes": 5221,
      "Ġfireman": 5222,
      "Ġwinning": 5223,
      "ups": 5224,
      "Ġmarried": 5225,
      "ĠZara": 5226,
      "Ġstealing": 5227,
      "Ġdisagreed": 5228,
      "Ġreceive": 5229,
      "Ġrecognize": 5230,
      "Ġgrocery": 5231,
      "rank": 5232,
      "walk": 5233,
      "Ġbang": 5234,
      "Ġtore": 5235,
      "Ġtoes": 5236,
      "Ġpalm": 5237,
      "ising": 5238,
      "ĠSund": 5239,
      "ĠHope": 5240,
      "Ġinf": 5241,
      "Ġshed": 5242,
      "Ġsoaked": 5243,
      "Ġtremb": 5244,
      "ĠWally": 5245,
      "Ġstro": 5246,
      "ĠPat": 5247,
      "Ġzipped": 5248,
      "Ġwooden": 5249,
      "Ġemer": 5250,
      "Ġunderstanding": 5251,
      "Ġsidewalk": 5252,
      "fortunately": 5253,
      "Ġeasier": 5254,
      "Ġstirring": 5255,
      "Ġsurround": 5256,
      "Ġsafari": 5257,
      "Ġpunished": 5258,
      "ĠClara": 5259,
      "Ġmemories": 5260,
      "Ġlips": 5261,
      "ĠSteve": 5262,
      "Blue": 5263,
      "Ġsnuggled": 5264,
      "Ġgloves": 5265,
      "ĠSunday": 5266,
      "Bird": 5267,
      "ding": 5268,
      "Ġisn": 5269,
      "icing": 5270,
      "Ġbackpack": 5271,
      "Ġseeing": 5272,
      "Ġrang": 5273,
      "ddy": 5274,
      "icky": 5275,
      "ĠRed": 5276,
      "Ġbreaking": 5277,
      "Ġsnowball": 5278,
      "Ġhits": 5279,
      "Ġbaked": 5280,
      "Ġstraight": 5281,
      "Ġpotatoes": 5282,
      "Ġcollection": 5283,
      "Ġcreatures": 5284,
      "ĠFox": 5285,
      "Ġencouraged": 5286,
      "Ġuniverse": 5287,
      "ĠDanny": 5288,
      "ythm": 5289,
      "Ok": 5290,
      "Peter": 5291,
      "ien": 5292,
      "rr": 5293,
      "Ġlung": 5294,
      "ĠHenry": 5295,
      "ĠAva": 5296,
      "ops": 5297,
      "ĠJess": 5298,
      "Ġflap": 5299,
      "Ġgrin": 5300,
      "Ġoffer": 5301,
      "ĠRay": 5302,
      "Ġfloating": 5303,
      "Ġraised": 5304,
      "Ġringing": 5305,
      "Ġacorns": 5306,
      "Ġpirates": 5307,
      "Ġgazed": 5308,
      "Ġpedal": 5309,
      "ĠSuzy": 5310,
      "ĠSmith": 5311,
      "Ġtrembling": 5312,
      "Lisa": 5313,
      "bles": 5314,
      "eep": 5315,
      "sing": 5316,
      "Ġwob": 5317,
      "Ġbab": 5318,
      "ites": 5319,
      "Ġpad": 5320,
      "isdom": 5321,
      "Ġhers": 5322,
      "ĠBaby": 5323,
      "chie": 5324,
      "Ġspit": 5325,
      "Ġalright": 5326,
      "Ġbrus": 5327,
      "Ġflat": 5328,
      "aped": 5329,
      "Ġpebbles": 5330,
      "ĠEach": 5331,
      "Ġshouldn": 5332,
      "Ġwaits": 5333,
      "Ġkites": 5334,
      "Ġshopping": 5335,
      "Ġfiref": 5336,
      "Ġbites": 5337,
      "Ġlandsc": 5338,
      "Ġmuscles": 5339,
      "Ġcrawling": 5340,
      "Ġkicking": 5341,
      "Ġrelaxed": 5342,
      "Ġunlocked": 5343,
      "Ġfireworks": 5344,
      "Ġinclude": 5345,
      "Ġbabies": 5346,
      "Would": 5347,
      "Ġsimp": 5348,
      "Ġdared": 5349,
      "orted": 5350,
      "Ġweb": 5351,
      "ĠMandy": 5352,
      "icorn": 5353,
      "Ġunicorn": 5354,
      "Ġwatches": 5355,
      "Ġappro": 5356,
      "Ġbrain": 5357,
      "ĠZigzag": 5358,
      "igging": 5359,
      "ĠRobby": 5360,
      "ĠFollow": 5361,
      "Ġfamilies": 5362,
      "Ġbleed": 5363,
      "kins": 5364,
      "ther": 5365,
      "Ġbreeze": 5366,
      "Ġdigging": 5367,
      "ids": 5368,
      "ĠSun": 5369,
      "ety": 5370,
      "allen": 5371,
      "Ġkitty": 5372,
      "Ġgirls": 5373,
      "Ġexit": 5374,
      "ĠJames": 5375,
      "Ġchallen": 5376,
      "Ġopin": 5377,
      "Momo": 5378,
      "Ġkeeps": 5379,
      "Ġbeds": 5380,
      "Ġdrinking": 5381,
      "Ġresting": 5382,
      "Ġtallest": 5383,
      "Ġmatched": 5384,
      "Ġmouths": 5385,
      "Ġvisited": 5386,
      "Ġpetted": 5387,
      "Ġchewing": 5388,
      "Ġsafety": 5389,
      "Ġshadows": 5390,
      "Ġsneak": 5391,
      "Ġkneeled": 5392,
      "Ġinstr": 5393,
      "ĠRosie": 5394,
      "ler": 5395,
      "uzz": 5396,
      "Ġvel": 5397,
      "rec": 5398,
      "Ġlined": 5399,
      "ĠThese": 5400,
      "ishing": 5401,
      "Ġnone": 5402,
      "ĠSlow": 5403,
      "Ġplaytime": 5404,
      "Ġstitch": 5405,
      "Ġweighed": 5406,
      "ĠMel": 5407,
      "umes": 5408,
      "elle": 5409,
      "Ġlaid": 5410,
      "Ġmuddy": 5411,
      "ishy": 5412,
      "Ġvet": 5413,
      "Ġunderground": 5414,
      "ĠKing": 5415,
      "Ġamazement": 5416,
      "ĠZoe": 5417,
      "Ġpiles": 5418,
      "Ġserved": 5419,
      "Ġstudying": 5420,
      "Ġordered": 5421,
      "Ġsilence": 5422,
      "Ġweeping": 5423,
      "Ġdisagree": 5424,
      "ĠMaria": 5425,
      "Ġcartoons": 5426,
      "Ġvelvet": 5427,
      "!'": 5428,
      "Tr": 5429,
      "Ġnapping": 5430,
      "Ġgust": 5431,
      "oral": 5432,
      "ĠLucky": 5433,
      "Ġlick": 5434,
      "!\",": 5435,
      "Ġtwink": 5436,
      "Ġbye": 5437,
      "Ġnowhere": 5438,
      "Ġapprec": 5439,
      "avid": 5440,
      "Ġwinner": 5441,
      "Ġsetting": 5442,
      "Ġmixing": 5443,
      "Ġsigns": 5444,
      "Ġroads": 5445,
      "Ġtreasures": 5446,
      "Ġcrunch": 5447,
      "Ġspoons": 5448,
      "ĠNot": 5449,
      "Ġvanish": 5450,
      "ĠSomething": 5451,
      "Ġcostumes": 5452,
      "Ġrepeated": 5453,
      "Ġroots": 5454,
      "Ġlandscape": 5455,
      "Ġappreci": 5456,
      ".'": 5457,
      "Yum": 5458,
      "aved": 5459,
      "coon": 5460,
      "oved": 5461,
      "rs": 5462,
      "ĠQu": 5463,
      "Ġsip": 5464,
      "Ġsix": 5465,
      "ĠTony": 5466,
      "Ġhappiest": 5467,
      "ĠLater": 5468,
      "ĠBree": 5469,
      "Ġjazz": 5470,
      "ĠWisdom": 5471,
      "Ġstrang": 5472,
      "Thanks": 5473,
      "izing": 5474,
      "Ġimportance": 5475,
      "Ġvoices": 5476,
      "Bobby": 5477,
      "Ġsisters": 5478,
      "Johnny": 5479,
      "Ġpets": 5480,
      "Ġperfectly": 5481,
      "Ġpinched": 5482,
      "Ġdecorated": 5483,
      "Ġdecorations": 5484,
      "Ġsausages": 5485,
      "Ġrhythm": 5486,
      "ĠBouncy": 5487,
      "Ġurged": 5488,
      "Ġemergen": 5489,
      "Sp": 5490,
      "Ġwink": 5491,
      "ĠTed": 5492,
      "Ġwaist": 5493,
      "Ġlily": 5494,
      "Ġdire": 5495,
      "Ġpra": 5496,
      "ĠHarry": 5497,
      "umble": 5498,
      "Ġfash": 5499,
      "Ġlets": 5500,
      "Ġclearing": 5501,
      "oys": 5502,
      "Ġdraws": 5503,
      "ĠOut": 5504,
      "Ġresult": 5505,
      "ĠPeanut": 5506,
      "Ġguessed": 5507,
      "Ġknights": 5508,
      "Ġpatterns": 5509,
      "Ġprepared": 5510,
      "Ġmentioned": 5511,
      "Ġagreement": 5512,
      "Ġinfant": 5513,
      "Ġfashion": 5514,
      "Dog": 5515,
      "Happy": 5516,
      "iers": 5517,
      "hello": 5518,
      "oming": 5519,
      "ena": 5520,
      "irts": 5521,
      "Ġthrill": 5522,
      "Ġbeard": 5523,
      "ĠLiz": 5524,
      "ĠBoth": 5525,
      "Ġknown": 5526,
      "Ġnoon": 5527,
      "ssible": 5528,
      "ĠFrank": 5529,
      "isten": 5530,
      "plash": 5531,
      "Ġturning": 5532,
      "Ġourselves": 5533,
      "Sammy": 5534,
      "Ġmoments": 5535,
      "Ġphot": 5536,
      "Ġmarks": 5537,
      "Ġeagle": 5538,
      "Ġhurried": 5539,
      "Ġescaped": 5540,
      "Ġadmir": 5541,
      "Ġscru": 5542,
      "Ġpoems": 5543,
      "Ġwaffles": 5544,
      "Ġsprink": 5545,
      "Ġcrunchy": 5546,
      "Ġstrangers": 5547,
      "Jen": 5548,
      "Moral": 5549,
      "Sophie": 5550,
      "please": 5551,
      "zen": 5552,
      "Ġfetch": 5553,
      "ities": 5554,
      "Ġlimes": 5555,
      "Ġgoals": 5556,
      "ĠWatch": 5557,
      "Ġbrid": 5558,
      "Ġexpected": 5559,
      "antly": 5560,
      "Ġpeel": 5561,
      "ĠCar": 5562,
      "Ġgran": 5563,
      "Ġbravely": 5564,
      "Ġcrashed": 5565,
      "Ġbehaved": 5566,
      "Ġripped": 5567,
      "Ġforgi": 5568,
      "Ġruin": 5569,
      "ship": 5570,
      "Ġbowed": 5571,
      "Ġpillows": 5572,
      "Ġsoldiers": 5573,
      "Ġlogs": 5574,
      "Ġdisturbed": 5575,
      "Ġspending": 5576,
      "Ġcuddled": 5577,
      "Emily": 5578,
      "Ġapologized": 5579,
      "Ġfrozen": 5580,
      "ĠPrin": 5581,
      "Ġgrinned": 5582,
      "Cat": 5583,
      "ded": 5584,
      "ived": 5585,
      "tory": 5586,
      "Ġlines": 5587,
      "ishes": 5588,
      "Ġgained": 5589,
      "Ġhistory": 5590,
      "vest": 5591,
      "Ġknelt": 5592,
      "ĠDid": 5593,
      "uddles": 5594,
      "Ġdads": 5595,
      "ĠCuddles": 5596,
      "acob": 5597,
      "Ġguy": 5598,
      "ĠJoey": 5599,
      "Ġbeneath": 5600,
      "Ġcollecting": 5601,
      "Ġmatching": 5602,
      "Ġfishing": 5603,
      "Ġstruggle": 5604,
      "Ġemergency": 5605,
      "Ġphotos": 5606,
      "Watch": 5607,
      "ud": 5608,
      "Ġtext": 5609,
      "Ġpies": 5610,
      "omas": 5611,
      "Ġhes": 5612,
      "arth": 5613,
      "ĠHop": 5614,
      "Ġitem": 5615,
      "Ġbeat": 5616,
      "choo": 5617,
      "Ġsore": 5618,
      "Ġsoared": 5619,
      "ĠIts": 5620,
      "Ġmeow": 5621,
      "Ġskipping": 5622,
      "Ġslice": 5623,
      "ctly": 5624,
      "Ġtrapped": 5625,
      "Ġwarmth": 5626,
      "Ġrested": 5627,
      "Ġwondering": 5628,
      "Ġbuildings": 5629,
      "Ġdragons": 5630,
      "Ġresp": 5631,
      "Ġdrinks": 5632,
      "Ġanswers": 5633,
      "Ġcollected": 5634,
      "Goodbye": 5635,
      "Ġburning": 5636,
      "ĠJosh": 5637,
      "Ġbegged": 5638,
      "ĠRocky": 5639,
      "Ġchallenge": 5640,
      "Ġbridges": 5641,
      "Ġtexture": 5642,
      "Ducky": 5643,
      "ales": 5644,
      "ĠHappy": 5645,
      "Ġthreat": 5646,
      "Ġlied": 5647,
      "ĠBo": 5648,
      "ĠBug": 5649,
      "Ġscaring": 5650,
      "Ġago": 5651,
      "Ġkindly": 5652,
      "Ġcrabs": 5653,
      "Ġscreams": 5654,
      "Andy": 5655,
      "Ġstamps": 5656,
      "Ġscratched": 5657,
      "Ġwiggle": 5658,
      "Ġsimple": 5659,
      "Ġapproached": 5660,
      "Ġopinion": 5661,
      "Ġpraised": 5662,
      "Miss": 5663,
      "bug": 5664,
      "hind": 5665,
      "ury": 5666,
      "iti": 5667,
      "utter": 5668,
      "Ġeast": 5669,
      "Ġboom": 5670,
      "akes": 5671,
      "ica": 5672,
      "Ġtheirs": 5673,
      "Ġbrushed": 5674,
      "Ġblink": 5675,
      "Ġteasing": 5676,
      "ĠKatie": 5677,
      "emb": 5678,
      "Ġladybug": 5679,
      "Ġwonders": 5680,
      "Ġsparkling": 5681,
      "Ġgathering": 5682,
      "ĠStop": 5683,
      "ĠStitch": 5684,
      "Ġgolden": 5685,
      "Ġneighborhood": 5686,
      "Ġtwigs": 5687,
      "Ġolives": 5688,
      "Ġcomfy": 5689,
      "Ġscrubbed": 5690,
      "Eventually": 5691,
      "lier": 5692,
      "mare": 5693,
      "zing": 5694,
      "Ġtim": 5695,
      "Ġfed": 5696,
      "ino": 5697,
      "Ġinvest": 5698,
      "Ġbeamed": 5699,
      "Ġsting": 5700,
      "ĠLou": 5701,
      "Ġeff": 5702,
      "Ġann": 5703,
      "Ġropes": 5704,
      "ĠDare": 5705,
      "Ġslim": 5706,
      "Ġstrings": 5707,
      "bbing": 5708,
      "Ġshoulders": 5709,
      "Ġbroom": 5710,
      "Ġjoking": 5711,
      "Ġrememb": 5712,
      "Benny": 5713,
      "Ġnightmare": 5714,
      "Ġteaches": 5715,
      "ĠCatty": 5716,
      "ĠBeing": 5717,
      "Ġcopy": 5718,
      "Ġmuffins": 5719,
      "Ġherbs": 5720,
      "Really": 5721,
      "Ġgaze": 5722,
      "Ġgranted": 5723,
      "Ġinvestig": 5724,
      "Ġremembers": 5725,
      "Mmm": 5726,
      "Poppy": 5727,
      "Sandy": 5728,
      "wh": 5729,
      "Ġawe": 5730,
      "Ġdot": 5731,
      "anny": 5732,
      "ĠHenny": 5733,
      "Ġhissed": 5734,
      "ĠIzzy": 5735,
      "riends": 5736,
      "ados": 5737,
      "ĠMay": 5738,
      "Ġshock": 5739,
      "uest": 5740,
      "Ġloose": 5741,
      "urry": 5742,
      "Ġdoggy": 5743,
      "Ġroaring": 5744,
      "Ġalien": 5745,
      "Ġeats": 5746,
      "Ġgrey": 5747,
      "ogo": 5748,
      "Ġtwin": 5749,
      "Ġhardly": 5750,
      "ĠPinky": 5751,
      "Ġwrites": 5752,
      "Ġheaded": 5753,
      "Ġswims": 5754,
      "Ġairpl": 5755,
      "Ġcreated": 5756,
      "osed": 5757,
      "Ġzooming": 5758,
      "Ġtrips": 5759,
      "Ġsparkle": 5760,
      "Ġparties": 5761,
      "Ġactiv": 5762,
      "Ġglowed": 5763,
      "Ġpencils": 5764,
      "Ġmarching": 5765,
      "ĠSomeone": 5766,
      "Ġrefu": 5767,
      "Ġrecorded": 5768,
      "ĠAlways": 5769,
      "Ġavocados": 5770,
      "ĠMissile": 5771,
      "Ġargued": 5772,
      "Ġsneaked": 5773,
      "Ġreceived": 5774,
      "Ġpedals": 5775,
      "ĠSparky": 5776,
      "Ġcubes": 5777,
      "Ġbrushes": 5778,
      "Ġthrilled": 5779,
      "Ġslimy": 5780,
      "Ġinvestigate": 5781,
      "Un": 5782,
      "ah": 5783,
      "iam": 5784,
      "mother": 5785,
      "ux": 5786,
      "uke": 5787,
      "Ġtugged": 5788,
      "Ġwed": 5789,
      "Ġfara": 5790,
      "ĠTw": 5791,
      "ĠTiti": 5792,
      "Ġcrow": 5793,
      "Ġnicer": 5794,
      "Ġguest": 5795,
      "ĠSqu": 5796,
      "ĠSplash": 5797,
      "Ġinch": 5798,
      "ppers": 5799,
      "Ġyouth": 5800,
      "allow": 5801,
      "elvet": 5802,
      "Ġloving": 5803,
      "Ġarea": 5804,
      "ulie": 5805,
      "ĠFirst": 5806,
      "Ġdecides": 5807,
      "ĠCindy": 5808,
      "Ġmaster": 5809,
      "Ġsticking": 5810,
      "Ġremote": 5811,
      "Ġremoved": 5812,
      "Ġkeeper": 5813,
      "ĠDodo": 5814,
      "Ġsweeties": 5815,
      "Ġsteep": 5816,
      "Ġpots": 5817,
      "Ġmarbles": 5818,
      "Ġwears": 5819,
      "Ġhealed": 5820,
      "Ġscreaming": 5821,
      "Ġjewels": 5822,
      "Ġradishes": 5823,
      "ĠAnnie": 5824,
      "Ġcheering": 5825,
      "Ġsupposed": 5826,
      "Ġdestination": 5827,
      "Ġleader": 5828,
      "Ġmountains": 5829,
      "Ġstretching": 5830,
      "Ġmelting": 5831,
      "Ġstudents": 5832,
      "ĠâĢĺ": 5833,
      "Ġchirped": 5834,
      "Ġbalancing": 5835,
      "Ġtraveled": 5836,
      "Ġeffort": 5837,
      "uxury": 5838,
      "Ġfaraway": 5839,
      "Cl": 5840,
      "James": 5841,
      "Ollie": 5842,
      "Time": 5843,
      "loe": 5844,
      "ĠYes": 5845,
      "hee": 5846,
      "Ġhitting": 5847,
      "Ġcough": 5848,
      "Ġhated": 5849,
      "ĠSad": 5850,
      "ĠMon": 5851,
      "ĠMoon": 5852,
      "Ġprop": 5853,
      "Ġsled": 5854,
      "ĠCra": 5855,
      "ission": 5856,
      "Ġyelling": 5857,
      "âĢĿ.": 5858,
      "Ġtricked": 5859,
      "Ġrealize": 5860,
      "Ġmonsters": 5861,
      "Ġowned": 5862,
      "Ġsitu": 5863,
      "osity": 5864,
      "Ġpolished": 5865,
      "Ġsnakes": 5866,
      "Ġbuckets": 5867,
      "Ġdeser": 5868,
      "Ġpraying": 5869,
      "Ġclaps": 5870,
      "Ġstripes": 5871,
      "Ġdelivered": 5872,
      "Shh": 5873,
      "Ġrevealed": 5874,
      "True": 5875,
      "Boo": 5876,
      "Ex": 5877,
      "boo": 5878,
      "jam": 5879,
      "Ġ1": 5880,
      "ĠOnce": 5881,
      "ĠTuna": 5882,
      "Ġluxury": 5883,
      "Ġcrew": 5884,
      "Ġbeside": 5885,
      "ĠBoo": 5886,
      "ĠAn": 5887,
      "Ġseag": 5888,
      "Ġgiraff": 5889,
      "Ġfrost": 5890,
      "Ġmane": 5891,
      "Ġfaced": 5892,
      "ĠJacob": 5893,
      "Ġtalent": 5894,
      "Ġparked": 5895,
      "Ġstaying": 5896,
      "Ġopening": 5897,
      "Ġwherever": 5898,
      "Ġcuts": 5899,
      "avi": 5900,
      "Ġcontinue": 5901,
      "Ġearlier": 5902,
      "Ġsecrets": 5903,
      "ĠChicky": 5904,
      "Ġseems": 5905,
      "Ġfears": 5906,
      "Ġsafer": 5907,
      "aws": 5908,
      "Ġtickle": 5909,
      "Ġcomplaining": 5910,
      "Ġprovided": 5911,
      "Ġpermission": 5912,
      "Ġmeasuring": 5913,
      "ĠVelvet": 5914,
      "Ġbakery": 5915,
      "Ġseagull": 5916,
      "Ġgiraffes": 5917,
      "'.": 5918,
      "Ro": 5919,
      "Rex": 5920,
      "Rob": 5921,
      "cus": 5922,
      "ha": 5923,
      "mies": 5924,
      "ues": 5925,
      "Ġbare": 5926,
      "int": 5927,
      "isty": 5928,
      "esome": 5929,
      "Ġrele": 5930,
      "ifi": 5931,
      "usty": 5932,
      "ĠDuck": 5933,
      "ĠDavid": 5934,
      "ĠEarth": 5935,
      "Ġwindy": 5936,
      "Ġtails": 5937,
      "Ġdarker": 5938,
      "Ġrule": 5939,
      "Ġtouching": 5940,
      "Ġpaints": 5941,
      "anging": 5942,
      "Ġacting": 5943,
      "Ġactions": 5944,
      "Ġactually": 5945,
      "Ġpans": 5946,
      "Ġcandies": 5947,
      "Ġdiscovery": 5948,
      "Ġfeeding": 5949,
      "Ġheroes": 5950,
      "Ġhorns": 5951,
      "Ġshooting": 5952,
      "Ġsweat": 5953,
      "Meow": 5954,
      "Ġmagnets": 5955,
      "Ġdusty": 5956,
      "Ġstruggled": 5957,
      "Ġawesome": 5958,
      "Ġpupil": 5959,
      "Ġbleeding": 5960,
      "Ġadmiring": 5961,
      "Ġrefuse": 5962,
      "Ġproper": 5963,
      "Jo": 5964,
      "aster": 5965,
      "dies": 5966,
      "iar": 5967,
      "ls": 5968,
      "ners": 5969,
      "pie": 5970,
      "Ġwiz": 5971,
      "Ġtoss": 5972,
      "ouch": 5973,
      "Ġdied": 5974,
      "Ġwasted": 5975,
      "ora": 5976,
      "Ġonwards": 5977,
      "Ġliqu": 5978,
      "Ġwanting": 5979,
      "ĠBye": 5980,
      "Ġobe": 5981,
      "ĠWater": 5982,
      "uckily": 5983,
      "ĠDino": 5984,
      "Ġvict": 5985,
      "anta": 5986,
      "Ġfoods": 5987,
      "Ġtwisty": 5988,
      "Ġglasses": 5989,
      "ĠKids": 5990,
      "Ġbedtime": 5991,
      "ĠRe": 5992,
      "Ġrestored": 5993,
      "Ġcontain": 5994,
      "Ġcontest": 5995,
      "Ġcreation": 5996,
      "Ġcompany": 5997,
      "Ġshrug": 5998,
      "Ġpatiently": 5999,
      "Stay": 6000,
      "Ġvalued": 6001,
      "Ġteamwork": 6002,
      "Ġspraying": 6003,
      "Ġdinosaurs": 6004,
      "Ġflags": 6005,
      "Ġneighbors": 6006,
      "Ġspaceship": 6007,
      "Ġtune": 6008,
      "Ġhelmets": 6009,
      "Ġweeks": 6010,
      "Ġsneaky": 6011,
      "Ġstruggling": 6012,
      "Ġawake": 6013,
      "ĠRover": 6014,
      "Ġneighbourhood": 6015,
      "Ġprettiest": 6016,
      "Ġsurrounded": 6017,
      "Ġhesit": 6018,
      "Ġtimer": 6019,
      "Ġwedding": 6020,
      "Ġliquid": 6021,
      "Ew": 6022,
      "George": 6023,
      "Tiny": 6024,
      "band": 6025,
      "go": 6026,
      "ĠX": 6027,
      "Ġachie": 6028,
      "Ġsings": 6029,
      "ĠSanta": 6030,
      "lee": 6031,
      "amie": 6032,
      "rian": 6033,
      "Ġstare": 6034,
      "ĠLike": 6035,
      "ads": 6036,
      "enty": 6037,
      "Ġcatches": 6038,
      "Ġpride": 6039,
      "ashed": 6040,
      "Ġpoking": 6041,
      "Ġchef": 6042,
      "Ġglitter": 6043,
      "ĠKay": 6044,
      "ĠKeep": 6045,
      "Ġquacked": 6046,
      "Ġworker": 6047,
      "Ġpaintings": 6048,
      "Ġcrept": 6049,
      "Ġpolishing": 6050,
      "screen": 6051,
      "ĠSpring": 6052,
      "Ġpaying": 6053,
      "compl": 6054,
      "Ġbloomed": 6055,
      "Ġproject": 6056,
      "Ġloaded": 6057,
      "Ġscooters": 6058,
      "Ġsights": 6059,
      "Ġsucceeded": 6060,
      "Ġinsist": 6061,
      "Ġrecognized": 6062,
      "Ġsiren": 6063,
      "ĠSlowly": 6064,
      "Ġappreciate": 6065,
      "ĠQuick": 6066,
      "Ġfrosting": 6067,
      "Ġobey": 6068,
      "During": 6069,
      "Pete": 6070,
      "Paul": 6071,
      "Remember": 6072,
      "nie": 6073,
      "Ġhi": 6074,
      "ays": 6075,
      "Ġmes": 6076,
      "ofia": 6077,
      "Ġbeads": 6078,
      "ĠLenny": 6079,
      "ĠLuke": 6080,
      "Ġeight": 6081,
      "ĠAlly": 6082,
      "Ġseven": 6083,
      "ulp": 6084,
      "Ġfasc": 6085,
      "ĠFifi": 6086,
      "ĠJessie": 6087,
      "Ġflav": 6088,
      "Ġflutter": 6089,
      "ĠDr": 6090,
      "Ġpeppers": 6091,
      "Ġtraded": 6092,
      "Whiskers": 6093,
      "Ġcomm": 6094,
      "ĠEveryday": 6095,
      "uffin": 6096,
      "Ġcones": 6097,
      "Ġaccompl": 6098,
      "Ġpatience": 6099,
      "Ġcomple": 6100,
      "Ġprec": 6101,
      "ĠBlink": 6102,
      "Ġbringing": 6103,
      "Ġdiving": 6104,
      "Ġsplashes": 6105,
      "Ġcelebration": 6106,
      "Ġblows": 6107,
      "Ġblooming": 6108,
      "Ġscattering": 6109,
      "Ġcushions": 6110,
      "Ġthud": 6111,
      "Ġpenguins": 6112,
      "Ġribbons": 6113,
      "Ġpears": 6114,
      "Ġmittens": 6115,
      "Mrs": 6116,
      "Ġnails": 6117,
      "Ġrescued": 6118,
      "Ġpassports": 6119,
      "ĠFrog": 6120,
      "Ġsighs": 6121,
      "uctions": 6122,
      "Ġdemanded": 6123,
      "Ġhonk": 6124,
      "Ġscooped": 6125,
      "Ġbalanced": 6126,
      "...\"": 6127,
      "Ġinstructions": 6128,
      "Ġguys": 6129,
      "Ġairplane": 6130,
      "Ġfascin": 6131,
      "Achoo": 6132,
      "Bad": 6133,
      "Fo": 6134,
      "First": 6135,
      "Have": 6136,
      "Jake": 6137,
      "Luna": 6138,
      "Our": 6139,
      "Uh": 6140,
      "Zoomy": 6141,
      "big": 6142,
      "die": 6143,
      "lict": 6144,
      "zie": 6145,
      "Ġboo": 6146,
      "Ġtodd": 6147,
      "Ġpause": 6148,
      "lets": 6149,
      "iggy": 6150,
      "ĠMuffin": 6151,
      "Ġoat": 6152,
      "Ġsadness": 6153,
      "ults": 6154,
      "Ġstarfish": 6155,
      "Ġscales": 6156,
      "Ġbackward": 6157,
      "Ġgoodnight": 6158,
      "Ġhomework": 6159,
      "ĠFriends": 6160,
      "Ġlearns": 6161,
      "Ġunf": 6162,
      "Ġusual": 6163,
      "Ġuntie": 6164,
      "Ġofficer": 6165,
      "ĠGogo": 6166,
      "Ġdrives": 6167,
      "Ġexplorers": 6168,
      "Ġmission": 6169,
      "Ġreluct": 6170,
      "Ġvisiting": 6171,
      "Ġvillag": 6172,
      "Ġlaying": 6173,
      "Ġorganizing": 6174,
      "Ġprotected": 6175,
      "Ġprotecting": 6176,
      "ĠBehind": 6177,
      "Ġrefre": 6178,
      "Ġexamined": 6179,
      "Ġreminder": 6180,
      "Ġapologize": 6181,
      "Ġapplauded": 6182,
      "Ġfroze": 6183,
      "Ġconflict": 6184,
      "Ġbaker": 6185,
      "Ġpurred": 6186,
      "ĠLeave": 6187,
      "Ġwizard": 6188,
      "Somet": 6189,
      "Tweet": 6190,
      "aa": 6191,
      "actly": 6192,
      "bl": 6193,
      "jo": 6194,
      "rance": 6195,
      "ĠQ": 6196,
      "Ġwound": 6197,
      "Ġdipped": 6198,
      "Ġcause": 6199,
      "ern": 6200,
      "arter": 6201,
      "iders": 6202,
      "ords": 6203,
      "Ġyesterday": 6204,
      "step": 6205,
      "ĠLove": 6206,
      "ĠMoo": 6207,
      "Ġsmarter": 6208,
      "Ġhelpers": 6209,
      "ĠAm": 6210,
      "Ġsmallest": 6211,
      "Ġwhatever": 6212,
      "Ġchanging": 6213,
      "ĠElephant": 6214,
      "Ġstruck": 6215,
      "ĠThomas": 6216,
      "bbled": 6217,
      "Ġsmiley": 6218,
      "Ġcracked": 6219,
      "ĠGr": 6220,
      "ĠGet": 6221,
      "ĠGreen": 6222,
      "Ġwins": 6223,
      "Ġdragged": 6224,
      "Ġmuscle": 6225,
      "ĠChloe": 6226,
      "ĠJenna": 6227,
      "Ġguns": 6228,
      "ĠBeep": 6229,
      "Ġleading": 6230,
      "ĠPepper": 6231,
      "Ġrecording": 6232,
      "Ġshivered": 6233,
      "Ġfigures": 6234,
      "Ġrides": 6235,
      "Ġspells": 6236,
      "ĠPippa": 6237,
      "Ġplanets": 6238,
      "ĠYesterday": 6239,
      "Ġpastels": 6240,
      "Ġprettier": 6241,
      "Ġspikes": 6242,
      "ĠHopper": 6243,
      "ĠJessica": 6244,
      "Ġfirefight": 6245,
      "Ġbarely": 6246,
      "Ġreleased": 6247,
      "Ġvictory": 6248,
      "bigail": 6249,
      "Ġtoddler": 6250,
      "Ġreluctantly": 6251,
      "An": 6252,
      "Jerry": 6253,
      "Millie": 6254,
      "Silly": 6255,
      "Teddy": 6256,
      "ho": 6257,
      "nies": 6258,
      "Ġbank": 6259,
      "Ġdam": 6260,
      "Ġdie": 6261,
      "Ġcous": 6262,
      "ĠSure": 6263,
      "anna": 6264,
      "ĠHippy": 6265,
      "Ġrings": 6266,
      "Ġstern": 6267,
      "Ġshirts": 6268,
      "Ġclick": 6269,
      "Ġbecoming": 6270,
      "Ġexactly": 6271,
      "Ġsunlight": 6272,
      "Ġanytime": 6273,
      "Ġhugging": 6274,
      "Ġvent": 6275,
      "Ġunited": 6276,
      "Ġstole": 6277,
      "ĠRabbit": 6278,
      "Ġbehavi": 6279,
      "ĠGir": 6280,
      "Ġfiremen": 6281,
      "Ġbowls": 6282,
      "Ġrockets": 6283,
      "Ġcovers": 6284,
      "Ġinviting": 6285,
      "Ste": 6286,
      "Ġpacking": 6287,
      "Ġdelivering": 6288,
      "Ġreply": 6289,
      "ĠRobert": 6290,
      "ĠBetsy": 6291,
      "Grandpa": 6292,
      "ĠMarie": 6293,
      "Ġwarnings": 6294,
      "ĠMeg": 6295,
      "ĠRollie": 6296,
      "ĠChew": 6297,
      "Ġbuzzing": 6298,
      "Ġsprinkles": 6299,
      "ĠPrincess": 6300,
      "Ġannoy": 6301,
      "ĠSquirrel": 6302,
      "jamas": 6303,
      "Ġprecious": 6304,
      "Ah": 6305,
      "Milly": 6306,
      "Oops": 6307,
      "Su": 6308,
      "bly": 6309,
      "eah": 6310,
      "fied": 6311,
      "rink": 6312,
      "ten": 6313,
      "uly": 6314,
      "Ġsense": 6315,
      "Ġwid": 6316,
      "ĠTop": 6317,
      "ĠTurtle": 6318,
      "Ġpins": 6319,
      "iding": 6320,
      "irm": 6321,
      "ĠHor": 6322,
      "ĠBy": 6323,
      "ĠBecause": 6324,
      "Ġweren": 6325,
      "ueen": 6326,
      "Ġfault": 6327,
      "Ġcocoon": 6328,
      "ĠJilly": 6329,
      "ĠJoy": 6330,
      "Ġchips": 6331,
      "Ġwhose": 6332,
      "Ġgotten": 6333,
      "ĠDara": 6334,
      "Ġpossible": 6335,
      "Ġvines": 6336,
      "Ġpeas": 6337,
      "Ġpeered": 6338,
      "ĠPo": 6339,
      "Ġpajamas": 6340,
      "Ġjoked": 6341,
      "Ġargu": 6342,
      "Ġarrive": 6343,
      "Ġsparkles": 6344,
      "ĠStar": 6345,
      "Ġprincesses": 6346,
      "Ġwraps": 6347,
      "Ġmasks": 6348,
      "Ġmisses": 6349,
      "Ġrefle": 6350,
      "Ġsending": 6351,
      "Ġcomplained": 6352,
      "Ġquarreling": 6353,
      "ĠRobo": 6354,
      "Ġtickets": 6355,
      "Ġseparated": 6356,
      "Ġcuddle": 6357,
      "Ġsports": 6358,
      "Ġintroduc": 6359,
      "ĠUnfortunately": 6360,
      "Ġwiggled": 6361,
      "Ġsnowballs": 6362,
      "ĠBuggy": 6363,
      "Ġactivities": 6364,
      "Unfortunately": 6365,
      "Ġsituation": 6366,
      "Ġvillagers": 6367,
      "ĠQueen": 6368,
      "Ġarguing": 6369,
      "Buzz": 6370,
      "Dave": 6371,
      "Lilly": 6372,
      "Mar": 6373,
      "Mandy": 6374,
      "Or": 6375,
      "Ru": 6376,
      "bric": 6377,
      "dam": 6378,
      "ĠĠĊ": 6379,
      "Ġsides": 6380,
      "Ġhus": 6381,
      "Ġfirm": 6382,
      "ĠTara": 6383,
      "rey": 6384,
      "Ġpout": 6385,
      "Ġgri": 6386,
      "atches": 6387,
      "anie": 6388,
      "Ġthro": 6389,
      "Ġplenty": 6390,
      "Ġbelly": 6391,
      "ĠLena": 6392,
      "ĠBarry": 6393,
      "Ġspins": 6394,
      "Ġspiders": 6395,
      "Ġfabric": 6396,
      "ĠWant": 6397,
      "ĠFishy": 6398,
      "Ġsomebody": 6399,
      "Ġgreet": 6400,
      "ĠEn": 6401,
      "Ġtruly": 6402,
      "Ġteased": 6403,
      "Ġsnatched": 6404,
      "Ġforehead": 6405,
      "Ġfarther": 6406,
      "Ġmailed": 6407,
      "Ġbrand": 6408,
      "Ġtractor": 6409,
      "Ġcaused": 6410,
      "Ġwoof": 6411,
      "Ġyells": 6412,
      "Ġcuriosity": 6413,
      "Ġblocking": 6414,
      "Ġperched": 6415,
      "Ġbiting": 6416,
      "Ġnaps": 6417,
      "ĠZipper": 6418,
      "Ġstartled": 6419,
      "Ġpockets": 6420,
      "Ġbells": 6421,
      "Ġrainbows": 6422,
      "Ġpaths": 6423,
      "Ġbounces": 6424,
      "Ġkicks": 6425,
      "ĠStay": 6426,
      "Ġscarves": 6427,
      "Ġgroups": 6428,
      "Ġmotion": 6429,
      "Ġdiscovering": 6430,
      "Ġtricky": 6431,
      "Ġpowers": 6432,
      "ĠFoxy": 6433,
      "Ġgrowling": 6434,
      "Ġitchy": 6435,
      "Ġknocks": 6436,
      "ĠSnowman": 6437,
      "Ġimproved": 6438,
      "Ġsuperheroes": 6439,
      "cuse": 6440,
      "Ġcuddly": 6441,
      "Ġtwirl": 6442,
      "Ġincreased": 6443,
      "Ġchoices": 6444,
      "Ġgrandmother": 6445,
      "ĠChess": 6446,
      "Ġchirping": 6447,
      "Ġrequested": 6448,
      "Ġtravell": 6449,
      "ĠHoot": 6450,
      "Ġforgiving": 6451,
      "Ġitems": 6452,
      "Ġproperly": 6453,
      "Ġcompleted": 6454,
      "Ġfascinated": 6455,
      "ĠGiraffe": 6456,
      "Ġwidened": 6457,
      "Hold": 6458,
      "Listen": 6459,
      "Pe": 6460,
      "Yeah": 6461,
      "eff": 6462,
      "vin": 6463,
      "Ġbur": 6464,
      "Ġfut": 6465,
      "ining": 6466,
      "Ġdar": 6467,
      "Ġnine": 6468,
      "ĠSay": 6469,
      "anes": 6470,
      "ĠHolly": 6471,
      "seek": 6472,
      "Ġsoaring": 6473,
      "Ġsobbed": 6474,
      "Ġneither": 6475,
      "ĠWoo": 6476,
      "Ġworries": 6477,
      "Ġswit": 6478,
      "Ġswoop": 6479,
      "Ġrocking": 6480,
      "inkle": 6481,
      "Ġhandful": 6482,
      "Ġusually": 6483,
      "aker": 6484,
      "ĠPut": 6485,
      "ĠPatch": 6486,
      "Ġlistens": 6487,
      "though": 6488,
      "Ġbehaving": 6489,
      "Ġrip": 6490,
      "Ġpromises": 6491,
      "ĠOak": 6492,
      "Ġreaching": 6493,
      "Ġpolar": 6494,
      "Ġpointy": 6495,
      "Ġstands": 6496,
      "Ġshrinking": 6497,
      "Ġpops": 6498,
      "Ġcreating": 6499,
      "Ġdived": 6500,
      "Ġimages": 6501,
      "Ġchases": 6502,
      "Ġgiggling": 6503,
      "ĠBrownie": 6504,
      "Ġfolding": 6505,
      "ĠTruck": 6506,
      "Ġpoliceman": 6507,
      "Ġtunnels": 6508,
      "ĠShadow": 6509,
      "Ġcurtains": 6510,
      "Ġhallway": 6511,
      "Ġrewarded": 6512,
      "Ġobserved": 6513,
      "ĠSparkle": 6514,
      "Charlie": 6515,
      "ĠUncle": 6516,
      "ĠPrince": 6517,
      "Ġhonked": 6518,
      "Ġbuzzed": 6519,
      "Ġdirection": 6520,
      "Excuse": 6521,
      "Sometimes": 6522,
      "steps": 6523,
      "Ġthroat": 6524,
      "Ġfuture": 6525,
      "==": 6526,
      "Car": 6527,
      "Henry": 6528,
      "Maggie": 6529,
      "Sunny": 6530,
      "bie": 6531,
      "cakes": 6532,
      "lay": 6533,
      "nk": 6534,
      "tuce": 6535,
      "yond": 6536,
      "Ġast": 6537,
      "eds": 6538,
      "Ġdent": 6539,
      "Ġcent": 6540,
      "Ġcust": 6541,
      "Ġsank": 6542,
      "ido": 6543,
      "Ġgross": 6544,
      "Ġbeyond": 6545,
      "une": 6546,
      "ĠMouse": 6547,
      "Ġbodies": 6548,
      "Ġrepa": 6549,
      "urried": 6550,
      "Ġcans": 6551,
      "Ġspong": 6552,
      "Ġstaring": 6553,
      "Ġscurried": 6554,
      "Ġlap": 6555,
      "Ġnoses": 6556,
      "Ġeveryday": 6557,
      "ĠFor": 6558,
      "abella": 6559,
      "ason": 6560,
      "Ġchop": 6561,
      "Ġchuck": 6562,
      "âĢĶ": 6563,
      "Ġunp": 6564,
      "Ġlettuce": 6565,
      "Ġuntied": 6566,
      "Ġstays": 6567,
      "ĠGina": 6568,
      "Ġpretends": 6569,
      "ĠOlly": 6570,
      "Ġseesaw": 6571,
      "Ġnests": 6572,
      "Ġdropping": 6573,
      "Ġgrows": 6574,
      "Ġcontro": 6575,
      "Ġnapkins": 6576,
      "angled": 6577,
      "Ġcorners": 6578,
      "iggie": 6579,
      "Ġinterested": 6580,
      "Ġavo": 6581,
      "Ġcelebrating": 6582,
      "Ġvanilla": 6583,
      "Ġgasp": 6584,
      "Ġwhispers": 6585,
      "ĠHowever": 6586,
      "ĠBirdie": 6587,
      "Ġbracelets": 6588,
      "Ġmovies": 6589,
      "Ġleaning": 6590,
      "Ġbasement": 6591,
      "Ġtasks": 6592,
      "Ġcompletely": 6593,
      "Ġgrowls": 6594,
      "lowers": 6595,
      "Quack": 6596,
      "Ġsuffered": 6597,
      "Ġagrees": 6598,
      "Ġsibl": 6599,
      "Ġfirefly": 6600,
      "ĠNothing": 6601,
      "Ġdeserve": 6602,
      "Ġhusband": 6603,
      "Ġcustom": 6604,
      "Ġsponge": 6605,
      "Ġsiblings": 6606,
      "?'": 6607,
      "Bu": 6608,
      "Big": 6609,
      "Bunny": 6610,
      "Lola": 6611,
      "Run": 6612,
      "Susie": 6613,
      "Very": 6614,
      "Whee": 6615,
      "eed": 6616,
      "pite": 6617,
      "itely": 6618,
      "Ġmoo": 6619,
      "Ġmerry": 6620,
      "ĠSofia": 6621,
      "utty": 6622,
      "Ġyum": 6623,
      "ĠMix": 6624,
      "Ġlosing": 6625,
      "Ġbackwards": 6626,
      "Ġfact": 6627,
      "ĠWink": 6628,
      "Ġranger": 6629,
      "iley": 6630,
      "ĠJolly": 6631,
      "ĠJulie": 6632,
      "Those": 6633,
      "Ġvowed": 6634,
      "ĠEx": 6635,
      "Ġslam": 6636,
      "Ġhowever": 6637,
      "ĠCow": 6638,
      "Ġtearing": 6639,
      "ĠPam": 6640,
      "ĠPine": 6641,
      "ĠPup": 6642,
      "Ġsquishy": 6643,
      "Ġbravery": 6644,
      "Ġdollar": 6645,
      "ĠWhist": 6646,
      "Ġsinger": 6647,
      "joyed": 6648,
      "Ġsweets": 6649,
      "Ġreads": 6650,
      "ĠOur": 6651,
      "Ġreplaced": 6652,
      "Ġpotion": 6653,
      "ounce": 6654,
      "Ġpatted": 6655,
      "Ġkeys": 6656,
      "Ġsails": 6657,
      "ĠNice": 6658,
      "Ġpartic": 6659,
      "Ġspeaking": 6660,
      "Ġpracticing": 6661,
      "Ġsupplies": 6662,
      "awn": 6663,
      "Ġwishing": 6664,
      "Ġsquares": 6665,
      "Ġpumpkins": 6666,
      "Ġspreading": 6667,
      "Ġtickled": 6668,
      "Ġbatteries": 6669,
      "Ġsurface": 6670,
      "Ġpeeking": 6671,
      "Chirpy": 6672,
      "Ġconfident": 6673,
      "Ġwobbly": 6674,
      "Doggy": 6675,
      "Ġdots": 6676,
      "ĠTwinkle": 6677,
      "ĠCrab": 6678,
      "Ġaccomplish": 6679,
      "Ġventured": 6680,
      "ĠHorsy": 6681,
      "Ġrepaired": 6682,
      "Fine": 6683,
      "Great": 6684,
      "Le": 6685,
      "Lulu": 6686,
      "Mine": 6687,
      "Pipp": 6688,
      "Some": 6689,
      "Yummy": 6690,
      "cl": 6691,
      "eal": 6692,
      "fly": 6693,
      "father": 6694,
      "Ġpec": 6695,
      "Ġni": 6696,
      "ĠSl": 6697,
      "ĠSorry": 6698,
      "order": 6699,
      "Ġplayers": 6700,
      "Ġrisk": 6701,
      "Ġstain": 6702,
      "Ġstem": 6703,
      "ĠBirthday": 6704,
      "ĠBiggie": 6705,
      "Ġmommies": 6706,
      "Ġaside": 6707,
      "Ġroses": 6708,
      "?\",": 6709,
      "Ġoutdo": 6710,
      "ĠFit": 6711,
      "Ġflames": 6712,
      "Ġchoo": 6713,
      "usted": 6714,
      "Ġposter": 6715,
      "ĠPaws": 6716,
      "ctions": 6717,
      "Ġsofter": 6718,
      "Ġdeal": 6719,
      "Ġsatis": 6720,
      "Ġuses": 6721,
      "Ġworkers": 6722,
      "Ġripe": 6723,
      "Ġsteady": 6724,
      "Ġlighter": 6725,
      "ĠOl": 6726,
      "Ġrolls": 6727,
      "Ġplanning": 6728,
      "Ġfilling": 6729,
      "Ġcounts": 6730,
      "Ġsnowmen": 6731,
      "Ġmarked": 6732,
      "ĠNick": 6733,
      "Ġfootsteps": 6734,
      "Ġcalmed": 6735,
      "Ġpouring": 6736,
      "Ġentire": 6737,
      "Ġentrance": 6738,
      "ĠWithout": 6739,
      "Ġdecorating": 6740,
      "Ġarrows": 6741,
      "Ġnecklaces": 6742,
      "Ġscratches": 6743,
      "Ġdolphins": 6744,
      "ivi": 6745,
      "Ġwandering": 6746,
      "Ġcompetition": 6747,
      "Ġwires": 6748,
      "Ġshorts": 6749,
      "Ġminerals": 6750,
      "Ġstudent": 6751,
      "Ġrotting": 6752,
      "Ġknees": 6753,
      "ĠSuzie": 6754,
      "Ġsprang": 6755,
      "Ġcomforted": 6756,
      "Ġstroked": 6757,
      "Ġpadd": 6758,
      "Ġpaddle": 6759,
      "Ġtwinkling": 6760,
      "Spike": 6761,
      "Ġguests": 6762,
      "ĠMonster": 6763,
      "Ġchefs": 6764,
      "Ġrefreshed": 6765,
      "Ġfirefighters": 6766,
      "Ġreflection": 6767,
      "Ruby": 6768,
      "Ġgrip": 6769,
      "ĠEnjoy": 6770,
      "Ġdentist": 6771,
      "Ġunpacked": 6772,
      "Bear": 6773,
      "Dolly": 6774,
      "Ellie": 6775,
      "Get": 6776,
      "Katie": 6777,
      "Lizzy": 6778,
      "Luckily": 6779,
      "Mike": 6780,
      "Out": 6781,
      "Sn": 6782,
      "Take": 6783,
      "Zoom": 6784,
      "uri": 6785,
      "vroom": 6786,
      "xie": 6787,
      "zes": 6788,
      "Ġtiss": 6789,
      "Ġtangled": 6790,
      "Ġwow": 6791,
      "Ġbunch": 6792,
      "aye": 6793,
      "Ġmood": 6794,
      "ercy": 6795,
      "Ġheav": 6796,
      "ĠSw": 6797,
      "ĠHur": 6798,
      "Ġthird": 6799,
      "rixie": 6800,
      "Ġbeam": 6801,
      "Ġrising": 6802,
      "Ġstool": 6803,
      "sty": 6804,
      "ofty": 6805,
      "Ġnotes": 6806,
      "ĠBook": 6807,
      "ĠBrian": 6808,
      "sequ": 6809,
      "ently": 6810,
      "Ġshelves": 6811,
      "ela": 6812,
      "alph": 6813,
      "ĠAunt": 6814,
      "ĠAbigail": 6815,
      "Ġopp": 6816,
      "Ġleast": 6817,
      "Ġexha": 6818,
      "iles": 6819,
      "ĠJeff": 6820,
      "Ġflapping": 6821,
      "Ġchat": 6822,
      "Ġknowled": 6823,
      "ĠDizzy": 6824,
      "Ġwatering": 6825,
      "Ġtramp": 6826,
      "Ġoverjoyed": 6827,
      "ĠPu": 6828,
      "Ġstrongest": 6829,
      "Ġsingle": 6830,
      "Ġwaiter": 6831,
      "Ġremembering": 6832,
      "Ġconn": 6833,
      "Ġconsequ": 6834,
      "Ġhider": 6835,
      "Ġsteer": 6836,
      "Ġcloses": 6837,
      "Ġwinked": 6838,
      "Ġsigned": 6839,
      "Ġpiggy": 6840,
      "Ġelbow": 6841,
      "ĠZee": 6842,
      "Ġpassing": 6843,
      "Ġpastries": 6844,
      "brush": 6845,
      "Ġbathing": 6846,
      "oline": 6847,
      "Ġtouches": 6848,
      "Ġdesert": 6849,
      "Ġrecorder": 6850,
      "umbling": 6851,
      "ĠAnne": 6852,
      "Ġseeker": 6853,
      "Ġsupported": 6854,
      "ĠStella": 6855,
      "Ġprayer": 6856,
      "Ġdrums": 6857,
      "Ġtowels": 6858,
      "Ġburns": 6859,
      "Ġrelief": 6860,
      "Ġperformed": 6861,
      "Ġlollipops": 6862,
      "ĠTweetie": 6863,
      "Ġsurfing": 6864,
      "ĠJojo": 6865,
      "Ġshovels": 6866,
      "ĠYawn": 6867,
      "Ġincluded": 6868,
      "Annie": 6869,
      "Ġbegin": 6870,
      "Ġcheeks": 6871,
      "ĠGoodbye": 6872,
      "Ġlicking": 6873,
      "Ġrespons": 6874,
      "Roar": 6875,
      "Ġflavor": 6876,
      "Follow": 6877,
      "Steve": 6878,
      "Ġchuckled": 6879,
      "Ġoutdoors": 6880,
      "Ġknowledge": 6881,
      "Ġtrampoline": 6882,
      "Ġconsequence": 6883,
      "Danny": 6884,
      "Harry": 6885,
      "Jump": 6886,
      "May": 6887,
      "Penny": 6888,
      "Rose": 6889,
      "ael": 6890,
      "een": 6891,
      "fall": 6892,
      "no": 6893,
      "ossible": 6894,
      "Ġicing": 6895,
      "Ġturt": 6896,
      "Ġaff": 6897,
      "Ġaimed": 6898,
      "Ġtoaster": 6899,
      "inny": 6900,
      "isions": 6901,
      "Ġsale": 6902,
      "ĠSc": 6903,
      "ĠSofty": 6904,
      "Ġthorn": 6905,
      "Ġrumble": 6906,
      "Ġrusty": 6907,
      "Ġstew": 6908,
      "ĠLau": 6909,
      "ĠBeth": 6910,
      "ĠBelle": 6911,
      "Ġrocked": 6912,
      "Ġspat": 6913,
      "Ġbru": 6914,
      "ĠFido": 6915,
      "ĠJones": 6916,
      "ĠJamie": 6917,
      "ĠJanie": 6918,
      "Ġswords": 6919,
      "Ġblown": 6920,
      "Ġdecisions": 6921,
      "romise": 6922,
      "bert": 6923,
      "Ġends": 6924,
      "ĠPh": 6925,
      "autious": 6926,
      "ths": 6927,
      "Ġimpossible": 6928,
      "Ġrains": 6929,
      "Ġdarkness": 6930,
      "Ġtables": 6931,
      "Ġdancers": 6932,
      "Ġfairies": 6933,
      "ĠOxy": 6934,
      "Ġbars": 6935,
      "Ġjoining": 6936,
      "ĠZiggy": 6937,
      "Ġbaths": 6938,
      "Ġwhistles": 6939,
      "ichael": 6940,
      "Ġfits": 6941,
      "Ġkittens": 6942,
      "ĠNutty": 6943,
      "Ġminded": 6944,
      "Ġmachines": 6945,
      "Ġprayers": 6946,
      "Ġmatters": 6947,
      "Ġships": 6948,
      "Ġwipes": 6949,
      "Ġmushrooms": 6950,
      "Ġsqueaked": 6951,
      "Ġsneezing": 6952,
      "Ġadding": 6953,
      "Ġloading": 6954,
      "Ġornaments": 6955,
      "Ġhumans": 6956,
      "Ġtwirling": 6957,
      "ĠVivi": 6958,
      "Ġsewed": 6959,
      "Ġsurroundings": 6960,
      "Ġbackpacks": 6961,
      "rrr": 6962,
      "Ġinstrum": 6963,
      "Ġforgiven": 6964,
      "Ġ10": 6965,
      "ĠReg": 6966,
      "Ġhesitated": 6967,
      "Ġachieve": 6968,
      "ĠKaylee": 6969,
      "Ġcousin": 6970,
      "Ġintroduced": 6971,
      "Ġdarling": 6972,
      "Ġswooped": 6973,
      "Ġcontrol": 6974,
      "Ġparticular": 6975,
      "urious": 6976,
      "ĠHurricane": 6977,
      "Ġexhausted": 6978,
      "Ġconsequences": 6979,
      "Ġturtles": 6980,
      "Alex": 6981,
      "Bet": 6982,
      "Baby": 6983,
      "Co": 6984,
      "cie": 6985,
      "cited": 6986,
      "gers": 6987,
      "hi": 6988,
      "neath": 6989,
      "oke": 6990,
      "ody": 6991,
      "sm": 6992,
      "shing": 6993,
      "you": 6994,
      "ndy": 6995,
      "ĠToys": 6996,
      "Ġnuzz": 6997,
      "lle": 6998,
      "Ġgoo": 6999,
      "Ġgee": 7000,
      "Ġund": 7001,
      "ces": 7002,
      "Ġstung": 7003,
      "Ġstumble": 7004,
      "ĠLiam": 7005,
      "ading": 7006,
      "ades": 7007,
      "ĠMam": 7008,
      "ĠMill": 7009,
      "ĠMild": 7010,
      "chy": 7011,
      "Ġneare": 7012,
      "ters": 7013,
      "Ġgobbled": 7014,
      "Ġcarts": 7015,
      "ĠWo": 7016,
      "Ġnodd": 7017,
      "Ġaloud": 7018,
      "ĠFaye": 7019,
      "ĠJu": 7020,
      "abel": 7021,
      "ept": 7022,
      "Ġyourselves": 7023,
      "Ġfever": 7024,
      "ĠDina": 7025,
      "Ġuns": 7026,
      "Ġskirts": 7027,
      "ĠThose": 7028,
      "Ġtalents": 7029,
      "Ġfart": 7030,
      "ĠPink": 7031,
      "Ġwrist": 7032,
      "Ġheading": 7033,
      "ĠJacky": 7034,
      "ĠOther": 7035,
      "Ġslowed": 7036,
      "Ġtighter": 7037,
      "ĠToot": 7038,
      "Ġguide": 7039,
      "Ġhealth": 7040,
      "ĠJennie": 7041,
      "Ġdoctors": 7042,
      "Ġcrumb": 7043,
      "Ġrobber": 7044,
      "Ġsparks": 7045,
      "Ġsalty": 7046,
      "Beep": 7047,
      "Ġforgets": 7048,
      "Ġprick": 7049,
      "ĠSpirit": 7050,
      "Ġswimmer": 7051,
      "Ġtested": 7052,
      "Ġwakes": 7053,
      "Ġtwisting": 7054,
      "Ġclowns": 7055,
      "Ġfrowning": 7056,
      "Ġghosts": 7057,
      "Ġerase": 7058,
      "ĠShiver": 7059,
      "Ġjackets": 7060,
      "Ġgracefully": 7061,
      "Ġforks": 7062,
      "Ġangels": 7063,
      "Ġdetermination": 7064,
      "Ġbumps": 7065,
      "Grace": 7066,
      "Ġlending": 7067,
      "Ġloops": 7068,
      "Ġcurly": 7069,
      "ĠRudy": 7070,
      "Ġregretted": 7071,
      "Ġgrandfather": 7072,
      "Ġsewing": 7073,
      "Ġdirections": 7074,
      "alloween": 7075,
      "ĠSadly": 7076,
      "Ġmesmer": 7077,
      "Ġslammed": 7078,
      "Ġheavier": 7079,
      "Ġgeese": 7080,
      "Ġnodding": 7081,
      "--": 7082,
      "Even": 7083,
      "Elly": 7084,
      "For": 7085,
      "Kim": 7086,
      "Keep": 7087,
      "Lina": 7088,
      "Sad": 7089,
      "Vroom": 7090,
      "fit": 7091,
      "iel": 7092,
      "Ġsy": 7093,
      "Ġbun": 7094,
      "Ġbumpy": 7095,
      "ĠTe": 7096,
      "ĠTry": 7097,
      "ĠTippy": 7098,
      "reverse": 7099,
      "Ġden": 7100,
      "Ġcor": 7101,
      "Ġcautious": 7102,
      "Ġmater": 7103,
      "ĠSe": 7104,
      "oosh": 7105,
      "ĠLina": 7106,
      "Ġlies": 7107,
      "Ġev": 7108,
      "ĠMatch": 7109,
      "Ġloses": 7110,
      "Ġleap": 7111,
      "Ġoutfit": 7112,
      "ĠFle": 7113,
      "ĠJon": 7114,
      "Ġswept": 7115,
      "Ġsunscreen": 7116,
      "Ġfeast": 7117,
      "Ġpos": 7118,
      "Ġskunk": 7119,
      "Ġamong": 7120,
      "Ġunderneath": 7121,
      "ĠCro": 7122,
      "Ġsnuck": 7123,
      "Ġtweet": 7124,
      "Ġdonkey": 7125,
      "Ġmagpie": 7126,
      "Ġbadge": 7127,
      "Ġglued": 7128,
      "Ġdollhouse": 7129,
      "Ġwarmer": 7130,
      "Ġdisob": 7131,
      "Ġhides": 7132,
      "Ġpaintbrush": 7133,
      "ĠZero": 7134,
      "iversity": 7135,
      "ĠThanks": 7136,
      "iggles": 7137,
      "Ġhonesty": 7138,
      "Ġactive": 7139,
      "Ġfleas": 7140,
      "Ġself": 7141,
      "Ġhopeful": 7142,
      "ĠStarry": 7143,
      "Ġrubs": 7144,
      "Ġsolut": 7145,
      "Ġmischie": 7146,
      "Ġperforming": 7147,
      "Ġcombed": 7148,
      "ĠTrust": 7149,
      "Ġfrowns": 7150,
      "Ġvideos": 7151,
      "Ġpleaded": 7152,
      "Ġmodels": 7153,
      "ronaut": 7154,
      "Ġcobwebs": 7155,
      "Ġinsects": 7156,
      "Ġobjects": 7157,
      "ĠFrosty": 7158,
      "Ġslipping": 7159,
      "Shrink": 7160,
      "Ġbreathed": 7161,
      "Ġyielded": 7162,
      "Ġcountryside": 7163,
      "ĠSuki": 7164,
      "Ġrows": 7165,
      "...": 7166,
      "Ġstroll": 7167,
      ".'\"": 7168,
      "Ġruining": 7169,
      "ĠDidi": 7170,
      "ĠSadie": 7171,
      "Ġsweaty": 7172,
      "Ġannoyed": 7173,
      "Ġswitched": 7174,
      "Ġastronaut": 7175,
      "Ġavoid": 7176,
      "Ġcustomer": 7177,
      "Ġpecked": 7178,
      "Ġtissue": 7179,
      "Ġfarthest": 7180,
      "Ġcrumbs": 7181,
      "Bow": 7182,
      "Boys": 7183,
      "Che": 7184,
      "Gina": 7185,
      "Lena": 7186,
      "Put": 7187,
      "aure": 7188,
      "cc": 7189,
      "fted": 7190,
      "rin": 7191,
      "rup": 7192,
      "rops": 7193,
      "Ġtig": 7194,
      "Ġtipped": 7195,
      "Ġaud": 7196,
      "Ġsway": 7197,
      "Ġsens": 7198,
      "Ġbacked": 7199,
      "ĠTam": 7200,
      "Ġcash": 7201,
      "Ġmunch": 7202,
      "llen": 7203,
      "Ġhalves": 7204,
      "ans": 7205,
      "aned": 7206,
      "oring": 7207,
      "ĠHold": 7208,
      "ĠHalloween": 7209,
      "Ġplain": 7210,
      "ilo": 7211,
      "Ġrather": 7212,
      "cept": 7213,
      "ĠLaser": 7214,
      "ĠListen": 7215,
      "addie": 7216,
      "Ġdod": 7217,
      "ĠBall": 7218,
      "ĠBally": 7219,
      "ĠBaa": 7220,
      "Ġearn": 7221,
      "ĠMother": 7222,
      "ĠMint": 7223,
      "Ġshown": 7224,
      "elia": 7225,
      "Ġanger": 7226,
      "ĠAdam": 7227,
      "indrops": 7228,
      "Ġashes": 7229,
      "Ġocc": 7230,
      "Ġrever": 7231,
      "Ġreason": 7232,
      "Ġtreehouse": 7233,
      "Ġscra": 7234,
      "Ġsculp": 7235,
      "ĠWiggles": 7236,
      "Ġage": 7237,
      "ddie": 7238,
      "Ġflight": 7239,
      "Ġchara": 7240,
      "ĠDay": 7241,
      "Ġunw": 7242,
      "Ġslither": 7243,
      "ĠCandy": 7244,
      "Ġafterwards": 7245,
      "bbie": 7246,
      "Ġloudest": 7247,
      "ĠPen": 7248,
      "ĠPercy": 7249,
      "Ġadults": 7250,
      "Ġrainy": 7251,
      "Ġdef": 7252,
      "Ġcuriously": 7253,
      "Ġprinting": 7254,
      "Ġache": 7255,
      "Ġcreams": 7256,
      "Ġslower": 7257,
      "Ġjoins": 7258,
      "Ġbuying": 7259,
      "Ġplanting": 7260,
      "Ġdragonfly": 7261,
      "Ġraindrops": 7262,
      "Ġfans": 7263,
      "Ġvisitors": 7264,
      "ĠChick": 7265,
      "Ġmarkers": 7266,
      "Ġzooms": 7267,
      "Ġimagining": 7268,
      "Ġtrusting": 7269,
      "Ġignoring": 7270,
      "Ġleads": 7271,
      "Ġstuffing": 7272,
      "ĠAlong": 7273,
      "Ġreminds": 7274,
      "Ġscrub": 7275,
      "iolet": 7276,
      "Ġsqueezing": 7277,
      "Ġdesigned": 7278,
      "Ġknocking": 7279,
      "Ġblinking": 7280,
      "Ġprevented": 7281,
      "Ġgazing": 7282,
      "Ġtipto": 7283,
      "Ġincluding": 7284,
      "ĠMegan": 7285,
      "Ġpurr": 7286,
      "ĠDavey": 7287,
      "Ġspits": 7288,
      "Ġmasterpie": 7289,
      "Clara": 7290,
      "Ġtalented": 7291,
      "Ġdamage": 7292,
      "Buzzy": 7293,
      "ĠWhistle": 7294,
      "Pippin": 7295,
      "Ġresponsible": 7296,
      "Betty": 7297,
      "Ġunsure": 7298,
      "Ġprickly": 7299,
      "Ġmateri": 7300,
      "auren": 7301,
      "Ġtigers": 7302,
      "Ġsculpture": 7303,
      "Ġcharac": 7304,
      "Ġmasterpiece": 7305,
      "'.\"": 7306,
      "Cindy": 7307,
      "Dan": 7308,
      "David": 7309,
      "Fro": 7310,
      "Hurry": 7311,
      "Jazz": 7312,
      "Julie": 7313,
      "Kate": 7314,
      "Pat": 7315,
      "Pandy": 7316,
      "Tina": 7317,
      "Under": 7318,
      "found": 7319,
      "len": 7320,
      "pit": 7321,
      "uing": 7322,
      "ude": 7323,
      "wise": 7324,
      "Ġtin": 7325,
      "Ġtid": 7326,
      "Ġting": 7327,
      "Ġsill": 7328,
      "Ġfreed": 7329,
      "ĠTia": 7330,
      "ĠTrixie": 7331,
      "ition": 7332,
      "itches": 7333,
      "itude": 7334,
      "Ġlower": 7335,
      "Ġcott": 7336,
      "Ġmaker": 7337,
      "Ġmiles": 7338,
      "ĠSke": 7339,
      "endy": 7340,
      "ira": 7341,
      "amil": 7342,
      "Ġplucked": 7343,
      "Ġinsp": 7344,
      "ĠIndy": 7345,
      "uno": 7346,
      "ĠBark": 7347,
      "Ġform": 7348,
      "ching": 7349,
      "Ġsoaking": 7350,
      "aled": 7351,
      "inda": 7352,
      "aren": 7353,
      "ĠWake": 7354,
      "obody": 7355,
      "Ġeverybody": 7356,
      "Ġflipped": 7357,
      "Ġabil": 7358,
      "using": 7359,
      "Ġchamp": 7360,
      "umph": 7361,
      "ĠEd": 7362,
      "ĠElle": 7363,
      "Ġamount": 7364,
      "Ġsurprising": 7365,
      "ĠWeapon": 7366,
      "Ġtwice": 7367,
      "pecting": 7368,
      "Ġbuses": 7369,
      "Ġovercome": 7370,
      "Ġcheers": 7371,
      "Ġcolored": 7372,
      "Ġstopping": 7373,
      "Ġstolen": 7374,
      "Ġadult": 7375,
      "issa": 7376,
      "Ġfins": 7377,
      "ohny": 7378,
      "Ġtalks": 7379,
      "Ġcolder": 7380,
      "ĠGray": 7381,
      "Ġduckling": 7382,
      "Ġtasting": 7383,
      "Ġrubbing": 7384,
      "Ġbottles": 7385,
      "osite": 7386,
      "!âĢĿ.": 7387,
      "Ġbandages": 7388,
      "ĠGracie": 7389,
      "ĠBluey": 7390,
      "Ġbows": 7391,
      "Ġdrivers": 7392,
      "ĠNear": 7393,
      "Ġsource": 7394,
      "Ġcaterpillars": 7395,
      "Ġjourneys": 7396,
      "uggles": 7397,
      "ĠBruno": 7398,
      "Ġwiping": 7399,
      "Ġsolving": 7400,
      "Ġpresses": 7401,
      "Ġlifting": 7402,
      "Ġtwists": 7403,
      "Ġindeed": 7404,
      "Ġtemper": 7405,
      "Ġreminding": 7406,
      "ĠUp": 7407,
      "Ġwealth": 7408,
      "ĠShake": 7409,
      "Ġtires": 7410,
      "ĠSnap": 7411,
      "ĠSnuggles": 7412,
      "achel": 7413,
      "Ġpleasure": 7414,
      "Ġsurfboard": 7415,
      "Ġpapa": 7416,
      "Always": 7417,
      "Ġcamping": 7418,
      "Ġoysters": 7419,
      "Joey": 7420,
      "Ġrails": 7421,
      "ceries": 7422,
      "Ġgroceries": 7423,
      "Ġrecommended": 7424,
      "Ġwobbled": 7425,
      "Ġbrushing": 7426,
      "Ġtwinkled": 7427,
      "Ġtossed": 7428,
      "Ġfluttered": 7429,
      "Ġunfamil": 7430,
      "Ġwounds": 7431,
      "Ġbehaviour": 7432,
      "Suzy": 7433,
      "Ġfirmly": 7434,
      "Ġtravelled": 7435,
      "ĠWoolly": 7436,
      "laying": 7437,
      "Ġmooed": 7438,
      "Ġaccomplishment": 7439,
      "Ġsatisfied": 7440,
      "ĠOliver": 7441,
      "Ġpaddled": 7442,
      "Ġopposite": 7443,
      "Ġnearest": 7444,
      "Ġbunnies": 7445,
      "Ġevil": 7446,
      "Ġsolution": 7447,
      "Ġaudience": 7448,
      "Ġoccas": 7449,
      "Ġreversed": 7450,
      "Ġunwra": 7451,
      "Ġchampion": 7452,
      "Ġunfamiliar": 7453,
      "!âĢĻ": 7454,
      "?!\"": 7455,
      "Am": 7456,
      "Aunt": 7457,
      "Abby": 7458,
      "Br": 7459,
      "Bill": 7460,
      "Bang": 7461,
      "Days": 7462,
      "Gu": 7463,
      "Jessie": 7464,
      "Liz": 7465,
      "Nick": 7466,
      "Op": 7467,
      "Ri": 7468,
      "Toby": 7469,
      "aver": 7470,
      "but": 7471,
      "cher": 7472,
      "son": 7473,
      "woo": 7474,
      "Ġouch": 7475,
      "Ġty": 7476,
      "ĠTank": 7477,
      "Ġlump": 7478,
      "Ġdump": 7479,
      "erm": 7480,
      "Ġwasting": 7481,
      "amb": 7482,
      "ĠHook": 7483,
      "ighing": 7484,
      "Ġinches": 7485,
      "Ġplayroom": 7486,
      "Ġwithin": 7487,
      "Ġyelp": 7488,
      "Ġrays": 7489,
      "cky": 7490,
      "Ġyounger": 7491,
      "Ġonward": 7492,
      "Ġonions": 7493,
      "allowed": 7494,
      "itted": 7495,
      "Ġech": 7496,
      "Ġease": 7497,
      "ĠMichael": 7498,
      "Ġforce": 7499,
      "Ġshoo": 7500,
      "aling": 7501,
      "idey": 7502,
      "ĠAcorn": 7503,
      "Ġrefe": 7504,
      "urr": 7505,
      "ici": 7506,
      "Ġspice": 7507,
      "Ġscored": 7508,
      "Ġbacks": 7509,
      "owny": 7510,
      "Ġbecomes": 7511,
      "Ġlapt": 7512,
      "ĠWelcome": 7513,
      "ĠWendy": 7514,
      "Ġnewfound": 7515,
      "Ġcond": 7516,
      "ĠFish": 7517,
      "Ġflown": 7518,
      "Ġflip": 7519,
      "Ġflock": 7520,
      "ably": 7521,
      "Ġswap": 7522,
      "Ġswallowed": 7523,
      "ashes": 7524,
      "Thomas": 7525,
      "Ġchar": 7526,
      "Ġchos": 7527,
      "Ġdecision": 7528,
      "ĠDusty": 7529,
      "ĠCally": 7530,
      "Ġtapping": 7531,
      "bbit": 7532,
      "Ġgardener": 7533,
      "ĠKe": 7534,
      "Ġparted": 7535,
      "ĠPin": 7536,
      "ĠRa": 7537,
      "ĠRuff": 7538,
      "Ġthrown": 7539,
      "Ġwritten": 7540,
      "ngela": 7541,
      "Ġtops": 7542,
      "ĠJackie": 7543,
      "Ġbelts": 7544,
      "Afterwards": 7545,
      "Ġgrassho": 7546,
      "Ġdripping": 7547,
      "Ġdrifted": 7548,
      "Ġexplorer": 7549,
      "Ġrespected": 7550,
      "Ġresults": 7551,
      "Ġhealing": 7552,
      "Ġtroubles": 7553,
      "Ġrobin": 7554,
      "Ġrobots": 7555,
      "Ġcircus": 7556,
      "Ġpeacefully": 7557,
      "Ġbanged": 7558,
      "Ġaction": 7559,
      "Ġforgetting": 7560,
      "Ġpancakes": 7561,
      "Ġlifts": 7562,
      "ĠBrad": 7563,
      "Ġsharks": 7564,
      "Ġsqueak": 7565,
      "Ġpigeons": 7566,
      "Ġfigured": 7567,
      "Ġcoloured": 7568,
      "Ġfriendships": 7569,
      "ĠShow": 7570,
      "Ġborrowed": 7571,
      "Ġguardian": 7572,
      "Ġautomobiles": 7573,
      "Ġweekend": 7574,
      "Ġsniffing": 7575,
      "Ġrepeats": 7576,
      "Ġrepeating": 7577,
      "Ġspeeding": 7578,
      "Ġtaped": 7579,
      "ĠCla": 7580,
      "Alright": 7581,
      "Ġencourag": 7582,
      "Ġneatly": 7583,
      "Ġgoalie": 7584,
      "Ġstrips": 7585,
      "ĠYet": 7586,
      "ĠYell": 7587,
      "Ġraccoon": 7588,
      "ĠCopper": 7589,
      "Ġapologised": 7590,
      "Ġtubes": 7591,
      "Ġtrembled": 7592,
      "Ġseasons": 7593,
      "Ġpunishment": 7594,
      "ĠIsabella": 7595,
      "Ġfamiliar": 7596,
      "Ġstroke": 7597,
      "what": 7598,
      "Ġswimsuit": 7599,
      "ĠTwo": 7600,
      "Ġefforts": 7601,
      "Josh": 7602,
      "lsa": 7603,
      "ĠPoor": 7604,
      "Ġpouted": 7605,
      "People": 7606,
      "ĠExcited": 7607,
      "Ġcorre": 7608,
      "Ġmischievous": 7609,
      "Ġcashier": 7610,
      "ĠSkelly": 7611,
      "Ġinspired": 7612,
      "Guess": 7613,
      "Ribbit": 7614,
      "Ġecho": 7615,
      "Ġreferee": 7616,
      "Ġlaptop": 7617,
      "Ġchosen": 7618,
      "Ġgrasshopper": 7619,
      "Bee": 7620,
      "Bessie": 7621,
      "Barry": 7622,
      "Hop": 7623,
      "Jon": 7624,
      "Jamie": 7625,
      "Like": 7626,
      "Soup": 7627,
      "Try": 7628,
      "Zara": 7629,
      "cope": 7630,
      "form": 7631,
      "hive": 7632,
      "hog": 7633,
      "ji": 7634,
      "match": 7635,
      "mates": 7636,
      "ollen": 7637,
      "rily": 7638,
      "rth": 7639,
      "sa": 7640,
      "the": 7641,
      "Ġ2": 7642,
      "Ġaim": 7643,
      "Ġbully": 7644,
      "Ġtot": 7645,
      "Ġhoo": 7646,
      "Ġwaking": 7647,
      "Ġlan": 7648,
      "Ġlent": 7649,
      "Ġlamb": 7650,
      "Ġheight": 7651,
      "Ġnapped": 7652,
      "imm": 7653,
      "atur": 7654,
      "ening": 7655,
      "igning": 7656,
      "Ġplot": 7657,
      "vers": 7658,
      "rier": 7659,
      "rick": 7660,
      "Ġplayhouse": 7661,
      "Ġrust": 7662,
      "ĠTime": 7663,
      "Ġstitches": 7664,
      "ĠLion": 7665,
      "ĠLuckily": 7666,
      "Ġweeds": 7667,
      "Ġweighing": 7668,
      "ĠBi": 7669,
      "sess": 7670,
      "espite": 7671,
      "Ġshady": 7672,
      "Ġsmashed": 7673,
      "elie": 7674,
      "Ġwhimp": 7675,
      "ĠApp": 7676,
      "ĠAbbie": 7677,
      "Ġrect": 7678,
      "Ġscen": 7679,
      "opes": 7680,
      "ĠWilly": 7681,
      "ĠWoof": 7682,
      "Ġcoach": 7683,
      "Ġcosy": 7684,
      "ĠFork": 7685,
      "ĠJay": 7686,
      "Ġswollen": 7687,
      "Ġwilling": 7688,
      "Ġgrabbing": 7689,
      "Ġneedles": 7690,
      "ĠCD": 7691,
      "Ġcleaner": 7692,
      "ĠPill": 7693,
      "ĠPizza": 7694,
      "ĠPurr": 7695,
      "Ġcaw": 7696,
      "ĠRia": 7697,
      "Ġwrink": 7698,
      "acles": 7699,
      "Ġsandpit": 7700,
      "Ġcons": 7701,
      "Ġdrawn": 7702,
      "Ġdresser": 7703,
      "Ġsmelling": 7704,
      "Ġwinners": 7705,
      "Ġbeehive": 7706,
      "Ġpatches": 7707,
      "Ġqueens": 7708,
      "Ġsecure": 7709,
      "ĠCha": 7710,
      "ĠChr": 7711,
      "armer": 7712,
      "Ġpurpose": 7713,
      "ĠBloom": 7714,
      "Ġjoyful": 7715,
      "Ġarrives": 7716,
      "Ġshaped": 7717,
      "Ġwrapping": 7718,
      "Ġspoonful": 7719,
      "Ġbellies": 7720,
      "Ġmoonlight": 7721,
      "Ġteapot": 7722,
      "Ġcrossing": 7723,
      "ĠStret": 7724,
      "Ġpackages": 7725,
      "Ġfooled": 7726,
      "ĠAlthough": 7727,
      "Ġguessing": 7728,
      "Ġcracker": 7729,
      "Ġlizards": 7730,
      "Ġrats": 7731,
      "Ġmiller": 7732,
      "Ġspills": 7733,
      "Ġsniffs": 7734,
      "Ġlibrarian": 7735,
      "Ġlowered": 7736,
      "Ġknots": 7737,
      "Ġdesigns": 7738,
      "Ġhaircuts": 7739,
      "ĠCloud": 7740,
      "Ġenthusiasm": 7741,
      "Ġpokes": 7742,
      "Ġlanguages": 7743,
      "Ġhedgehog": 7744,
      "Ġbreathing": 7745,
      "ĠSteppy": 7746,
      "Ġgroaned": 7747,
      "Ġinvitations": 7748,
      "ĠIsn": 7749,
      "Ġbothered": 7750,
      "Ġbothering": 7751,
      "ĠSmoke": 7752,
      "Ġpurrs": 7753,
      "ĠKayla": 7754,
      "Ġmesses": 7755,
      "Ġbehavior": 7756,
      "ĠPuppy": 7757,
      "Ġconnected": 7758,
      "Ġbeginning": 7759,
      "Ġthorns": 7760,
      "Ġbruises": 7761,
      "Coco": 7762,
      "Ġnuzzled": 7763,
      "ĠMamma": 7764,
      "Ġcautiously": 7765,
      "Ġdisobey": 7766,
      "Ġsensation": 7767,
      "Ġtiptoed": 7768,
      "Ġspices": 7769,
      "ĠClaire": 7770,
      "ĠYellow": 7771,
      "rthur": 7772,
      "Ġlantern": 7773,
      "ĠForky": 7774,
      "By": 7775,
      "Brian": 7776,
      "Bounce": 7777,
      "Pip": 7778,
      "Pinky": 7779,
      "Ray": 7780,
      "Zip": 7781,
      "ailey": 7782,
      "ba": 7783,
      "ez": 7784,
      "eel": 7785,
      "fus": 7786,
      "iving": 7787,
      "ibbles": 7788,
      "iky": 7789,
      "rig": 7790,
      "tock": 7791,
      "yes": 7792,
      "zoom": 7793,
      "Ġill": 7794,
      "Ġtum": 7795,
      "Ġtying": 7796,
      "Ġtumbled": 7797,
      "Ġwider": 7798,
      "Ġbom": 7799,
      "Ġbitten": 7800,
      "ĠTake": 7801,
      "ĠTree": 7802,
      "ĠTiger": 7803,
      "ĠTidy": 7804,
      "initely": 7805,
      "Ġwaded": 7806,
      "Ġdip": 7807,
      "Ġdaring": 7808,
      "Ġcoug": 7809,
      "Ġpon": 7810,
      "immer": 7811,
      "Ġsav": 7812,
      "iddy": 7813,
      "Ġgest": 7814,
      "anet": 7815,
      "anced": 7816,
      "ley": 7817,
      "orter": 7818,
      "orking": 7819,
      "Ġinj": 7820,
      "rie": 7821,
      "river": 7822,
      "Ġbeaver": 7823,
      "ppies": 7824,
      "ldy": 7825,
      "Ġwept": 7826,
      "Ġnoticing": 7827,
      "ĠBumpy": 7828,
      "seed": 7829,
      "ĠMan": 7830,
      "ĠMop": 7831,
      "ĠMight": 7832,
      "ĠMag": 7833,
      "ĠMush": 7834,
      "Ġmomma": 7835,
      "Ġkings": 7836,
      "Ġbirdseed": 7837,
      "Ġwhoosh": 7838,
      "ĠAngela": 7839,
      "illed": 7840,
      "urrender": 7841,
      "ulf": 7842,
      "Ġmanners": 7843,
      "Ġclicked": 7844,
      "Ġclues": 7845,
      "Ġscurry": 7846,
      "Ġmeals": 7847,
      "Ġlaces": 7848,
      "Ġgoodby": 7849,
      "ĠFire": 7850,
      "ĠFarmer": 7851,
      "ĠJump": 7852,
      "ĠJem": 7853,
      "Ġblast": 7854,
      "Ġchanges": 7855,
      "Ġcares": 7856,
      "Ġwaterfall": 7857,
      "ĠElsa": 7858,
      "Ġmoons": 7859,
      "Ġslapping": 7860,
      "Which": 7861,
      "ĠComet": 7862,
      "Ġfocus": 7863,
      "Ġdoorway": 7864,
      "Ġcheaper": 7865,
      "Ġglared": 7866,
      "izon": 7867,
      "Ġsquaw": 7868,
      "that": 7869,
      "Ġdeed": 7870,
      "beep": 7871,
      "ĠRain": 7872,
      "ĠRich": 7873,
      "ĠRachel": 7874,
      "ears": 7875,
      "Ġstorekeeper": 7876,
      "Ġhandsome": 7877,
      "Ġcraft": 7878,
      "Ġmeaning": 7879,
      "Ġrealizing": 7880,
      "ĠDoll": 7881,
      "Ġconvin": 7882,
      "Ġmonths": 7883,
      "Ġbrightest": 7884,
      "Ġworrying": 7885,
      "Ġdances": 7886,
      "afy": 7887,
      "aterpillar": 7888,
      "ĠOink": 7889,
      "ĠOkay": 7890,
      "Ġfills": 7891,
      "Ġjobs": 7892,
      "Ġcowb": 7893,
      "Ġshops": 7894,
      "ĠChirp": 7895,
      "armen": 7896,
      "Ġmints": 7897,
      "Ġbelongings": 7898,
      "Ġcreativ": 7899,
      "Ġmarker": 7900,
      "Ġprobably": 7901,
      "Ġhorizon": 7902,
      "ĠNobody": 7903,
      "ĠNibbles": 7904,
      "Ġserv": 7905,
      "ertain": 7906,
      "ĠSpoon": 7907,
      "ĠSpidey": 7908,
      "Ġminding": 7909,
      "Ġlarger": 7910,
      "Ġspringing": 7911,
      "Ġwisely": 7912,
      "Ġgiggles": 7913,
      "Ġdestroying": 7914,
      "Ġrelaxing": 7915,
      "Ġstamped": 7916,
      "Ġsweep": 7917,
      "Ġcrackers": 7918,
      "Ġgems": 7919,
      "Ġsniffled": 7920,
      "Ġedges": 7921,
      "Ġstreamers": 7922,
      "Ġaeroplanes": 7923,
      "Ġencount": 7924,
      "Ġlabels": 7925,
      "Ġmotorcycles": 7926,
      "ĠClimb": 7927,
      "Ġscrews": 7928,
      "Ġexercises": 7929,
      "Ġstomp": 7930,
      "ĠJody": 7931,
      "Ġdisplayed": 7932,
      "ĠDaniel": 7933,
      "Ġpinching": 7934,
      "Ġfilms": 7935,
      "Sharing": 7936,
      "Ġbeeped": 7937,
      "ĠRufus": 7938,
      "ĠCocoa": 7939,
      "Ġmassages": 7940,
      "ĠFlame": 7941,
      "ĠFlora": 7942,
      "Ġdiscussed": 7943,
      "ĠMeowny": 7944,
      "ĠUniversity": 7945,
      "Ġuniforms": 7946,
      "Ġscratching": 7947,
      "Freddy": 7948,
      "ĠLeafy": 7949,
      "Ġencouragement": 7950,
      "Ġsuffering": 7951,
      "Ġwobble": 7952,
      "ĠMelissa": 7953,
      "ĠFrankie": 7954,
      "Ġadmiration": 7955,
      "Ġpeeled": 7956,
      "Ġrespond": 7957,
      "ĠLouise": 7958,
      "Ġactivity": 7959,
      "ĠCrabby": 7960,
      "Ġsweaters": 7961,
      "Ġinsisting": 7962,
      "ĠGranny": 7963,
      "annah": 7964,
      "Marie": 7965,
      "Ġcentre": 7966,
      "Ġcenter": 7967,
      "Ġgasps": 7968,
      "ĠMixy": 7969,
      "ĠBooks": 7970,
      "Ġinstruments": 7971,
      "Ġpossess": 7972,
      "ĠCroco": 7973,
      "Ġdefinitely": 7974,
      "Ġencouraging": 7975,
      "Ġcorrectly": 7976,
      "Ġrectangle": 7977,
      "ezi": 7978,
      "Ġtummies": 7979,
      "Ġbomb": 7980,
      "Ġponies": 7981,
      "ĠMighty": 7982,
      "ĠMushroom": 7983,
      "Ġgoodbyes": 7984,
      "Ġcreativity": 7985,
      ",'": 7986,
      "Bop": 7987,
      "Cra": 7988,
      "Dear": 7989,
      "Deal": 7990,
      "Frank": 7991,
      "Jolly": 7992,
      "Olive": 7993,
      "Pr": 7994,
      "Papa": 7995,
      "RR": 7996,
      "Rock": 7997,
      "Slow": 7998,
      "Tilly": 7999,
      "Want": 8000,
      "ais": 8001,
      "act": 8002,
      "bi": 8003,
      "bro": 8004,
      "bage": 8005,
      "cused": 8006,
      "driver": 8007,
      "ibby": 8008,
      "yl": 8009,
      "Ġtuck": 8010,
      "Ġties": 8011,
      "Ġais": 8012,
      "Ġwig": 8013,
      "Ġtoad": 8014,
      "Ġfu": 8015,
      "Ġfaded": 8016,
      "ĠToy": 8017,
      "ĠTato": 8018,
      "iter": 8019,
      "Ġdizz": 8020,
      "Ġpuff": 8021,
      "aya": 8022,
      "Ġmitt": 8023,
      "erk": 8024,
      "ering": 8025,
      "erious": 8026,
      "omp": 8027,
      "Ġnur": 8028,
      "Ġnast": 8029,
      "arty": 8030,
      "onse": 8031,
      "onna": 8032,
      "Ġgonna": 8033,
      "atty": 8034,
      "ĠSk": 8035,
      "ĠSatur": 8036,
      "anwh": 8037,
      "ending": 8038,
      "irls": 8039,
      "Ġplug": 8040,
      "Ġbeast": 8041,
      "Only": 8042,
      "Ġrotten": 8043,
      "exi": 8044,
      "Ġhissing": 8045,
      "Ġstun": 8046,
      "Ġstall": 8047,
      "Ġstings": 8048,
      "Ġstacked": 8049,
      "ntil": 8050,
      "stalk": 8051,
      "ĠLuc": 8052,
      "ĠLauren": 8053,
      "ĠBad": 8054,
      "ĠBucky": 8055,
      "ĠMic": 8056,
      "Ġshall": 8057,
      "Ġbol": 8058,
      "Ġboards": 8059,
      "Ġnect": 8060,
      "Ġwhales": 8061,
      "ĠAnt": 8062,
      "ĠArm": 8063,
      "Ġreapp": 8064,
      "Ġrewards": 8065,
      "Ġseals": 8066,
      "icip": 8067,
      "Ġrods": 8068,
      "Ġaren": 8069,
      "ums": 8070,
      "Ġsadder": 8071,
      "Ġclue": 8072,
      "hings": 8073,
      "Ġmemb": 8074,
      "ongr": 8075,
      "ssy": 8076,
      "Ġthoughts": 8077,
      "retty": 8078,
      "Ġblocked": 8079,
      "ushing": 8080,
      "apers": 8081,
      "apaya": 8082,
      "Ġintrig": 8083,
      "urple": 8084,
      "antha": 8085,
      "ĠEddie": 8086,
      "Ġrunner": 8087,
      "Ġtoward": 8088,
      "ĠCross": 8089,
      "ĠCici": 8090,
      "Ġcleared": 8091,
      "Ġtapped": 8092,
      "Ġsnorted": 8093,
      "Ġdangers": 8094,
      "Ġbubb": 8095,
      "Ġbudge": 8096,
      "Ġglitt": 8097,
      "Ġmagician": 8098,
      "ĠKelly": 8099,
      "ĠPl": 8100,
      "Ġbraver": 8101,
      "Ġcafe": 8102,
      "Ġbravest": 8103,
      "ĠRoy": 8104,
      "ĠRalph": 8105,
      "Ġwriter": 8106,
      "Ġfloats": 8107,
      "acing": 8108,
      "Ġcutter": 8109,
      "Ġconcer": 8110,
      "ĠGiant": 8111,
      "Ġowners": 8112,
      "Ġbeloved": 8113,
      "Ġraces": 8114,
      "Ġgrassy": 8115,
      "Ġfarmers": 8116,
      "boat": 8117,
      "Ġanticip": 8118,
      "ĠOld": 8119,
      "ĠOuch": 8120,
      "Instead": 8121,
      "Ġthroughout": 8122,
      "Ġpens": 8123,
      "Ġpennies": 8124,
      "Ġbits": 8125,
      "Ġsets": 8126,
      "ounced": 8127,
      "Ġcreations": 8128,
      "Ġpolitely": 8129,
      "Ġvisits": 8130,
      "Ġvisitor": 8131,
      "Ġbathed": 8132,
      "Ġstreets": 8133,
      "Behind": 8134,
      "ophia": 8135,
      "ĠNavy": 8136,
      "ĠNumber": 8137,
      "Ġdriveway": 8138,
      "Ġacts": 8139,
      "ĠSpinny": 8140,
      "Ġpours": 8141,
      "Ġpanicked": 8142,
      "Ġstirs": 8143,
      "Ġreturning": 8144,
      "ĠStan": 8145,
      "Ġclassmates": 8146,
      "Ġpays": 8147,
      "Ġgenie": 8148,
      "inald": 8149,
      "Ġbeanstalk": 8150,
      "Ġpresented": 8151,
      "Ġcops": 8152,
      "guess": 8153,
      "However": 8154,
      "ĠUntil": 8155,
      "ĠShampoo": 8156,
      "Ġgarbage": 8157,
      "keepers": 8158,
      "Ġfishermen": 8159,
      "Ġhamm": 8160,
      "Ġpreparing": 8161,
      "Ġscrewdriver": 8162,
      "Ġmayor": 8163,
      "Albert": 8164,
      "ĠJoan": 8165,
      "Ġvests": 8166,
      "Ġobserving": 8167,
      "years": 8168,
      "ĠYog": 8169,
      "Ġvehicles": 8170,
      "Ġdelayed": 8171,
      "Ġaware": 8172,
      "ĠFlap": 8173,
      "ĠFlappy": 8174,
      "Quick": 8175,
      "Nothing": 8176,
      "ĠUni": 8177,
      "Ġdemanding": 8178,
      "Ġallowing": 8179,
      "Ġdifferences": 8180,
      "ĠLeopard": 8181,
      "Birdy": 8182,
      "Ġflaps": 8183,
      "Ġsimply": 8184,
      "Ġtwinkle": 8185,
      "Ġsprinkled": 8186,
      "udrey": 8187,
      "Ġresponse": 8188,
      "Ġseagulls": 8189,
      "Ġhesitant": 8190,
      "Ġcommon": 8191,
      "Ġcommun": 8192,
      "Ġdamaged": 8193,
      "Ġsternly": 8194,
      "Ġannoying": 8195,
      "Ġgreeted": 8196,
      "Ġtravelling": 8197,
      "Ġburst": 8198,
      "====": 8199,
      "ĠSlinky": 8200,
      "Ġrisks": 8201,
      "ĠSwing": 8202,
      "Ġaffect": 8203,
      "ĠReginald": 8204,
      "ĠWonder": 8205,
      "ĠJudge": 8206,
      "Ġmesmerized": 8207,
      "ĠSeat": 8208,
      "Ġoutfits": 8209,
      "ĠFlexible": 8210,
      "Ġcharacters": 8211,
      "umphrey": 8212,
      "erms": 8213,
      "ĠApple": 8214,
      "Ġwrinkled": 8215,
      "Ġconsider": 8216,
      "eeling": 8217,
      "Ġscurrying": 8218,
      "broken": 8219,
      "Ġdizziness": 8220,
      "Ġnasty": 8221,
      "ĠSaturday": 8222,
      "anwhile": 8223,
      "Ġnectar": 8224,
      "Ġmembers": 8225,
      "Ava": 8226,
      "Adam": 8227,
      "Both": 8228,
      "Beth": 8229,
      "Binky": 8230,
      "Cla": 8231,
      "Hmm": 8232,
      "Johny": 8233,
      "King": 8234,
      "Mon": 8235,
      "Promise": 8236,
      "Ralph": 8237,
      "Tw": 8238,
      "aven": 8239,
      "bed": 8240,
      "bird": 8241,
      "cent": 8242,
      "cted": 8243,
      "date": 8244,
      "giving": 8245,
      "ib": 8246,
      "jack": 8247,
      "line": 8248,
      "parent": 8249,
      "rinky": 8250,
      "sn": 8251,
      "uses": 8252,
      "via": 8253,
      "water": 8254,
      "Ġ5": 8255,
      "Ġsou": 8256,
      "Ġtheat": 8257,
      "Ġbou": 8258,
      "Ġbound": 8259,
      "Ġfist": 8260,
      "ĠTick": 8261,
      "ĠTibby": 8262,
      "Ġwadd": 8263,
      "Ġlun": 8264,
      "Ġcertain": 8265,
      "Ġpant": 8266,
      "Ġpouch": 8267,
      "erts": 8268,
      "ĠThermometer": 8269,
      "Ġgap": 8270,
      "atitude": 8271,
      "lect": 8272,
      "ĠHatty": 8273,
      "Ġplugged": 8274,
      "veral": 8275,
      "oochy": 8276,
      "Ġrack": 8277,
      "Ġhisses": 8278,
      "ckless": 8279,
      "ĠLand": 8280,
      "ĠLexi": 8281,
      "ĠBra": 8282,
      "Ġeld": 8283,
      "ĠMoppy": 8284,
      "ĠMina": 8285,
      "ĠMilo": 8286,
      "esses": 8287,
      "Ġshh": 8288,
      "Ġshorter": 8289,
      "Ġbirdhouse": 8290,
      "elope": 8291,
      "uggy": 8292,
      "ĠAly": 8293,
      "ĠAbi": 8294,
      "ĠAudrey": 8295,
      "Ġfunn": 8296,
      "illip": 8297,
      "Ġjing": 8298,
      "Ġreass": 8299,
      "Ġreckless": 8300,
      "Ġseveral": 8301,
      "ics": 8302,
      "Ġclerk": 8303,
      "Ġscent": 8304,
      "ĠWait": 8305,
      "Ġexcept": 8306,
      "iece": 8307,
      "ĠFun": 8308,
      "ĠFix": 8309,
      "ĠJune": 8310,
      "ift": 8311,
      "Ġswallow": 8312,
      "ĠDust": 8313,
      "ĠDespite": 8314,
      "quet": 8315,
      "âĢ¦": 8316,
      "ĠBobba": 8317,
      "Ġunable": 8318,
      "Ġlongest": 8319,
      "Ġskate": 8320,
      "Ġamused": 8321,
      "Ġtrading": 8322,
      "ĠCle": 8323,
      "ĠCaterpillar": 8324,
      "Ġtale": 8325,
      "Ġsnar": 8326,
      "Ġsnug": 8327,
      "Ġshares": 8328,
      "Ġfocused": 8329,
      "Ġgratitude": 8330,
      "Ġbud": 8331,
      "ĠEverybody": 8332,
      "Ġcheat": 8333,
      "ĠPop": 8334,
      "ĠPol": 8335,
      "ĠPippy": 8336,
      "ĠPlaying": 8337,
      "Ġclosing": 8338,
      "Ġdefe": 8339,
      "ĠWhip": 8340,
      "sol": 8341,
      "ĠRazor": 8342,
      "Ġstores": 8343,
      "acle": 8344,
      "acher": 8345,
      "Ġrealizes": 8346,
      "athan": 8347,
      "Ġsweetest": 8348,
      "Ġhotter": 8349,
      "Ġdressing": 8350,
      "ĠOh": 8351,
      "ĠOp": 8352,
      "Ġdreamt": 8353,
      "asha": 8354,
      "Ġcloudy": 8355,
      "Ġcupcakes": 8356,
      "upin": 8357,
      "anga": 8358,
      "Does": 8359,
      "Ġrivers": 8360,
      "Ġraking": 8361,
      "Ġshines": 8362,
      "Ġguards": 8363,
      "Ġmailing": 8364,
      "Ġsailors": 8365,
      "Ġsailboat": 8366,
      "ĠChug": 8367,
      "ĠChuck": 8368,
      "ĠChip": 8369,
      "Ġcorns": 8370,
      "Ġbaskets": 8371,
      "Ġbatt": 8372,
      "Ġteachers": 8373,
      "Ġpills": 8374,
      "olo": 8375,
      "Ġlunchtime": 8376,
      "Ġcollap": 8377,
      "Goodnight": 8378,
      "Ġdesc": 8379,
      "Ġdespite": 8380,
      "ĠNate": 8381,
      "Ġcloths": 8382,
      "Ġinvites": 8383,
      "ĠOnly": 8384,
      "Ġchewy": 8385,
      "Ġexpress": 8386,
      "Ġglows": 8387,
      "Ġpuzzled": 8388,
      "Ġforgives": 8389,
      "izzie": 8390,
      "Ġsprays": 8391,
      "Ġexploration": 8392,
      "ments": 8393,
      "Ġpacket": 8394,
      "Ġdigs": 8395,
      "ĠBrush": 8396,
      "Ġnervously": 8397,
      "Ġwiser": 8398,
      "creams": 8399,
      "Ġgenerosity": 8400,
      "Ġterrified": 8401,
      "Ġroars": 8402,
      "Ġmushy": 8403,
      "Ġperformer": 8404,
      "Ġperformance": 8405,
      "ĠPeep": 8406,
      "Ġsunflowers": 8407,
      "Ġsquealed": 8408,
      "ĠWilliam": 8409,
      "Ġcroaked": 8410,
      "Ġ''": 8411,
      "Ġenviron": 8412,
      "Ġenvelopes": 8413,
      "Ġstatues": 8414,
      "ivia": 8415,
      "ĠShiny": 8416,
      "Ġpostc": 8417,
      "Ġtraveling": 8418,
      "Ġsupporting": 8419,
      "Ġdisturbing": 8420,
      "ĠRobot": 8421,
      "ĠTweety": 8422,
      "Ġnewspapers": 8423,
      "Isabella": 8424,
      "Ġmagazines": 8425,
      "Ġdesserts": 8426,
      "Ġvibr": 8427,
      "Ġsymbols": 8428,
      "Ġpermitted": 8429,
      "Ġdisagre": 8430,
      "Should": 8431,
      "Ġcuddles": 8432,
      "Ġcomforting": 8433,
      "ĠMarsh": 8434,
      "Ġslips": 8435,
      "Ġstomachs": 8436,
      "Ġartist": 8437,
      "ĠViolet": 8438,
      "Willow": 8439,
      "Ġscolds": 8440,
      "Ġgrandparent": 8441,
      "Ġquacking": 8442,
      "Ġlungs": 8443,
      "Ġoffering": 8444,
      "Ġpedaled": 8445,
      "Ġopinions": 8446,
      "ĠZoey": 8447,
      "Trust": 8448,
      "Ġappreciation": 8449,
      "ĠQuack": 8450,
      "Ġhesitation": 8451,
      "Ġmeowing": 8452,
      "Uncle": 8453,
      "Ġcrowd": 8454,
      "ĠReady": 8455,
      "Ġflavors": 8456,
      "ĠAmanda": 8457,
      "hole": 8458,
      "Ġdollars": 8459,
      "Leave": 8460,
      "cloud": 8461,
      "Ġchoosing": 8462,
      "Ġbeaming": 8463,
      "ĠAuntie": 8464,
      "ĠLaura": 8465,
      "Ġforgiveness": 8466,
      "Sadie": 8467,
      "Ġsyrup": 8468,
      "Ġmunching": 8469,
      "Ġearned": 8470,
      "Ġslithered": 8471,
      "ĠPenelope": 8472,
      "Ġmaterials": 8473,
      "Ġtemperature": 8474,
      "Ġyelped": 8475,
      "Ġrustling": 8476,
      "immering": 8477,
      "Ġconvinced": 8478,
      "Ġencountered": 8479,
      "ylvia": 8480,
      "Ġintrigued": 8481,
      "Ġanticipation": 8482,
      "Claire": 8483,
      "Ġbouquet": 8484,
      "ĠBrave": 8485,
      "Ġenvironment": 8486,
      "Abigail": 8487,
      "Carl": 8488,
      "Danger": 8489,
      "Eat": 8490,
      "Got": 8491,
      "Gigi": 8492,
      "Gogo": 8493,
      "Ho": 8494,
      "Hoppy": 8495,
      "Ice": 8496,
      "Jess": 8497,
      "Jacob": 8498,
      "Kiki": 8499,
      "Kids": 8500,
      "Karen": 8501,
      "Mel": 8502,
      "Mother": 8503,
      "Sun": 8504,
      "Squeaky": 8505,
      "Speedy": 8506,
      "Splash": 8507,
      "Sofia": 8508,
      "Wake": 8509,
      "Zoe": 8510,
      "bell": 8511,
      "bank": 8512,
      "fl": 8513,
      "fire": 8514,
      "ivery": 8515,
      "lor": 8516,
      "ming": 8517,
      "mate": 8518,
      "pop": 8519,
      "sers": 8520,
      "uise": 8521,
      "yan": 8522,
      "Ġbless": 8523,
      "Ġfulf": 8524,
      "ĠTy": 8525,
      "ĠTock": 8526,
      "ĠTizzy": 8527,
      "ĠTere": 8528,
      "inted": 8529,
      "ita": 8530,
      "Ġlull": 8531,
      "Ġding": 8532,
      "Ġdarl": 8533,
      "Ġdais": 8534,
      "Ġpound": 8535,
      "Ġpuck": 8536,
      "Ġmer": 8537,
      "Ġwashes": 8538,
      "Ġheaven": 8539,
      "Ġniece": 8540,
      "onst": 8541,
      "iden": 8542,
      "idence": 8543,
      "Ġhabit": 8544,
      "Ġglee": 8545,
      "att": 8546,
      "atul": 8547,
      "ĠSummer": 8548,
      "ĠSince": 8549,
      "ots": 8550,
      "otato": 8551,
      "ircle": 8552,
      "off": 8553,
      "ets": 8554,
      "ige": 8555,
      "ĠHello": 8556,
      "Ġplaydate": 8557,
      "Ġrushing": 8558,
      "Ġheron": 8559,
      "Ġhiss": 8560,
      "ĠIce": 8561,
      "stick": 8562,
      "riendship": 8563,
      "ĠLaz": 8564,
      "ĠLots": 8565,
      "ĠBand": 8566,
      "ĠMs": 8567,
      "ĠMake": 8568,
      "ĠMore": 8569,
      "ĠMaddie": 8570,
      "ĠMuggy": 8571,
      "Ġsoot": 8572,
      "elina": 8573,
      "Ġwhir": 8574,
      "Ġwhine": 8575,
      "Ġwhiskers": 8576,
      "Ġalley": 8577,
      "ĠAc": 8578,
      "ĠAry": 8579,
      "Ġlocks": 8580,
      "Ġodd": 8581,
      "Ġreun": 8582,
      "Ġrely": 8583,
      "icent": 8584,
      "Ġrobb": 8585,
      "Ġrobe": 8586,
      "ula": 8587,
      "Ġclut": 8588,
      "Ġspy": 8589,
      "Ġscamp": 8590,
      "Ġfaith": 8591,
      "Ġfailed": 8592,
      "Ġcarve": 8593,
      "ĠWar": 8594,
      "ĠWell": 8595,
      "ĠWise": 8596,
      "ĠBenji": 8597,
      "Ġalthough": 8598,
      "ssa": 8599,
      "Ġexpecting": 8600,
      "ookie": 8601,
      "ĠFind": 8602,
      "ĠFair": 8603,
      "ĠFriendship": 8604,
      "Ġprank": 8605,
      "Ġprove": 8606,
      "ĠJumpy": 8607,
      "Ġflips": 8608,
      "abelle": 8609,
      "Ġsuns": 8610,
      "Ġblur": 8611,
      "Ġblade": 8612,
      "Ġblades": 8613,
      "asers": 8614,
      "ĠDot": 8615,
      "ĠDull": 8616,
      "ĠDezi": 8617,
      "ĠBobbie": 8618,
      "Ġpecks": 8619,
      "Ġdaddies": 8620,
      "Ġstrum": 8621,
      "ĠCara": 8622,
      "ĠCable": 8623,
      "Ġenem": 8624,
      "Ġgrumbled": 8625,
      "ortunately": 8626,
      "Ġdoorbell": 8627,
      "Ġglanced": 8628,
      "ildren": 8629,
      "Ġcoloring": 8630,
      "ĠKanga": 8631,
      "Ġparamed": 8632,
      "ĠPet": 8633,
      "ĠPass": 8634,
      "ĠPoin": 8635,
      "ĠParty": 8636,
      "ĠPapaya": 8637,
      "ĠPurple": 8638,
      "ipes": 8639,
      "Ġhatch": 8640,
      "Ġtowns": 8641,
      "Ġcausing": 8642,
      "Ġwarmly": 8643,
      "ĠWhoe": 8644,
      "ĠRh": 8645,
      "ĠRicky": 8646,
      "ĠRyan": 8647,
      "ĠRita": 8648,
      "earl": 8649,
      "Ġfixer": 8650,
      "Ġfinal": 8651,
      "Ġfinishing": 8652,
      "Ġexplo": 8653,
      "Ġcrashing": 8654,
      "Ġtriang": 8655,
      "Ġmessed": 8656,
      "Ġrealise": 8657,
      "Ġriches": 8658,
      "Ġdifferently": 8659,
      "Ġdelivery": 8660,
      "ĠJaney": 8661,
      "ĠOffic": 8662,
      "ĠOxygen": 8663,
      "Ġcreamy": 8664,
      "Ġplans": 8665,
      "Ġowls": 8666,
      "Ġfires": 8667,
      "Ġarr": 8668,
      "Ġsnowfl": 8669,
      "Ġseawe": 8670,
      "Ġmixture": 8671,
      "Ġriverbank": 8672,
      "Ġunderstands": 8673,
      "Ġshinier": 8674,
      "ĠTodd": 8675,
      "Ġsmartest": 8676,
      "Ġguided": 8677,
      "Ġguesses": 8678,
      "Ġattend": 8679,
      "Ġwelcoming": 8680,
      "Ġresisted": 8681,
      "Finny": 8682,
      "ordan": 8683,
      "Ġpassen": 8684,
      "Ġsmoother": 8685,
      "armony": 8686,
      "Ġjoyfully": 8687,
      "ĠGrand": 8688,
      "Ġshrank": 8689,
      "Ġheartbroken": 8690,
      "Ġstorms": 8691,
      "Ġspoiling": 8692,
      "Ġcovering": 8693,
      "Ġsalon": 8694,
      "Ġdesigning": 8695,
      "Ġchews": 8696,
      "Ġmedals": 8697,
      "Ġpractised": 8698,
      "Ġteams": 8699,
      "occo": 8700,
      "ĠSpace": 8701,
      "ĠSpicy": 8702,
      "ĠBussy": 8703,
      "Ġdigger": 8704,
      "ugging": 8705,
      "Ġtentacles": 8706,
      "ĠBirds": 8707,
      "Ġanswering": 8708,
      "Ġcrowns": 8709,
      "Ġsuits": 8710,
      "Ġsuitcase": 8711,
      "Ġtunes": 8712,
      "Ġbulbs": 8713,
      "Ġtoolbox": 8714,
      "Ġblooms": 8715,
      "ĠTrucky": 8716,
      "ĠAlbert": 8717,
      "Ġrepairs": 8718,
      "Ġcrocodiles": 8719,
      "Ġpressing": 8720,
      "Ġcompete": 8721,
      "Ġguarding": 8722,
      "Ġtravels": 8723,
      "Ġangrily": 8724,
      "Ġangrier": 8725,
      "Ġhippos": 8726,
      "Ġthundercloud": 8727,
      "Ġjets": 8728,
      "Ġquarreled": 8729,
      "Ġhunters": 8730,
      "Ġcrickets": 8731,
      "Ġmugs": 8732,
      "Ġproviding": 8733,
      "Ġhelicopters": 8734,
      "Ġfoggy": 8735,
      "Ġcables": 8736,
      "Ġexplains": 8737,
      "ĠSnowball": 8738,
      "Ġlumberjack": 8739,
      "Ġcells": 8740,
      "ĠâĢĶ": 8741,
      "ĠRude": 8742,
      "Ġdelaying": 8743,
      "ĠVolly": 8744,
      "ĠStealing": 8745,
      "ĠFlick": 8746,
      "Ġbends": 8747,
      "Ġbendy": 8748,
      "Ġstyles": 8749,
      "Ġdemonst": 8750,
      "Anne": 8751,
      "Ġluckily": 8752,
      "ĠRoll": 8753,
      "Ġexperien": 8754,
      "Ġwhispering": 8755,
      "Ġseconds": 8756,
      "Ġlectures": 8757,
      "ĠSunshine": 8758,
      "ĠMelon": 8759,
      "Ġwinks": 8760,
      "ĠPrint": 8761,
      "Ġannounced": 8762,
      "ĠMaya": 8763,
      "ĠSquare": 8764,
      "Ġsleds": 8765,
      "Ġsituations": 8766,
      "Robby": 8767,
      "Robert": 8768,
      "Ġpupils": 8769,
      "Ġachieved": 8770,
      "Ġsirens": 8771,
      "Ġobeyed": 8772,
      "Ġrefreshing": 8773,
      "ĠBeepy": 8774,
      "Ġcousins": 8775,
      "Suzie": 8776,
      "ĠMixie": 8777,
      "Ġfacts": 8778,
      "Someone": 8779,
      "Ġnibbled": 8780,
      "Snow": 8781,
      "ĠBooker": 8782,
      "Ġsteering": 8783,
      "ĠLaurie": 8784,
      "ĠPhillip": 8785,
      "Ġundone": 8786,
      "Ġscraped": 8787,
      "Froggy": 8788,
      "Ġtidied": 8789,
      "Ġcottage": 8790,
      "Ġability": 8791,
      "Ġunwrap": 8792,
      "Ġtype": 8793,
      "Ġconduct": 8794,
      "Ġswimsuits": 8795,
      "Ġechoed": 8796,
      "ĠBibo": 8797,
      "Ġwhimpered": 8798,
      "ĠClouds": 8799,
      "Ġdisobeyed": 8800,
      "Ġgesture": 8801,
      "Ġinjured": 8802,
      "Ġaisle": 8803,
      "ĠSkip": 8804,
      "Ġbolt": 8805,
      "ongratul": 8806,
      "Ġconcerned": 8807,
      "snap": 8808,
      "Ġtheatre": 8809,
      "Ġvibrant": 8810,
      "Ġdisagreement": 8811,
      "ĠTeresa": 8812,
      "Ġlullaby": 8813,
      "Ġdarlings": 8814,
      "Ġdaisies": 8815,
      "ĠLazy": 8816,
      "ĠArya": 8817,
      "Ġrobbers": 8818,
      "Ġscampered": 8819,
      "Ġenemies": 8820,
      "Ġparamedics": 8821,
      "ĠPassport": 8822,
      "ĠPoint": 8823,
      "ĠWhoever": 8824,
      "Ġtriangles": 8825,
      "ĠOfficer": 8826,
      "Ġseaweed": 8827,
      "Ġexperienced": 8828,
      "',": 8829,
      "Any": 8830,
      "Arthur": 8831,
      "Bo": 8832,
      "Bug": 8833,
      "Belle": 8834,
      "Caw": 8835,
      "Catch": 8836,
      "Curious": 8837,
      "Duck": 8838,
      "En": 8839,
      "Fish": 8840,
      "Friends": 8841,
      "Hope": 8842,
      "Jay": 8843,
      "Joy": 8844,
      "Kelly": 8845,
      "Mag": 8846,
      "Marth": 8847,
      "Maddie": 8848,
      "Nice": 8849,
      "Near": 8850,
      "Polly": 8851,
      "Rabbit": 8852,
      "Surrender": 8853,
      "Ted": 8854,
      "Tara": 8855,
      "Wiggly": 8856,
      "action": 8857,
      "aige": 8858,
      "bs": 8859,
      "cou": 8860,
      "can": 8861,
      "cake": 8862,
      "doo": 8863,
      "dad": 8864,
      "dog": 8865,
      "dinky": 8866,
      "dges": 8867,
      "dmother": 8868,
      "ese": 8869,
      "even": 8870,
      "mar": 8871,
      "mel": 8872,
      "ne": 8873,
      "nor": 8874,
      "okay": 8875,
      "per": 8876,
      "prin": 8877,
      "rings": 8878,
      "rough": 8879,
      "ration": 8880,
      "rons": 8881,
      "rina": 8882,
      "she": 8883,
      "sack": 8884,
      "uard": 8885,
      "wen": 8886,
      "Ġicky": 8887,
      "Ġaqu": 8888,
      "ndles": 8889,
      "Ġborn": 8890,
      "Ġbuddy": 8891,
      "Ġhuff": 8892,
      "Ġfet": 8893,
      "ĠTra": 8894,
      "ĠTip": 8895,
      "incy": 8896,
      "rest": 8897,
      "rees": 8898,
      "repe": 8899,
      "Ġlur": 8900,
      "Ġlimp": 8901,
      "Ġdet": 8902,
      "Ġdep": 8903,
      "Ġdand": 8904,
      "Ġdips": 8905,
      "Ġdashed": 8906,
      "Ġcongratul": 8907,
      "Ġpoop": 8908,
      "Ġpasses": 8909,
      "Ġmur": 8910,
      "Ġmate": 8911,
      "arium": 8912,
      "onnie": 8913,
      "Ġhaw": 8914,
      "Ġgerms": 8915,
      "aty": 8916,
      "ĠSug": 8917,
      "ĠSly": 8918,
      "ĠSophia": 8919,
      "ĠHank": 8920,
      "ĠHumphrey": 8921,
      "igger": 8922,
      "Ġplumber": 8923,
      "vered": 8924,
      "Ġrout": 8925,
      "Ġruff": 8926,
      "Ġrises": 8927,
      "Ġrider": 8928,
      "exit": 8929,
      "unched": 8930,
      "Ġonline": 8931,
      "ĠLime": 8932,
      "ĠLumber": 8933,
      "ĠLife": 8934,
      "ĠLupin": 8935,
      "ĠBro": 8936,
      "ĠBess": 8937,
      "ĠBang": 8938,
      "ĠBones": 8939,
      "sel": 8940,
      "Ġforts": 8941,
      "Ġketch": 8942,
      "Ġboil": 8943,
      "Theo": 8944,
      "elix": 8945,
      "ali": 8946,
      "orence": 8947,
      "Ġtreas": 8948,
      "icate": 8949,
      "icious": 8950,
      "icola": 8951,
      "Ġgodmother": 8952,
      "Ġlevel": 8953,
      "Ġclip": 8954,
      "Ġsped": 8955,
      "Ġspies": 8956,
      "Ġscre": 8957,
      "opy": 8958,
      "Ġlaz": 8959,
      "ĠSamantha": 8960,
      "ager": 8961,
      "Ġseeking": 8962,
      "Ġages": 8963,
      "Ġotherwise": 8964,
      "Ġexch": 8965,
      "ooks": 8966,
      "ĠFelix": 8967,
      "ĠJed": 8968,
      "ĠJelly": 8969,
      "abrina": 8970,
      "Ġlearner": 8971,
      "ashing": 8972,
      "Ġchatter": 8973,
      "Ġintently": 8974,
      "ives": 8975,
      "ĠDeal": 8976,
      "Ġopt": 8977,
      "Ġpoppies": 8978,
      "Ġwatermel": 8979,
      "Ġhoof": 8980,
      "Ġhost": 8981,
      "Ġtrans": 8982,
      "Ġslug": 8983,
      "imals": 8984,
      "Ġthanking": 8985,
      "venir": 8986,
      "ĠClive": 8987,
      "ĠCory": 8988,
      "ĠCelia": 8989,
      "ĠCarmen": 8990,
      "ĠCookie": 8991,
      "Ġhanding": 8992,
      "Ġclover": 8993,
      "Ġsnapping": 8994,
      "Ġendings": 8995,
      "Ġbluebird": 8996,
      "ĠHerb": 8997,
      "ĠHerbie": 8998,
      "Ġuntw": 8999,
      "Ġuntangle": 9000,
      "ĠPoochy": 9001,
      "ĠPotato": 9002,
      "Ġquilt": 9003,
      "Ġforests": 9004,
      "Ġbeautif": 9005,
      "tha": 9006,
      "ĠRick": 9007,
      "ĠRolly": 9008,
      "ĠRub": 9009,
      "âĢĿ,": 9010,
      "Ġhearing": 9011,
      "Ġwrigg": 9012,
      "acy": 9013,
      "accoon": 9014,
      "Ġconcent": 9015,
      "Ġenjoyable": 9016,
      "ĠGill": 9017,
      "ĠGinny": 9018,
      "Ġnightfall": 9019,
      "Ġstepping": 9020,
      "ĠOx": 9021,
      "Ġdrip": 9022,
      "peed": 9023,
      "Ġtreated": 9024,
      "Ġlessons": 9025,
      "artled": 9026,
      "amps": 9027,
      "ĠJohnson": 9028,
      "ippers": 9029,
      "Ġattack": 9030,
      "Ġattem": 9031,
      "eading": 9032,
      "Ġearrings": 9033,
      "ĠChair": 9034,
      "Ġwarri": 9035,
      "Ġcruel": 9036,
      "Ġfences": 9037,
      "Ġtoucan": 9038,
      "Ġobst": 9039,
      "ĠFredrick": 9040,
      "Jackie": 9041,
      "Ġwrapper": 9042,
      "balls": 9043,
      "Ġrecipe": 9044,
      "Ġwildf": 9045,
      "ĠNurse": 9046,
      "Ġlifegu": 9047,
      "Ġgiants": 9048,
      "Still": 9049,
      "ĠAnnabelle": 9050,
      "ĠDogs": 9051,
      "Ġfootprin": 9052,
      "Ġzookeepers": 9053,
      "Ġcalmly": 9054,
      "Ġweaker": 9055,
      "ĠSpiky": 9056,
      "Ġminds": 9057,
      "Ġstretches": 9058,
      "ĠBury": 9059,
      "ĠBundles": 9060,
      "Ġhumming": 9061,
      "ĠStill": 9062,
      "Ġcherish": 9063,
      "Ġafar": 9064,
      "Ġlamps": 9065,
      "Ġaprons": 9066,
      "Ġembra": 9067,
      "ĠBecky": 9068,
      "Ġtesting": 9069,
      "Ġprotects": 9070,
      "Ġdisguise": 9071,
      "Ġcombing": 9072,
      "Ġcopied": 9073,
      "Ġtempted": 9074,
      "Ġaddress": 9075,
      "Ġexamining": 9076,
      "Ġsilent": 9077,
      "Ġerasers": 9078,
      "Meanwhile": 9079,
      "Ġspilling": 9080,
      "Ġposts": 9081,
      "undred": 9082,
      "Ġthieves": 9083,
      "Ġdives": 9084,
      "rnie": 9085,
      "Ġintelligence": 9086,
      "Ġhamster": 9087,
      "Ġweighs": 9088,
      "Ġcomputers": 9089,
      "Ġmelts": 9090,
      "Ġgears": 9091,
      "Isn": 9092,
      "Ġmattresses": 9093,
      "Ġnovels": 9094,
      "Ġdisappears": 9095,
      "Ġostriches": 9096,
      "Ġmeatballs": 9097,
      "Ġstomped": 9098,
      "Ġburying": 9099,
      "Ġchecking": 9100,
      "Ġfreezing": 9101,
      "Ġpeeks": 9102,
      "Share": 9103,
      "Shrinky": 9104,
      "Ġbills": 9105,
      "ĠMartha": 9106,
      "ĠOrin": 9107,
      "Ġawful": 9108,
      "Ġapplauding": 9109,
      "ĠCarlos": 9110,
      "ĠFlorence": 9111,
      "Ġentering": 9112,
      "Chloe": 9113,
      "Ġneighbours": 9114,
      "Ġconfidence": 9115,
      "Ġexperiences": 9116,
      "Ġpearls": 9117,
      "ĠBeeBee": 9118,
      "ĠRosa": 9119,
      "Ġemerged": 9120,
      "ĠSundays": 9121,
      "ienna": 9122,
      "Ġwebs": 9123,
      "Ġapproach": 9124,
      "ĠBreezy": 9125,
      "Ġwaistband": 9126,
      "Ġpeels": 9127,
      "ĠCars": 9128,
      "ĠPrinty": 9129,
      "Ġairplanes": 9130,
      "ĠMonkey": 9131,
      "jamin": 9132,
      "Ġcontainer": 9133,
      "Ġfluttering": 9134,
      "Ġaccomplished": 9135,
      "ĠGrumpy": 9136,
      "Ġfirefighter": 9137,
      "Ġintroducing": 9138,
      "ĠQueeny": 9139,
      "Maria": 9140,
      "ĠWooly": 9141,
      "Ġswitches": 9142,
      "ĠPupil": 9143,
      "ĠSlide": 9144,
      "Ġstains": 9145,
      "Outside": 9146,
      "Snap": 9147,
      "ĠSwitch": 9148,
      "ĠPuss": 9149,
      "Ġafford": 9150,
      "Ġinstrument": 9151,
      "Ġparticularly": 9152,
      "ĠWolf": 9153,
      "Ġmesmerised": 9154,
      "Sadly": 9155,
      "ĠTeacher": 9156,
      "Ġstrolled": 9157,
      "Ġastronauts": 9158,
      "Ġswaying": 9159,
      "Ġdodged": 9160,
      "Ġdodging": 9161,
      "ĠBallie": 9162,
      "Ġtingling": 9163,
      "Ġfreedom": 9164,
      "ĠBarky": 9165,
      "ĠEduard": 9166,
      "Ġoccasion": 9167,
      "Ġoccasions": 9168,
      "Open": 9169,
      "Ġdumped": 9170,
      "Ġshooed": 9171,
      "Ġcharge": 9172,
      "ĠKevin": 9173,
      "ĠRae": 9174,
      "Ġheights": 9175,
      "elieve": 9176,
      "Ġscenery": 9177,
      "ĠChris": 9178,
      "Ġcoughed": 9179,
      "Ġsavanna": 9180,
      "ĠMagnet": 9181,
      "ĠJemma": 9182,
      "Ġsquawked": 9183,
      "ĠRainbow": 9184,
      "ĠClimbing": 9185,
      "ĠYogi": 9186,
      "Two": 9187,
      "ibil": 9188,
      "Ġsouvenir": 9189,
      "ĠAlyssa": 9190,
      "Ġskateboard": 9191,
      "Ġsnarled": 9192,
      "Ġbattle": 9193,
      "Ġreunited": 9194,
      "Ġsnowflakes": 9195,
      "Ġdemonstrated": 9196,
      "Ġconductor": 9197,
      "Martha": 9198,
      "couraged": 9199,
      "Ġaquarium": 9200,
      "repeat": 9201,
      "Ġdandel": 9202,
      "ĠBroccoli": 9203,
      "ĠBessy": 9204,
      "Ġketchup": 9205,
      "ĠJellyfish": 9206,
      "Ġwatermelon": 9207,
      "Ġtransform": 9208,
      "ĠRubber": 9209,
      "Ġlifeguard": 9210,
      "Ġfootprints": 9211,
      "ĠEduardo": 9212,
      "Aw": 9213,
      "Arrr": 9214,
      "Back": 9215,
      "Bless": 9216,
      "Baa": 9217,
      "Brrr": 9218,
      "Candy": 9219,
      "Ding": 9220,
      "Down": 9221,
      "Fl": 9222,
      "Freeze": 9223,
      "Fortunately": 9224,
[...]
